{"0": "Ā", "1": "ā", "2": "Ă", "3": "ă", "4": "Ą", "5": "ą", "6": "Ć", "7": "ć", "8": "Ĉ", "9": "ĉ", "10": "Ċ", "11": "ċ", "12": "Č", "13": "č", "14": "Ď", "15": "ď", "16": "Đ", "17": "đ", "18": "Ē", "19": "ē", "20": "Ĕ", "21": "ĕ", "22": "Ė", "23": "ė", "24": "Ę", "25": "ę", "26": "Ě", "27": "ě", "28": "Ĝ", "29": "ĝ", "30": "Ğ", "31": "ğ", "32": "Ġ", "33": "!", "34": "\"", "35": "#", "36": "$", "37": "%", "38": "&", "39": "'", "40": "(", "41": ")", "42": "*", "43": "+", "44": ",", "45": "-", "46": ".", "47": "/", "48": "0", "49": "1", "50": "2", "51": "3", "52": "4", "53": "5", "54": "6", "55": "7", "56": "8", "57": "9", "58": ":", "59": ";", "60": "<", "61": "=", "62": ">", "63": "?", "64": "@", "65": "A", "66": "B", "67": "C", "68": "D", "69": "E", "70": "F", "71": "G", "72": "H", "73": "I", "74": "J", "75": "K", "76": "L", "77": "M", "78": "N", "79": "O", "80": "P", "81": "Q", "82": "R", "83": "S", "84": "T", "85": "U", "86": "V", "87": "W", "88": "X", "89": "Y", "90": "Z", "91": "[", "92": "\\", "93": "]", "94": "^", "95": "_", "96": "`", "97": "a", "98": "b", "99": "c", "100": "d", "101": "e", "102": "f", "103": "g", "104": "h", "105": "i", "106": "j", "107": "k", "108": "l", "109": "m", "110": "n", "111": "o", "112": "p", "113": "q", "114": "r", "115": "s", "116": "t", "117": "u", "118": "v", "119": "w", "120": "x", "121": "y", "122": "z", "123": "{", "124": "|", "125": "}", "126": "~", "127": "ġ", "128": "Ģ", "129": "ģ", "130": "Ĥ", "131": "ĥ", "132": "Ħ", "133": "ħ", "134": "Ĩ", "135": "ĩ", "136": "Ī", "137": "ī", "138": "Ĭ", "139": "ĭ", "140": "Į", "141": "į", "142": "İ", "143": "ı", "144": "Ĳ", "145": "ĳ", "146": "Ĵ", "147": "ĵ", "148": "Ķ", "149": "ķ", "150": "ĸ", "151": "Ĺ", "152": "ĺ", "153": "Ļ", "154": "ļ", "155": "Ľ", "156": "ľ", "157": "Ŀ", "158": "ŀ", "159": "Ł", "160": "ł", "161": "¡", "162": "¢", "163": "£", "164": "¤", "165": "¥", "166": "¦", "167": "§", "168": "¨", "169": "©", "170": "ª", "171": "«", "172": "¬", "173": "Ń", "174": "®", "175": "¯", "176": "°", "177": "±", "178": "²", "179": "³", "180": "´", "181": "µ", "182": "¶", "183": "·", "184": "¸", "185": "¹", "186": "º", "187": "»", "188": "¼", "189": "½", "190": "¾", "191": "¿", "192": "À", "193": "Á", "194": "Â", "195": "Ã", "196": "Ä", "197": "Å", "198": "Æ", "199": "Ç", "200": "È", "201": "É", "202": "Ê", "203": "Ë", "204": "Ì", "205": "Í", "206": "Î", "207": "Ï", "208": "Ð", "209": "Ñ", "210": "Ò", "211": "Ó", "212": "Ô", "213": "Õ", "214": "Ö", "215": "×", "216": "Ø", "217": "Ù", "218": "Ú", "219": "Û", "220": "Ü", "221": "Ý", "222": "Þ", "223": "ß", "224": "à", "225": "á", "226": "â", "227": "ã", "228": "ä", "229": "å", "230": "æ", "231": "ç", "232": "è", "233": "é", "234": "ê", "235": "ë", "236": "ì", "237": "í", "238": "î", "239": "ï", "240": "ð", "241": "ñ", "242": "ò", "243": "ó", "244": "ô", "245": "õ", "246": "ö", "247": "÷", "248": "ø", "249": "ù", "250": "ú", "251": "û", "252": "ü", "253": "ý", "254": "þ", "255": "ÿ", "256": "Ġt", "257": "Ġa", "258": "he", "259": "in", "260": "re", "261": "Ġthe", "262": "on", "263": "er", "264": "Ġs", "265": "Ġw", "266": "at", "267": "Ġo", "268": "en", "269": "Ġc", "270": "it", "271": "is", "272": "an", "273": "or", "274": "Ġb", "275": "es", "276": "ed", "277": "Ġf", "278": "ing", "279": "Ġp", "280": "ou", "281": "Ġan", "282": "al", "283": "Ġto", "284": "ar", "285": "Ġm", "286": "Ġin", "287": "Ġof", "288": "Ġh", "289": "Ġd", "290": "âĢ", "291": "as", "292": "ic", "293": "Ġand", "294": "Ġth", "295": "le", "296": "om", "297": "ion", "298": "ll", "299": "ent", "300": "Ġn", "301": "Ġl", "302": "Ġre", "303": "st", "304": "ve", "305": "Ġe", "306": "ly", "307": "ro", "308": "Ġbe", "309": "Ġg", "310": "id", "311": "ut", "312": "ac", "313": "ot", "314": "ĠT", "315": "ĠI", "316": "Ġthat", "317": "Ġon", "318": "ay", "319": "ĠS", "320": "Ġis", "321": "et", "322": "im", "323": "am", "324": "ad", "325": "ow", "326": "se", "327": "ig", "328": "Ġfor", "329": "âĢĻ", "330": "ĠA", "331": "ver", "332": "ur", "333": "ct", "334": "ld", "335": "ĠC", "336": "Ġu", "337": "Ġst", "338": "Ġy", "339": "Ġit", "340": "Ġhe", "341": "ir", "342": "ation", "343": "ith", "344": "Ġwh", "345": "ĠM", "346": "ce", "347": "ter", "348": "ol", "349": "Ġwe", "350": "il", "351": "Ġwith", "352": "Ġas", "353": "ĠB", "354": "ch", "355": "ill", "356": "nd", "357": "ĠP", "358": "Ġwas", "359": "ers", "360": "Ġyou", "361": "ke", "362": "ĠâĢ", "363": "Ġcon", "364": "Ġde", "365": "Ġr", "366": "her", "367": "if", "368": "ate", "369": "ag", "370": "Ġat", "371": "Ġha", "372": "ĠW", "373": "Ġse", "374": "ĠH", "375": "ore", "376": "Ġpro", "377": "ul", "378": "pp", "379": "ment", "380": "ri", "381": "Ġare", "382": "ĠD", "383": "Ġ1", "384": "us", "385": "est", "386": "ist", "387": "Ġcom", "388": "and", "389": "ĠR", "390": "op", "391": "ain", "392": "ĠThe", "393": "Ġ2", "394": "igh", "395": "rom", "396": "Ġ(", "397": "ort", "398": "od", "399": "Ġne", "400": "ĠF", "401": "um", "402": "un", "403": "Ġex", "404": "res", "405": "ab", "406": "âĢĿ", "407": "Ġnot", "408": "ĠN", "409": "Ġv", "410": "ess", "411": "Ġhave", "412": "ity", "413": "em", "414": "ould", "415": "Ġor", "416": "th", "417": "Ġby", "418": "os", "419": "ant", "420": "ĠG", "421": "ive", "422": "Ġfrom", "423": "Ġal", "424": "el", "425": "'s", "426": "oc", "427": "art", "428": "Ġsu", "429": "ĠL", "430": "Ġsh", "431": "Ġthis", "432": "nt", "433": "qu", "434": "ight", "435": "pe", "436": "ust", "437": "Ġle", "438": "ies", "439": "ĠE", "440": "end", "441": "Ġch", "442": "Ġsa", "443": "out", "444": "Ġab", "445": "The", "446": "all", "447": "ie", "448": "ack", "449": "red", "450": "00", "451": "ĠâĢľ", "452": "Ġhas", "453": "ally", "454": "ĠJ", "455": "Ġpl", "456": "Ġgo", "457": "ard", "458": "iv", "459": "Ġhis", "460": "ome", "461": "ap", "462": "ost", "463": "gh", "464": "ear", "465": "ĠO", "466": "Ġtr", "467": "our", "468": "ast", "469": "Ġj", "470": "ak", "471": "ud", "472": "Ġdo", "473": "Ġthey", "474": "Ġbut", "475": "Ġwor", "476": "rou", "477": "Ġcan", "478": "ge", "479": "Ġwill", "480": "Ġsaid", "481": "Ġwhe", "482": "ĠU", "483": "Ġk", "484": "ich", "485": "Ġall", "486": "ok", "487": "Ġ\"", "488": "ide", "489": "Ġwho", "490": "Ġint", "491": "ame", "492": "ans", "493": "ther", "494": "ial", "495": "Ġout", "496": "ff", "497": "Ġtheir", "498": "ong", "499": "ect", "500": "pl", "501": "ice", "502": "ure", "503": "pt", "504": "one", "505": "Ġmore", "506": "age", "507": "ions", "508": "act", "509": "ike", "510": "Ġme", "511": "Ġup", "512": "ous", "513": "ine", "514": "Ġad", "515": "Ġabout", "516": "ated", "517": "ra", "518": "ber", "519": "Ġone", "520": "Ġwere", "521": "Ġso", "522": "Ġus", "523": "ime", "524": "og", "525": "ĠK", "526": "ep", "527": "ia", "528": "Ġhad", "529": "are", "530": "ub", "531": "cc", "532": "Ġwould", "533": "Ġcl", "534": "Ġ20", "535": "Ġim", "536": "Ġwhich", "537": "ind", "538": "ue", "539": "ake", "540": "Ġcont", "541": "iz", "542": "very", "543": "Ġag", "544": "Ġte", "545": "Ġoff", "546": "Ġcomp", "547": "Ġun", "548": "Ġbeen", "549": "ĠSt", "550": "so", "551": "Ġen", "552": "per", "553": "ign", "554": "au", "555": "ĠTh", "556": "ary", "557": "ace", "558": "Ġyear", "559": "ip", "560": "ew", "561": "Ġlike", "562": "ere", "563": "ven", "564": "ook", "565": "Ġinc", "566": "ays", "567": "Ġman", "568": "Ġpe", "569": "ry", "570": "ose", "571": "Ġres", "572": "able", "573": "ite", "574": "Ġper", "575": "ass", "576": "ord", "577": "Ġsp", "578": "ire", "579": "ĠIn", "580": "Ġother", "581": "mer", "582": "Ġsome", "583": "ile", "584": "ib", "585": "ence", "586": "ople", "587": "Ġ201", "588": "ks", "589": "ations", "590": "Ġover", "591": "ical", "592": "Ġthere", "593": "ress", "594": "Ġdis", "595": "ult", "596": "int", "597": "Ġnew", "598": "own", "599": "Ġalso", "600": "Ġthan", "601": "Ġar", "602": "Ġbec", "603": "ru", "604": "Ġthem", "605": "ance", "606": "ount", "607": "ough", "608": "Ġapp", "609": "port", "610": "ail", "611": "Ġpart", "612": "Ġyour", "613": "Ġwhen", "614": "ree", "615": "Ġwhat", "616": "orm", "617": "ond", "618": "Ġpeople", "619": "fter", "620": "Ġsc", "621": "ĠCh", "622": "av", "623": "ase", "624": "Ġqu", "625": "Ġany", "626": "Ġjust", "627": "Ġits", "628": "ĠY", "629": "ach", "630": "Ġtime", "631": "ĠIt", "632": "Ġkn", "633": "Ġher", "634": "Ġ3", "635": "ens", "636": "lic", "637": "Ġrec", "638": "reat", "639": "Ġmy", "640": "Ġget", "641": "Ġif", "642": "ĠV", "643": "ian", "644": ".âĢĿ", "645": "Ġinto", "646": "ound", "647": "Ġwork", "648": "Ġtw", "649": "irst", "650": "vel", "651": "ction", "652": "Ġno", "653": "du", "654": "ings", "655": "ory", "656": "ick", "657": "ors", "658": "Ġour", "659": "ition", "660": "ident", "661": "ob", "662": "Ġ-", "663": "Ġpre", "664": "ove", "665": "Ġplay", "666": "ang", "667": "ink", "668": "ause", "669": "wn", "670": "te", "671": "amp", "672": "ade", "673": "hing", "674": "ates", "675": "ark", "676": "Ġro", "677": "Ġpol", "678": "Ġshe", "679": "vers", "680": "Ġco", "681": ",âĢĿ", "682": "Ġafter", "683": "ne", "684": "Ġfirst", "685": "Ġcould", "686": "Ġhow", "687": "ĠHe", "688": "Ġ19", "689": "ious", "690": "nder", "691": "ild", "692": "Ġacc", "693": "Ġhim", "694": "aw", "695": "'t", "696": "ons", "697": "Ġpo", "698": "<>", "699": "Ġonly", "700": "Ġfe", "701": "Ġatt", "702": "ict", "703": "hed", "704": "Ġpr", "705": "Ġtwo", "706": "rit", "707": "ov", "708": "ish", "709": "Ġcomm", "710": "âĢľ", "711": "form", "712": "Ġspe", "713": "Ġact", "714": "we", "715": "erv", "716": "Ġbl", "717": "ft", "718": "Ġbet", "719": "Ġdec", "720": ".\"", "721": "ning", "722": "Ġback", "723": "Ġmost", "724": "ces", "725": "ood", "726": "ck", "727": "ĠâĢĵ", "728": "Ġam", "729": "oy", "730": "Ġdid", "731": "rough", "732": "iff", "733": "ater", "734": "round", "735": "Ġagain", "736": "Ġ4", "737": "ual", "738": "day", "739": "ise", "740": "Ġunder", "741": "Ġdes", "742": "Ġwant", "743": "ull", "744": "sel", "745": "Ġcons", "746": "ĠâĢĶ", "747": "..", "748": "Ġbecause", "749": "Ġnow", "750": "lud", "751": "ents", "752": "Ġyears", "753": "man", "754": "tern", "755": "ublic", "756": "ec", "757": "Ġneed", "758": "Ġeven", "759": "Ġ$", "760": "iss", "761": "Ġinv", "762": "Ġknow", "763": "ĠWe", "764": "Ġsee", "765": "ments", "766": "ced", "767": "Ġadd", "768": ",\"", "769": "ting", "770": "old", "771": "Ġind", "772": "Ġsec", "773": "fore", "774": "uch", "775": "Ġevery", "776": "urn", "777": "Ġ5", "778": "Ġsupp", "779": "Ġmake", "780": "pect", "781": "ĠUn", "782": "Ġem", "783": "Ġthese", "784": "ock", "785": "oll", "786": "Ġwhere", "787": "ject", "788": "In", "789": "ational", "790": "vern", "791": "xt", "792": "Ġbu", "793": "Ġlook", "794": "Th", "795": "ĠAnd", "796": "oss", "797": "Ġdon", "798": "Ġev", "799": "ump", "800": "ating", "801": "Ġway", "802": "Ġbeing", "803": "Ġrem", "804": "Ġright", "805": "ily", "806": "Ġmay", "807": "ng", "808": "row", "809": "lect", "810": "iew", "811": "Ġthen", "812": "Ġmany", "813": "Ġ[", "814": "Ġdiff", "815": "Ġdef", "816": "ason", "817": "Ġrel", "818": "Ġcall", "819": "ĠBut", "820": "ĠTr", "821": "ont", "822": "ied", "823": "les", "824": "ased", "825": "Ġinclud", "826": "Ġthink", "827": "aking", "828": "Ġreg", "829": ").", "830": "meric", "831": "Ġimp", "832": "Ġthrough", "833": "ath", "834": "ited", "835": "rib", "836": "Ġsy", "837": "Ġshould", "838": "Ġpres", "839": "Ġsay", "840": "ell", "841": "Ġfl", "842": "uring", "843": "Ġlast", "844": "Ġthose", "845": "ower", "846": "Ġvery", "847": "ty", "848": "other", "849": "Ġmuch", "850": "ities", "851": "ific", "852": "Ġstate", "853": "ĠThis", "854": "ative", "855": "Ġshow", "856": "tle", "857": "hen", "858": "Ġbr", "859": "ss", "860": "arg", "861": "Ġwell", "862": "oth", "863": "Ġph", "864": "ĠWh", "865": "Ġcount", "866": "als", "867": "und", "868": "Ġ200", "869": "Ġdoes", "870": "Ġdown", "871": "Ġown", "872": "arly", "873": "Ġend", "874": "Ġass", "875": "Ġbel", "876": "Ġuse", "877": "ics", "878": "ange", "879": "--", "880": "ts", "881": "Ġlong", "882": "ĠAmeric", "883": "ters", "884": "ince", "885": "Ġbefore", "886": "omet", "887": "gr", "888": "Ġmon", "889": "ward", "890": "Ġgovern", "891": "Ġstart", "892": "Ġreport", "893": "ible", "894": "Ġke", "895": "up", "896": "ues", "897": "ĠNew", "898": "Ġfin", "899": "Ġteam", "900": "ble", "901": "Ġmade", "902": "ife", "903": "olog", "904": "ener", "905": "),", "906": "Ġsuch", "907": "ren", "908": "com", "909": "oun", "910": "erson", "911": "ek", "912": "ix", "913": "Ġsm", "914": "âĢĶ", "915": "lp", "916": "ility", "917": "Ġgoing", "918": "ism", "919": "ful", "920": "Ġworld", "921": "ually", "922": "Ġstud", "923": "ists", "924": "Ġgood", "925": "Ġac", "926": "tain", "927": "It", "928": "Ġsub", "929": "Ġeff", "930": "Ġsur", "931": "Ġagainst", "932": "its", "933": "Ġgame", "934": "Ġset", "935": "ork", "936": "Ġ6", "937": "Ġgu", "938": "Ġpoint", "939": "Ġent", "940": "ys", "941": "000", "942": "gan", "943": "ars", "944": "li", "945": "stem", "946": "Ġprov", "947": "Ġstill", "948": "roup", "949": "Ġwhile", "950": "illion", "951": "Ġhelp", "952": "Ġlead", "953": "Ġmin", "954": "ween", "955": ".<>", "956": "ef", "957": "ax", "958": "ank", "959": "alk", "960": "imes", "961": "Ġsays", "962": "Ġob", "963": "ms", "964": "cy", "965": "Ġprodu", "966": "Ġgr", "967": "Ġinter", "968": "Ġinst", "969": "Ġstr", "970": "cess", "971": "Ġsim", "972": "io", "973": "self", "974": "Ġconf", "975": "Ġcol", "976": "Ġtake", "977": "ures", "978": "arch", "979": "Ġsame", "980": "Ġthough", "981": "Ġbetween", "982": "ollow", "983": "Ġoffic", "984": "ever", "985": "Ġcr", "986": "Ġdiffere", "987": "ool", "988": "uss", "989": "ution", "990": "land", "991": "Ġdisc", "992": "air", "993": "Ġop", "994": "ah", "995": "Ġed", "996": "Ġhigh", "997": "read", "998": "Ġnum", "999": "Ġlaw", "1000": "Ġsign", "1001": "way", "1002": "Ġgovernment", "1003": "gg", "1004": "ĠRe", "1005": "led", "1006": "ner", "1007": "hip", "1008": "atch", "1009": "hes", "1010": "ames", "1011": "any", "1012": "Ġter", "1013": "Ġsomet", "1014": "cent", "1015": "velop", "1016": "ted", "1017": "We", "1018": "Ġref", "1019": "Ġtrans", "1020": "ten", "1021": "Ġins", "1022": "Ġrun", "1023": "Ġser", "1024": "Ġfound", "1025": "Ġthree", "1026": "ives", "1027": "ave", "1028": "Ġmem", "1029": "Ġaround", "1030": "Ġhere", "1031": "ather", "1032": "Ġmed", "1033": "Ġreal", "1034": "Ġused", "1035": "ouse", "1036": "Ġ10", "1037": "ved", "1038": "Ġexp", "1039": "az", "1040": "ĠAr", "1041": "cept", "1042": "oot", "1043": "Ġsystem", "1044": "ĠYou", "1045": "ci", "1046": "Ġreally", "1047": "Ġmod", "1048": "ving", "1049": "con", "1050": "cer", "1051": "Ġgroup", "1052": "Ġsupport", "1053": "Ġ7", "1054": "Ġcour", "1055": "ets", "1056": "ale", "1057": "ins", "1058": "Ġret", "1059": "Ġhand", "1060": "Ġpublic", "1061": "Ġspec", "1062": "pr", "1063": "ĠLe", "1064": "ying", "1065": "Ġgreat", "1066": "Ġcar", "1067": "ense", "1068": "Ġext", "1069": ".[", "1070": "ton", "1071": "irect", "1072": "Ġcur", "1073": "Ġfam", "1074": "ĠCom", "1075": "alth", "1076": "Ġhapp", "1077": "Ġfact", "1078": "ph", "1079": "Ġexper", "1080": "ĠThey", "1081": "ĠTrump", "1082": "Ġfr", "1083": "Ġwom", "1084": "ĠIs", "1085": "Ġcap", "1086": "Ġboth", "1087": "Ġday", "1088": "Ġfind", "1089": "ĠAl", "1090": "ular", "1091": "Ġread", "1092": "ines", "1093": "oh", "1094": "ices", "1095": "Ġdet", "1096": "Ġlit", "1097": "Ġsl", "1098": "Ġrep", "1099": "uth", "1100": "ered", "1101": "Ġduring", "1102": "ĠSh", "1103": "ĠAs", "1104": "Ġ0", "1105": "Ġserv", "1106": "Ġmonth", "1107": "min", "1108": "the", "1109": "ision", "1110": "Ġcre", "1111": "Ġdevelop", "1112": "Ġbig", "1113": "Ġ8", "1114": "Ġperson", "1115": "akes", "1116": "Ġfollow", "1117": "ĠCl", "1118": "Ġiss", "1119": "ex", "1120": "Ġtold", "1121": "Ġsince", "1122": "ared", "1123": "med", "1124": "ically", "1125": "Ġweek", "1126": "ages", "1127": "ivers", "1128": "Ġwar", "1129": "Ġfew", "1130": "orth", "1131": "ording", "1132": "Ġcent", "1133": "Ġleg", "1134": "aj", "1135": "get", "1136": "Ġpolit", "1137": "ves", "1138": "ash", "1139": "Ġexpl", "1140": "Ġlot", "1141": "ric", "1142": "ĠSe", "1143": "Ġbelie", "1144": "Ġgener", "1145": "Ġtoo", "1146": "Ġ9", "1147": "der", "1148": "ata", "1149": "rent", "1150": "Ġopp", "1151": "Wh", "1152": "Ġrequ", "1153": "Ġcontin", "1154": "Ġprot", "1155": "iet", "1156": "bers", "1157": "anc", "1158": "Ġfil", "1159": "ention", "1160": "ness", "1161": "Ġcle", "1162": "Ġresp", "1163": "Ġput", "1164": "ized", "1165": "ĠIf", "1166": "Ġanother", "1167": "20", "1168": "chool", "1169": "Ġinf", "1170": "Ġsomething", "1171": "ĠDe", "1172": "Ġdifferent", "1173": "Ġcor", "1174": "Ġloc", "1175": "ute", "1176": "Ġinvest", "1177": "Ġsoc", "1178": "Ġpower", "1179": "Ġche", "1180": "uc", "1181": "Ġ'", "1182": "Ġpass", "1183": "Ġcommun", "1184": "Ġlife", "1185": "ĠFr", "1186": "Ġplan", "1187": "ody", "1188": "Ġrele", "1189": "ience", "1190": "Ġhead", "1191": "Ġthings", "1192": "ned", "1193": "Ġfar", "1194": "Ġart", "1195": "Ġposs", "1196": "Ġmet", "1197": "thing", "1198": "ox", "1199": "erest", "1200": "Ġcamp", "1201": "ross", "1202": "arge", "1203": "Ġvot", "1204": "ier", "1205": "This", "1206": "view", "1207": "Ġchild", "1208": "ants", "1209": "Ġask", "1210": "Ġmight", "1211": "Ġeach", "1212": "ize", "1213": "iness", "1214": "Ġdep", "1215": "Ġ.", "1216": "Ġnever", "1217": "Ġnext", "1218": "ik", "1219": "ield", "1220": "Ġsecond", "1221": "Ġmark", "1222": "tt", "1223": "Ġquest", "1224": "Ġbus", "1225": "Ġadv", "1226": "ĠAn", "1227": "Ġdem", "1228": "ĠFor", "1229": "Ġcome", "1230": "Ġgot", "1231": "ĠâĢĺ", "1232": "Ġopen", "1233": "Ġbest", "1234": "ient", "1235": "ital", "1236": "Ġallow", "1237": "ĠThat", "1238": "rat", "1239": "Ġseem", "1240": "Ġpost", "1241": "ple", "1242": "nce", "1243": "Ġfeel", "1244": "ĠPro", "1245": "ĠUS", "1246": "ug", "1247": "Ġpri", "1248": "gram", "1249": "Ġpercent", "1250": "cl", "1251": "Ġhome", "1252": "Ġdist", "1253": "Ġdirect", "1254": "ired", "1255": "Ġincre", "1256": "Ġcontro", "1257": "ĠRep", "1258": "son", "1259": "orn", "1260": "less", "1261": "osed", "1262": "Ġresult", "1263": "Ġhard", "1264": "Ġcare", "1265": "ately", "1266": "Ġmillion", "1267": "chn", "1268": "Ġcomple", "1269": "Ġplace", "1270": "Ġwithout", "1271": "Ġinform", "1272": "Ġincluding", "1273": "Ġimport", "1274": "Ġav", "1275": "conom", "1276": "Ġhum", "1277": "Ġide", "1278": "Ġproble", "1279": "Ġbuild", "1280": "Ġtop", "1281": "ama", "1282": "Ġnumber", "1283": "Ġcountry", "1284": "gy", "1285": "oney", "1286": "aim", "1287": "ĠBl", "1288": "ret", "1289": "ral", "1290": "ably", "1291": "uro", "1292": "Ġstand", "1293": "Ġgl", "1294": "Ġel", "1295": "riend", "1296": "Ġfour", "1297": "ished", "1298": "ways", "1299": "Ġpartic", "1300": "Ġbetter", "1301": "co", "1302": "Ġtri", "1303": "But", "1304": "Ġrecent", "1305": "Ġinterest", "1306": "Ġmov", "1307": "Ġlet", "1308": "ration", "1309": "Ġseason", "1310": "Ġless", "1311": "ead", "1312": "Ġturn", "1313": "Ġlittle", "1314": "Ġbeh", "1315": "Ġmil", "1316": "Ġappro", "1317": "ract", "1318": "line", "1319": "Ġbro", "1320": "ling", "1321": "ised", "1322": "Ġcalled", "1323": "app", "1324": "10", "1325": "Ġcase", "1326": "Ġdr", "1327": "ĠInd", "1328": "Ġrest", "1329": "Ġleft", "1330": "Ġpop", "1331": "Ġann", "1332": "ĠZ", "1333": "ency", "1334": "ode", "1335": "Ġmove", "1336": "ina", "1337": "Ġattack", "1338": "ĠThere", "1339": "Ġkeep", "1340": "Ġfull", "1341": "ering", "1342": "Ġdidn", "1343": "be", "1344": "Ġfun", "1345": "Ġmain", "1346": "ajor", "1347": "__", "1348": "Ġeffect", "1349": "inal", "1350": "me", "1351": "leg", "1352": "Ġprev", "1353": "Ġprogram", "1354": "Ġusing", "1355": "Ġtest", "1356": "Ġpay", "1357": "to", "1358": "ature", "1359": "Ġear", "1360": "Ġval", "1361": "Ġpolice", "1362": "Ġwrit", "1363": "Ġform", "1364": "Ġeconom", "1365": "Ġdata", "1366": "Ġnews", "1367": "Ġpos", "1368": "Ġwin", "1369": "ĠAmerican", "1370": "Ġlevel", "1371": "Ġsit", "1372": "Ġchar", "1373": "ains", "1374": "iving", "1375": "uck", "1376": "Ġsmall", "1377": "ined", "1378": "ready", "1379": "He", "1380": "Ġschool", "1381": "Ġlist", "1382": "ology", "1383": "rap", "1384": "mit", "1385": "ided", "1386": "ploy", "1387": "'re", "1388": "ger", "1389": "Ġeas", "1390": "Ġprocess", "1391": "ird", "1392": "Ġchange", "1393": "Ġwomen", "1394": "Ġcurrent", "1395": "Ġrece", "1396": "Ġprom", "1397": "Ġhist", "1398": "Ġdri", "1399": "Ġ=", "1400": "ians", "1401": "reen", "1402": "Ġpresident", "1403": "Ġcompany", "1404": "ĠSo", "1405": "used", "1406": "Ġmat", "1407": "ruct", "1408": "Ġalready", "1409": "ohn", "1410": "ĠUnited", "1411": "wit", "1412": "Ġty", "1413": "Ġwhy", "1414": "Ġbre", "1415": "Ġunt", "1416": "Ġmoney", "1417": "Ġsol", "1418": "Ġalways", "1419": "Ġlater", "1420": "Ġexpect", "1421": "Ġtechn", "1422": "Ġbusiness", "1423": "ĠHow", "1424": "Ġofficial", "1425": "ron", "1426": "ĠQ", "1427": "ĠOb", "1428": "stand", "1429": "iversity", "1430": "Ġbo", "1431": "Ġbook", "1432": "ĠPh", "1433": "aign", "1434": "Ġthing", "1435": "Ġclass", "1436": "Ġproject", "1437": "ases", "1438": "Ġclaim", "1439": "Ġjob", "1440": "Ġinformation", "1441": "Ġorgan", "1442": "aff", "1443": "ĠShe", "1444": "ards", "1445": "Ġtalk", "1446": "ĠBe", "1447": "Ġdesign", "1448": "Ġstory", "1449": "Ġchang", "1450": "Ġmajor", "1451": "Ġable", "1452": "Ġprof", "1453": "Ġ--", "1454": "lection", "1455": "iven", "1456": "ertain", "1457": "Ġrese", "1458": "Ġhealth", "1459": "Ġvis", "1460": "Ġpast", "1461": "urs", "1462": "Ġfree", "1463": "here", "1464": "outh", "1465": "ĠAd", "1466": "Ġoper", "1467": "ption", "1468": "Ġaway", "1469": "ior", "1470": "ĠCan", "1471": "Ġmust", "1472": "Ġcity", "1473": "ample", "1474": "...", "1475": "rist", "1476": "sc", "1477": "ural", "1478": "Ġhappen", "1479": "uthor", "1480": "Ġ18", "1481": "Ġimportant", "1482": "acy", "1483": "urity", "1484": "Ġkill", "1485": "Ġsk", "1486": "Ġest", "1487": "ured", "1488": "Ġold", "1489": "Ġpat", "1490": "ury", "1491": "ending", "1492": "Ġdoesn", "1493": "ission", "1494": "Ġleast", "1495": "Ġgrow", "1496": "Ġedit", "1497": "Ġvar", "1498": "ained", "1499": "St", "1500": "Ġcost", "1501": "ĠGo", "1502": "ney", "1503": "ider", "1504": "ides", "1505": "els", "1506": "Ġdays", "1507": "Ġtell", "1508": "Ġhop", "1509": "Ġstre", "1510": "Ġcampaign", "1511": "side", "1512": "Ġ12", "1513": "Ġmen", "1514": "Ġcame", "1515": "Ġaff", "1516": "Ġconst", "1517": "resident", "1518": "Ġenough", "1519": "Ġview", "1520": "ccess", "1521": "Ġkind", "1522": "ĠMar", "1523": "oad", "1524": "ĠSp", "1525": "ern", "1526": "Ġmaking", "1527": "Ġlarge", "1528": "Ġrecord", "1529": "50", "1530": "ush", "1531": "Ġfriend", "1532": "Ġmar", "1533": "Ġfamily", "1534": "âĢ¦", "1535": "ley", "1536": "Ġelect", "1537": "eral", "1538": "Ġpolic", "1539": "Ġtax", "1540": "ising", "1541": "by", "1542": "pped", "1543": "ality", "1544": "ator", "1545": "ified", "1546": "As", "1547": "ived", "1548": "arent", "1549": "ror", "1550": "Ġuntil", "1551": "ional", "1552": "Ġpolitical", "1553": "Ġvide", "1554": "Ġdeal", "1555": "ee", "1556": "ries", "1557": "alf", "1558": "augh", "1559": "Ġve", "1560": "Ġworking", "1561": "ued", "1562": "ĠRepublic", "1563": "Ġtook", "1564": "Ġdeb", "1565": "bs", "1566": "If", "1567": "ister", "1568": "Ġline", "1569": "ĠJohn", "1570": "aining", "1571": "Ġair", "1572": "----", "1573": "Ġes", "1574": "Ġintern", "1575": "Ġfore", "1576": "iol", "1577": "ane", "1578": "ocrat", "1579": "Ġbecome", "1580": "Ġactually", "1581": "aps", "1582": "ony", "1583": "Ġmean", "1584": "work", "1585": "Ġfund", "1586": "ĠSc", "1587": "ware", "1588": "19", "1589": "ember", "1590": "ĠPl", "1591": "Ġformer", "1592": "Ġoften", "1593": "ĠEuro", "1594": "ott", "1595": "ann", "1596": "Ġwon", "1597": "Ġgive", "1598": "oint", "1599": "Ġaccording", "1600": "Ġever", "1601": "most", "1602": "eng", "1603": "year", "1604": "wh", "1605": "aring", "1606": "Ġgames", "1607": "ison", "1608": "Ġhuman", "1609": "Ġbas", "1610": "Ġword", "1611": "ization", "1612": "Ġreturn", "1613": "Ġtimes", "1614": "Ġorder", "1615": "ĠRuss", "1616": "Ġbit", "1617": "ĠDem", "1618": "Ġname", "1619": "11", "1620": "gin", "1621": "Ġsever", "1622": "ĠAll", "1623": "Ġdev", "1624": "icle", "1625": "uture", "1626": "for", "1627": "ither", "1628": "iqu", "1629": "Ġpar", "1630": "Ġ199", "1631": "ĠMc", "1632": "Ġwr", "1633": "ĠCon", "1634": "raft", "1635": "Ġsing", "1636": "Ġperform", "1637": "ĠSy", "1638": "idd", "1639": "Ġmarket", "1640": "Ġfac", "1641": "Ġcharac", "1642": "There", "1643": "ĠOr", "1644": "ĠAt", "1645": "ĠMay", "1646": "Ġra", "1647": "Ġdoing", "1648": "Ġappear", "1649": "ER", "1650": "ched", "1651": "Ġplayers", "1652": "Ġla", "1653": "Ġnight", "1654": "Ġlear", "1655": "aken", "1656": "rop", "1657": "ats", "1658": "mber", "1659": "Ġtoday", "1660": "Ġearly", "1661": "Ġ15", "1662": "Ġseen", "1663": "//", "1664": "Ġhaving", "1665": "Ġ,", "1666": "Ġpot", "1667": "Ġchildren", "1668": "Ġevent", "1669": "Ġmedia", "1670": "Ġsocial", "1671": "Ġcrit", "1672": "ĠPresident", "1673": "Ġwhether", "1674": "Ġseveral", "1675": "Ġcontrol", "1676": "idence", "1677": "Ġmeet", "1678": "sh", "1679": "Ġmilit", "1680": "Ġpress", "1681": "Ġwent", "1682": "artment", "1683": "ene", "1684": "Ġfive", "1685": "Ġyoung", "1686": "ories", "1687": "Ġsure", "1688": "Ġprop", "1689": "iously", "1690": "Ġequ", "1691": "Ġquestion", "1692": "Ġocc", "1693": "Ġlikely", "1694": "vert", "1695": "une", "1696": "Ġmembers", "1697": "br", "1698": "ands", "1699": "Ġcertain", "1700": "ium", "1701": "Ġeng", "1702": "Ġwater", "1703": "ĠYork", "1704": "Ġexample", "1705": "ots", "1706": "ĠCol", "1707": "Ġside", "1708": "Ġant", "1709": "Ġarg", "1710": "Ġdone", "1711": "enn", "1712": "Ġvers", "1713": "Ġinvol", "1714": "ĠMr", "1715": "ĠStates", "1716": "ĠEurope", "1717": "ended", "1718": "let", "1719": "Ġalong", "1720": "Ġshort", "1721": "Ġsuccess", "1722": "ential", "1723": "Ġmonths", "1724": "ball", "1725": "Ġhour", "1726": "Ġ11", "1727": "Ġsex", "1728": "iver", "1729": "ially", "1730": "And", "1731": "lf", "1732": "empt", "1733": "Ġwithin", "1734": "Ġdesc", "1735": "imate", "1736": "Ġcourse", "1737": "Ġfight", "1738": "ster", "1739": "urch", "1740": "ubl", "1741": "Ġamong", "1742": "Ġactiv", "1743": "uff", "1744": "âĢĵ", "1745": "ague", "1746": "Ġonce", "1747": "Ġfuture", "1748": "Ġinvestig", "1749": "ulation", "1750": "rew", "1751": "Ġpossible", "1752": "ĠObama", "1753": "Ġcho", "1754": "nect", "1755": "Ġunderstand", "1756": "iting", "1757": "Ġconcer", "1758": "ĠOn", "1759": "Ġ]", "1760": "ones", "1761": "ortun", "1762": "Ġproblem", "1763": "ĠBr", "1764": "Ġpriv", "1765": "Ġmeans", "1766": "Ġviol", "1767": "ĠCar", "1768": "Ġauthor", "1769": "itive", "1770": "ĠNo", "1771": "ggest", "1772": "Ġavail", "1773": "oci", "1774": "ourn", "1775": "my", "1776": "Ġknown", "1777": "Ġproduct", "1778": "Ġnon", "1779": "ivid", "1780": "Ġthought", "1781": "Ġyet", "1782": "gress", "1783": "Ġacross", "1784": "Ġprotect", "1785": "Ġlocal", "1786": "ald", "1787": "ler", "1788": "Ġhold", "1789": "ĠTe", "1790": "Ġfail", "1791": "ĠWhen", "1792": "ĠState", "1793": "inc", "1794": "Ġcommunity", "1795": "Ġreason", "1796": "Ġorig", "1797": "Ġsuggest", "1798": "Ġ&", "1799": "12", "1800": "Ġmakes", "1801": "verage", "1802": "not", "1803": "por", "1804": "back", "1805": "Ġ2016", "1806": "Ġi", "1807": "book", "1808": "Ġasked", "1809": "ederal", "1810": "orld", "1811": "Ġreported", "1812": "You", "1813": "aged", "1814": "ensive", "1815": "Ġgiven", "1816": "Ġstrong", "1817": "Ġprob", "1818": "Ġmus", "1819": "Ġothers", "1820": "Ġbelieve", "1821": "Ġvideo", "1822": "iber", "1823": "Ġben", "1824": "Ġgetting", "1825": "ĠHouse", "1826": "ances", "1827": "Ġannoun", "1828": "Ġlight", "1829": "ored", "1830": "ober", "1831": "ĠUniversity", "1832": "Ġ30", "1833": "ĠCo", "1834": "itions", "1835": "Ġident", "1836": "iron", "1837": "Ġsent", "1838": "Ġcut", "1839": "Ġlim", "1840": "Ġca", "1841": "ĠChrist", "1842": "iety", "1843": "30", "1844": "urther", "1845": "Ġsour", "1846": "Ġcreat", "1847": "Ġcond", "1848": "ĠX", "1849": "rest", "1850": "ams", "1851": "'ve", "1852": "Ġnet", "1853": "ashing", "1854": "Ġbat", "1855": "ament", "1856": "Ġnational", "1857": ".,", "1858": "Ġclose", "1859": "Ġstarted", "1860": "Ġsaf", "1861": "Ġdeath", "1862": "aster", "1863": "Ġavailable", "1864": "arm", "1865": "Ġhig", "1866": "For", "1867": "Ġbased", "1868": "Ġissue", "1869": "of", "1870": "Ġindust", "1871": "ĠDemocrat", "1872": "ĠMin", "1873": "Ġlow", "1874": "Ġfollowing", "1875": "resent", "1876": "Ġaccount", "1877": "Ġland", "1878": "use", "1879": "ĠCent", "1880": "Ġemploy", "1881": "Ġlove", "1882": "Ġ2015", "1883": "Ġ#", "1884": "Ġhistory", "1885": "Ġago", "1886": "orts", "1887": "selves", "1888": "Ġmom", "1889": "Ġparty", "1890": "ability", "1891": "Ġseries", "1892": "eb", "1893": "Ġcomes", "1894": "Ġtrying", "1895": "uly", "1896": "utes", "1897": "ĠAm", "1898": "Ġalmost", "1899": "gether", "1900": "ument", "1901": "Ġtogether", "1902": "ination", "1903": "AT", "1904": "ĠAmerica", "1905": "pro", "1906": "Ġidea", "1907": "ief", "1908": "Ġaccess", "1909": "Ġfoc", "1910": "hers", "1911": "ilar", "1912": "ĠFl", "1913": "reed", "1914": "ails", "1915": "Ġcommit", "1916": "itional", "1917": "Ġisn", "1918": "ĠSen", "1919": "Ġclear", "1920": "Ġ16", "1921": "ĠOne", "1922": "Ġtrad", "1923": "though", "1924": "ring", "1925": "ĠWhat", "1926": "Ġpract", "1927": "Ġadded", "1928": "Ġimpro", "1929": "Ġexperience", "1930": "erence", "1931": "Ġfilm", "1932": "15", "1933": "Ġhalf", "1934": "ustom", "1935": "ged", "1936": "Ġhit", "1937": "af", "1938": "ĠBro", "1939": "witter", "1940": "rict", "1941": "Ġanal", "1942": "inton", "1943": "ograp", "1944": "unch", "1945": "Ġ2014", "1946": "Ġrul", "1947": "ividual", "1948": "Ġlooking", "1949": "Ġsix", "1950": "Ġlive", "1951": "Ġanything", "1952": "Ġarea", "1953": "Ġcomplete", "1954": "erman", "1955": "minist", "1956": "Ġmiss", "1957": "rael", "1958": "ĠEx", "1959": "ĠComm", "1960": "Ġfav", "1961": "Ġris", "1962": "ai", "1963": "nes", "1964": "Ġpresent", "1965": "ote", "1966": "rug", "1967": "Ġsaying", "1968": "raw", "1969": "aid", "1970": "ĠCanad", "1971": "Ġvict", "1972": "IN", "1973": "cially", "1974": "Ġbad", "1975": "ows", "1976": "uge", "1977": "Ġtaken", "1978": "ert", "1979": "Ġentire", "1980": "oto", "1981": "ĠPr", "1982": "ators", "1983": "ev", "1984": "Ġbill", "1985": "Ġcompet", "1986": "ĠEng", "1987": "Ġmor", "1988": "Ġbehind", "1989": "ien", "1990": "Ġaut", "1991": "ĠTo", "1992": "'m", "1993": "Ġcourt", "1994": "play", "1995": "Ġtry", "1996": "Ġtre", "1997": "Ġmilitary", "1998": "Ġz", "1999": "Ġnear", "2000": "osp", "2001": "Ġmult", "2002": "What", "2003": "Ġface", "2004": "wards", "2005": "Ġ14", "2006": "Ġsecurity", "2007": "Ġer", "2008": "ĠPol", "2009": "sy", "2010": "Ġproper", "2011": "Ġdiscuss", "2012": "Ġthreat", "2013": "Ġtot", "2014": "Ġstudy", "2015": "Ġsingle", "2016": "Ġrather", "2017": "Ġindividual", "2018": "ĠAf", "2019": "ĠBrit", "2020": "ĠWar", "2021": "ĠÂ", "2022": "ttp", "2023": "Ġquick", "2024": "ĠDon", "2025": "Ġmind", "2026": "ĠSec", "2027": "lement", "2028": "ales", "2029": "amed", "2030": "atic", "2031": "An", "2032": "ĠNorth", "2033": "aper", "2034": "Ġpubl", "2035": "Ġpolicy", "2036": "Ġmess", "2037": "ris", "2038": "par", "2039": "Ġblack", "2040": "Ġwanted", "2041": "Ġfall", "2042": "irc", "2043": "**", "2044": "off", "2045": "Ġfood", "2046": "Ġsum", "2047": "Ġsomeone", "2048": "lling", "2049": "ids", "2050": "On", "2051": "Ġ|", "2052": "Ġ/", "2053": "Ġcult", "2054": "Ġspecial", "2055": "Ġcomb", "2056": "Ġkey", "2057": "ĠMan", "2058": "Ġplayer", "2059": "Ġredu", "2060": "ĠGr", "2061": "Ġbring", "2062": "Ġ13", "2063": "Ġcompan", "2064": "Ġ17", "2065": "ply", "2066": "ĠDep", "2067": "Ġattempt", "2068": "ĠNational", "2069": "Ġtaking", "2070": "ĠBar", "2071": "When", "2072": "ON", "2073": "ify", "2074": "olution", "2075": "Ġ:", "2076": "viron", "2077": "Ġfoot", "2078": "ĠCal", "2079": "://", "2080": "Ġelse", "2081": "Ġpret", "2082": "Ġbody", "2083": "Ġspace", "2084": "elt", "2085": "rote", "2086": "over", "2087": "dd", "2088": "Ġprobably", "2089": "16", "2090": "icult", "2091": ".)", "2092": "Ġfront", "2093": "Ġcou", "2094": "Ġnothing", "2095": "Ġsw", "2096": "ashington", "2097": "ĠIm", "2098": "Ġconnect", "2099": "ches", "2100": "ĠWorld", "2101": "Ġresearch", "2102": "14", "2103": "ming", "2104": "ĠClinton", "2105": "ĠCity", "2106": "Ġcoming", "2107": "Ġpoints", "2108": "ĠIsrael", "2109": "RE", "2110": "Ġhowever", "2111": "Ġdescrib", "2112": "go", "2113": "Ġjo", "2114": "Ġsignific", "2115": "Ġsimilar", "2116": "yn", "2117": "reme", "2118": "cing", "2119": "Ġbenef", "2120": "lier", "2121": "ĠAust", "2122": "Ġdecision", "2123": "Ġeither", "2124": "aces", "2125": "Ġcoun", "2126": "ault", "2127": "So", "2128": "Ġmass", "2129": "mb", "2130": "ĠHar", "2131": "Ġsus", "2132": "Ġtarg", "2133": "ully", "2134": "ana", "2135": "Ġfeat", "2136": "That", "2137": "Ġimm", "2138": "Ġconv", "2139": "Ġexist", "2140": "irl", "2141": "Ġenc", "2142": "Ġ2013", "2143": "Ġrights", "2144": "Ġservice", "2145": "ĠSu", "2146": "asing", "2147": "ung", "2148": "sw", "2149": "IS", "2150": "Ġfire", "2151": "Ġdoc", "2152": "Ġwrote", "2153": "Ġfurther", "2154": "Ġhouse", "2155": "rodu", "2156": "Ġfig", "2157": "Ġchall", "2158": "ww", "2159": "Ġban", "2160": "Ġthird", "2161": "Ġwa", "2162": "Ġcreate", "2163": "Ġstop", "2164": "Ġfield", "2165": "now", "2166": "Ġpick", "2167": "AN", "2168": "ape", "2169": "ively", "2170": "Ġmeas", "2171": "Ġrepl", "2172": "Ġcompl", "2173": "ĠWith", "2174": "Ġissues", "2175": "pping", "2176": "Ġbegin", "2177": "Ġsuper", "2178": "amer", "2179": "Ġstep", "2180": "ried", "2181": "ently", "2182": "Ġwhole", "2183": "Ġrelations", "2184": "Ġseems", "2185": "Ġ)", "2186": "Ġcompanies", "2187": "pecially", "2188": "Ġdue", "2189": "Ġexec", "2190": "Ġcand", "2191": "Ġeverything", "2192": "Ġfederal", "2193": "ĠGu", "2194": "Ġstates", "2195": "Ġey", "2196": "Ġroom", "2197": "aul", "2198": "Ġtra", "2199": "Ġwatch", "2200": "oon", "2201": "ĠGe", "2202": "Ġcustom", "2203": "Ġleaders", "2204": "13", "2205": "uation", "2206": "ĠHowever", "2207": "pite", "2208": "ĠJan", "2209": "ĠWashington", "2210": "Ch", "2211": "lam", "2212": "Ġself", "2213": "Ġrole", "2214": "ran", "2215": "ilt", "2216": "Ġsound", "2217": "Ġlab", "2218": "att", "2219": "head", "2220": "Ġdam", "2221": "ivil", "2222": "Ġofficials", "2223": "Ġstri", "2224": "Ġ2012", "2225": "lu", "2226": "iday", "2227": "ibility", "2228": "Ġreleased", "2229": "ĠInst", "2230": "eal", "2231": "Ġbegan", "2232": "ĠDav", "2233": "ĠApp", "2234": "ĠSouth", "2235": "Ġopt", "2236": "obal", "2237": "Ġstudents", "2238": "Ġtreat", "2239": "Ġfinal", "2240": "Ġcharacter", "2241": "Ġposition", "2242": "Ġmatter", "2243": "Ã©", "2244": "ender", "2245": "Ġener", "2246": "lim", "2247": "Ġoutside", "2248": "ery", "2249": "sec", "2250": "ades", "2251": "Ġdou", "2252": "vironment", "2253": "Ġdevelopment", "2254": "Ġstatement", "2255": "Ġhimself", "2256": "Ġ2017", "2257": "Ġabove", "2258": "like", "2259": "Ġstat", "2260": "Ġinit", "2261": "Ġbreak", "2262": "Ġ100", "2263": "Ġamount", "2264": "Ġprovide", "2265": "Ġhours", "2266": "Ġitself", "2267": "Ġthemselves", "2268": "Ġoffice", "2269": "Ġrepresent", "2270": "Ġaction", "2271": "ĠPart", "2272": "Ġdi", "2273": "Ġbecame", "2274": "Ġ198", "2275": "Ġgeneral", "2276": "Ġcontinue", "2277": "Ġcountries", "2278": "ĠIntern", "2279": "Ġneg", "2280": "iod", "2281": "Ġaddress", "2282": "Ġ25", "2283": "Ġgun", "2284": "aced", "2285": "ask", "2286": "Ġtrue", "2287": "Ġspecific", "2288": "ograph", "2289": "umb", "2290": "arter", "2291": "reg", "2292": "Ġlarg", "2293": "Ġsignificant", "2294": "lish", "2295": "Ġsimply", "2296": "ĠAss", "2297": "ĠRes", "2298": "Ġwasn", "2299": "'ll", "2300": "Ġinterview", "2301": "acebook", "2302": "ili", "2303": "Ġground", "2304": "Ġrad", "2305": "oid", "2306": "ogn", "2307": "Ġdifficult", "2308": "Ġrunning", "2309": "ĠJust", "2310": "Ġevidence", "2311": "Ġadminist", "2312": "BC", "2313": "Ġcop", "2314": "17", "2315": "ream", "2316": "Ġdrug", "2317": "Ġversion", "2318": "ogle", "2319": "Ġbar", "2320": "ĠEd", "2321": "Ġagree", "2322": "eks", "2323": "iddle", "2324": "Ġbuilding", "2325": "ĠChina", "2326": "Ġneeds", "2327": "Ġprofess", "2328": "angu", "2329": "Ġgroups", "2330": "right", "2331": "Ġtyp", "2332": "Ġrespons", "2333": "Ġcommon", "2334": "Ġshows", "2335": "Ġeveryone", "2336": "Ġdom", "2337": "Ġdest", "2338": "Ġneeded", "2339": "Ġball", "2340": "Ġwoman", "2341": "ĠGerman", "2342": "Ġlat", "2343": "Ġbelow", "2344": "Ġtem", "2345": "light", "2346": "ournal", "2347": "Ġmusic", "2348": "Ġexc", "2349": "Ġrelease", "2350": "ift", "2351": "Ġinj", "2352": "Ġpretty", "2353": "ĠMed", "2354": "ĠAb", "2355": "AR", "2356": "ribut", "2357": "Ġinclude", "2358": "Ġsaw", "2359": "Ġdeep", "2360": "Ġap", "2361": "body", "2362": "18", "2363": "Ġplayed", "2364": "Ġquite", "2365": "Ġindustry", "2366": "Ġcharg", "2367": "Ġmag", "2368": "Ġenergy", "2369": "Ġplaying", "2370": "Ġmot", "2371": "Ġ50", "2372": "Ġcandid", "2373": "Ġsense", "2374": "Ġphys", "2375": "Ġlate", "2376": "Ġalleg", "2377": "Ġwhite", "2378": "ĠHis", "2379": "ival", "2380": "Ġfriends", "2381": "Ġgen", "2382": "Ġlegal", "2383": "atur", "2384": "Ġanim", "2385": "isc", "2386": "bo", "2387": "yle", "2388": "ĠAfter", "2389": "How", "2390": "AS", "2391": "where", "2392": "Ġabs", "2393": "lev", "2394": "Ġinstead", "2395": "Ġred", "2396": "Ġbillion", "2397": "Ġlost", "2398": "Ġespecially", "2399": "Ġvalue", "2400": "ĠMus", "2401": "ĠWest", "2402": "Ġhost", "2403": "Ġhom", "2404": "osing", "2405": "oring", "2406": "ĠNews", "2407": "time", "2408": "ager", "2409": "Ġple", "2410": "istic", "2411": "Ġweeks", "2412": "epend", "2413": "ĠNot", "2414": "ccording", "2415": "omm", "2416": "Ġforward", "2417": "ique", "2418": "Ġdeter", "2419": "Ġelection", "2420": "Ġrecently", "2421": "Ġjud", "2422": "Ġtrack", "2423": "Ġsuff", "2424": "Ġvote", "2425": "ĠTwitter", "2426": "Ġobject", "2427": "irt", "2428": "lt", "2429": "medi", "2430": "Ġperiod", "2431": "Ġchanges", "2432": "Ġopportun", "2433": "ĠWhite", "2434": "ĠOct", "2435": "Ġlo", "2436": "Ġlonger", "2437": "arc", "2438": "oke", "2439": "eed", "2440": "Ġep", "2441": "Ġpain", "2442": "Ġsoon", "2443": "Ġsite", "2444": "Ġ{", "2445": "hod", "2446": "ript", "2447": "ached", "2448": "Ġaccept", "2449": "ĠCong", "2450": "____", "2451": "Ġshoot", "2452": "Ġeconomic", "2453": "Ġhope", "2454": "irm", "2455": "oe", "2456": "Ġmoment", "2457": "Ġdecl", "2458": "lege", "2459": "Ġconsum", "2460": "ĠWill", "2461": "Ġpie", "2462": "Ġtit", "2463": "Ġcheck", "2464": "oph", "2465": "Ġpotential", "2466": "ij", "2467": "Ġblock", "2468": "ĠMarch", "2469": "ole", "2470": "Ġwrong", "2471": "duct", "2472": "ners", "2473": "ĠSept", "2474": "ĠDepartment", "2475": "Ġhigher", "2476": "onse", "2477": "Ġcred", "2478": "Ġonline", "2479": "Ġfocus", "2480": "Ġ24", "2481": "Ġconsider", "2482": "key", "2483": "Ġeduc", "2484": "ancial", "2485": "ĠMy", "2486": "ns", "2487": "iding", "2488": "Ġcirc", "2489": "Ġworks", "2490": "Ġrelig", "2491": "Ġshare", "2492": "Ġparent", "2493": "cial", "2494": "Ġheld", "2495": "25", "2496": "Ġpred", "2497": "ĠDr", "2498": "Ġwalk", "2499": "Ġwebs", "2500": "Ġled", "2501": "ularly", "2502": "==", "2503": "Ġreve", "2504": "lear", "2505": "Ġstay", "2506": "ĠThese", "2507": "overed", "2508": "alt", "2509": "Ġstru", "2510": "ĠRepublican", "2511": "Ġrisk", "2512": "Ġwords", "2513": "ĠAug", "2514": "Ġrev", "2515": "Ġsold", "2516": "Ġreview", "2517": "icro", "2518": "Ġcontract", "2519": "Ġresults", "2520": "Ġservices", "2521": "Ġlaws", "2522": "They", "2523": "Ġcode", "2524": "cil", "2525": "ĠMich", "2526": "Ġwind", "2527": "Ġfunction", "2528": "Ġaud", "2529": "Ġce", "2530": "ĠSyri", "2531": "put", "2532": "aut", "2533": "Ġtotal", "2534": "fect", "2535": "Ġarticle", "2536": "Ġage", "2537": "Ġapplic", "2538": "Ġminutes", "2539": "urd", "2540": "ĠMe", "2541": "Ġpersonal", "2542": "ilities", "2543": "Ġanyone", "2544": "uary", "2545": "ients", "2546": "itution", "2547": "asons", "2548": "ĠJune", "2549": "Ad", "2550": "ateg", "2551": "Ġprim", "2552": "anger", "2553": "Ġtarget", "2554": "ĠSte", "2555": "fer", "2556": "Ġden", "2557": "Ġearlier", "2558": "ule", "2559": "Ġfavor", "2560": "Ġexpress", "2561": "haps", "2562": "Ġdead", "2563": "Ġansw", "2564": "Ġupd", "2565": "Ġpopular", "2566": "che", "2567": "Ġcomput", "2568": "Ġvol", "2569": "pril", "2570": "Ġnecess", "2571": "ham", "2572": "Ġhy", "2573": "Ġrate", "2574": "ES", "2575": "aging", "2576": "Ġtechnology", "2577": "apan", "2578": "Ġrespect", "2579": "ĠPe", "2580": "val", "2581": "Ġenvironment", "2582": "Ġ2011", "2583": "Ph", "2584": "Ġreceived", "2585": "Ġexpected", "2586": "ude", "2587": "ends", "2588": "Ġgoal", "2589": "ĠPar", "2590": "Ġcreated", "2591": "Ġbase", "2592": "Ġsurpr", "2593": "Ġanti", "2594": "ĠSm", "2595": "ĠJuly", "2596": "eter", "2597": "tee", "2598": "Ġproblems", "2599": "uel", "2600": "Ġways", "2601": "Ġport", "2602": "iple", "2603": "action", "2604": "Ġprivate", "2605": "ĠDo", "2606": "Ġscient", "2607": "Ġincrease", "2608": "ray", "2609": "reet", "2610": "Ġannounced", "2611": "Ġcomment", "2612": "isl", "2613": "Ġcannot", "2614": "Ġeasy", "2615": "Al", "2616": "Ġshot", "2617": "ĠCongress", "2618": "Ġquestions", "2619": "bit", "2620": "Ġforce", "2621": "aterial", "2622": "hern", "2623": "Ġimpact", "2624": "na", "2625": "Ġet", "2626": "ĠMond", "2627": "ples", "2628": "Ġpack", "2629": "Ġ+", "2630": "ĠFacebook", "2631": "Ġpur", "2632": "Ġlangu", "2633": "atives", "2634": "ĠGod", "2635": "ĠEn", "2636": "Ġinvolved", "2637": "omb", "2638": "aving", "2639": "ills", "2640": "60", "2641": "lex", "2642": "hood", "2643": "onst", "2644": "ĠAustral", "2645": "Ġdiv", "2646": "uesday", "2647": "Ġexecut", "2648": "ctor", "2649": "Ġmodel", "2650": "itiz", "2651": "Ġsen", "2652": "Ġspeak", "2653": "Ġstaff", "2654": "Ġexact", "2655": "Ġcivil", "2656": "ires", "2657": "Ġnearly", "2658": "Ġtype", "2659": "ourt", "2660": "okes", "2661": "ees", "2662": "Ġoriginal", "2663": "Ġcases", "2664": "Ġcontent", "2665": "Ġ197", "2666": "Ġrelationship", "2667": "Ġterror", "2668": "ĠGoogle", "2669": "To", "2670": "Ġleave", "2671": "ĠFriday", "2672": "Ġresponse", "2673": "Ġcapt", "2674": "Ġinside", "2675": "Ġphot", "2676": "lled", "2677": "ech", "2678": "Ġfans", "2679": "ĠApril", "2680": "rem", "2681": "ĠRed", "2682": "Ġ<", "2683": "Ġinternational", "2684": "Ġcoll", "2685": "cast", "2686": "Ġheart", "2687": "Ġaverage", "2688": "Ġbroad", "2689": "Ġarrest", "2690": "Ġusers", "2691": "ĠCount", "2692": "Ġcal", "2693": "At", "2694": "rel", "2695": "Ġcell", "2696": "Ġworth", "2697": "Ġsoft", "2698": "Ġur", "2699": "Ġliving", "2700": "ĠEm", "2701": "bor", "2702": "Ġnation", "2703": "ips", "2704": "ky", "2705": "Ġkilled", "2706": "Ġreports", "2707": "Ġ2010", "2708": "ãģ", "2709": "ging", "2710": "Ġbecom", "2711": "Ġsource", "2712": "ĠMonday", "2713": "ĠTuesday", "2714": "Ġsubject", "2715": "Ġworked", "2716": "atural", "2717": "ests", "2718": "Ġestab", "2719": "Ġimmedi", "2720": "EN", "2721": "Ġrespond", "2722": "Ġglobal", "2723": "Ġassoci", "2724": "joy", "2725": "ellig", "2726": "Ġclub", "2727": "ops", "2728": "ĠAmericans", "2729": "ael", "2730": "Ġobs", "2731": "ites", "2732": "ĠPer", "2733": "ĠPal", "2734": "Ġchance", "2735": "Ġoil", "2736": "ĠAct", "2737": "Ġability", "2738": "ĠNe", "2739": "Ġtakes", "2740": "rought", "2741": "Ġweap", "2742": "hel", "2743": "Ġprice", "2744": "ĠJapan", "2745": "ological", "2746": "Ġdirector", "2747": "izing", "2748": "Ġworkers", "2749": "Ġterms", "2750": "Ġroad", "2751": "mon", "2752": "Ġpublished", "2753": "Ġdel", "2754": "ĠWhile", "2755": "Ġtou", "2756": "Ġphone", "2757": "rain", "2758": "Ġcollect", "2759": "Ġfinancial", "2760": "Ġmid", "2761": "osition", "2762": "Ġdecided", "2763": "ises", "2764": "OR", "2765": "ĠRussia", "2766": "ĠSome", "2767": "ĠWed", "2768": "Ġmother", "2769": "Ġsqu", "2770": "Ġlack", "2771": "Ġdefin", "2772": "ovember", "2773": "Ġ40", "2774": "Ġgirl", "2775": "Ġstore", "2776": "Ġgave", "2777": "Ġbuy", "2778": "Ġinflu", "2779": "ĠCalif", "2780": "Ġlog", "2781": "Ġhappened", "2782": "ino", "2783": "Ġrequire", "2784": "ĠNow", "2785": "Ġemer", "2786": "Ġfem", "2787": "Ġcapital", "2788": "clus", "2789": "Ġforeign", "2790": "Ġcurrently", "2791": "ĠOff", "2792": "based", "2793": "ĠSan", "2794": "Ġgoes", "2795": "ĠBy", "2796": "oved", "2797": "ĠGeor", "2798": "vertise", "2799": "Ġsituation", "2800": "Ġindic", "2801": "Ġoffer", "2802": "Ġwhose", "2803": "Ġ@", "2804": "Ġtal", "2805": "Ġmaterial", "2806": "Ġlives", "2807": "unt", "2808": "Ġaffect", "2809": "rown", "2810": "ought", "2811": "Ġplans", "2812": "nesday", "2813": "Ġarri", "2814": "Ġmember", "2815": "Ġpict", "2816": "ursday", "2817": "ĠFeb", "2818": "Ġparticip", "2819": "ruction", "2820": "Ġrecogn", "2821": "Ġturned", "2822": "Ġmethod", "2823": "Ġevents", "2824": "ĠJanuary", "2825": "ĠHill", "2826": "\".", "2827": "Ġnetwork", "2828": "One", "2829": "Ġteams", "2830": "ĠSund", "2831": "Ġbank", "2832": "Ġmeeting", "2833": "40", "2834": "rect", "2835": "Ġnorm", "2836": "Ġintrodu", "2837": "Ġsimple", "2838": "fully", "2839": "ĠIslam", "2840": "Ġill", "2841": "ĠAg", "2842": "Ġhuge", "2843": "ĠSeptember", "2844": "oud", "2845": "Ġregard", "2846": "Ġareas", "2847": "Ġcy", "2848": "order", "2849": "ĠCor", "2850": "ese", "2851": "ĠTV", "2852": "Ġcouple", "2853": "Ġapproach", "2854": "Ġcareer", "2855": "aur", "2856": "ĠAfric", "2857": "ĠGl", "2858": "load", "2859": "\",", "2860": "Ġdeli", "2861": "Ġrace", "2862": "lin", "2863": "Ġperformance", "2864": "Ġpage", "2865": "ety", "2866": "apt", "2867": "ĠNovember", "2868": "Ġtool", "2869": "ĠDavid", "2870": "Ġfelt", "2871": "Ġquickly", "2872": "Ġmis", "2873": "Ġnumbers", "2874": "oor", "2875": "Ġemail", "2876": "Ġ21", "2877": "aily", "2878": "Ġord", "2879": "ĠEl", "2880": "istan", "2881": "Ġadministration", "2882": "Ġhon", "2883": "ĠWednesday", "2884": "Ġvictim", "2885": "ĠPaul", "2886": "Ġvia", "2887": "Ġimprove", "2888": "Ġengine", "2889": "chie", "2890": "--------", "2891": "Ġfre", "2892": "Ġpull", "2893": "ĠAng", "2894": "Ġround", "2895": "bl", "2896": "Ġbuilt", "2897": "Ġ22", "2898": "Ġpers", "2899": "ĠEuropean", "2900": "Ġdig", "2901": "ened", "2902": "ĠThursday", "2903": "Ġfather", "2904": "ornia", "2905": "Ġloss", "2906": "avy", "2907": "Ġthous", "2908": "ÂŃ", "2909": "Ġhttp", "2910": "ructure", "2911": "Ġproduction", "2912": "Ġboy", "2913": "ume", "2914": "Ġheard", "2915": "down", "2916": "Sh", "2917": "Ġeconomy", "2918": "Ġenjoy", "2919": "ĠAugust", "2920": "Ġtrade", "2921": "ĠSch", "2922": "face", "2923": "Ġwebsite", "2924": "iment", "2925": "Ġsecret", "2926": "Ġcover", "2927": "Ġreveal", "2928": "Ġwide", "2929": "Ġboard", "2930": "Ġmatch", "2931": "ĠCourt", "2932": "AL", "2933": "Ġallowed", "2934": "Ġhands", "2935": "Ġspent", "2936": "Ġtravel", "2937": "Ġlower", "2938": "Ġrepe", "2939": "atory", "2940": "Ġpoll", "2941": "Ġste", "2942": "Ġincluded", "2943": "cember", "2944": "ĠOctober", "2945": "Ġneigh", "2946": "Ġlegisl", "2947": "orters", "2948": "uses", "2949": "Ġbehav", "2950": "iction", "2951": "Ġknew", "2952": "Ġtext", "2953": "Ġwants", "2954": "Ġtown", "2955": "?âĢĿ", "2956": "ights", "2957": "ĠBritish", "2958": "Ġsepar", "2959": "ences", "2960": "estern", "2961": "Ġvisit", "2962": "ĠCanada", "2963": "anks", "2964": "ctions", "2965": "With", "2966": "Ġperfect", "2967": "Ġgets", "2968": "ze", "2969": "ession", "2970": "Ġmovement", "2971": "ishing", "2972": "ground", "2973": "agement", "2974": "Ġtried", "2975": "Ġcause", "2976": "âĢĿ.", "2977": "gest", "2978": "Ġ}", "2979": "Ġforces", "2980": "ĠSunday", "2981": "Ġens", "2982": "After", "2983": "force", "2984": "ceed", "2985": "Ġattention", "2986": "Ġparticular", "2987": "Ġbi", "2988": "][", "2989": "ening", "2990": "Ġveh", "2991": "Ġbud", "2992": "Ġfear", "2993": "Ġpopulation", "2994": "Ġvarious", "2995": "ĠUK", "2996": "Ġreach", "2997": "ma", "2998": "Ġlooks", "2999": "Ġ23", "3000": "ĠCalifornia", "3001": "Ġbrought", "3002": "Ġvo", "3003": "ĠKore", "3004": "Ġlink", "3005": "ibly", "3006": ");", "3007": "urning", "3008": "arily", "3009": "ĠIS", "3010": "200", "3011": "Ġprevious", "3012": "ED", "3013": "Ġmention", "3014": "ĠRussian", "3015": "Ġmorning", "3016": "ĠQu", "3017": "cle", "3018": "idered", "3019": "eg", "3020": "'d", "3021": "Ġfair", "3022": "Ġgrowth", "3023": "aker", "3024": "ĠSw", "3025": "undred", "3026": "99", "3027": "sequ", "3028": "yond", "3029": "Ġprogress", "3030": "Ġfell", "3031": "raz", "3032": "alled", "3033": "Ġsong", "3034": "iam", "3035": "ĠCont", "3036": "AC", "3037": "Ġtraining", "3038": "field", "3039": "hold", "3040": "uk", "3041": "Ġsize", "3042": "ĠBlack", "3043": "cies", "3044": "ĠDecember", "3045": "idents", "3046": "Ġcontact", "3047": "ledge", "3048": "ĠHer", "3049": "Ġdemand", "3050": "While", "3051": "Ġimage", "3052": "Ġhor", "3053": "Ġrac", "3054": "Ġhot", "3055": "ification", "3056": "OS", "3057": "Ġleader", "3058": "set", "3059": "ecause", "3060": "Ġrules", "3061": "Ġprep", "3062": "Ġliber", "3063": "Ġsearch", "3064": "Ġess", "3065": "ĠPost", "3066": "Ġcitiz", "3067": "Ġupon", "3068": "Ġstrugg", "3069": "ĠStreet", "3070": "Ġlatest", "3071": "come", "3072": "Ġindepend", "3073": "US", "3074": "uments", "3075": "inks", "3076": "arth", "3077": "Ġfeatures", "3078": "Ġcoach", "3079": "ondon", "3080": "ĠPark", "3081": "iant", "3082": "Ġfast", "3083": "Tr", "3084": "oo", "3085": "sych", "3086": "Ġtalking", "3087": "ĠJew", "3088": "omp", "3089": "Ġaddition", "3090": "ges", "3091": "Ġstar", "3092": "Ġwond", "3093": "ĠSenate", "3094": "IT", "3095": "ĠPat", "3096": "Ġspeed", "3097": "Ġexam", "3098": "Ġconsidered", "3099": "raq", "3100": "icles", "3101": "aries", "3102": "Ġreb", "3103": "bed", "3104": "Ġlevels", "3105": "eth", "3106": "ĠTimes", "3107": "ĠCounty", "3108": "elligence", "3109": "Ġslow", "3110": "Ġinvestigation", "3111": "ps", "3112": "ille", "3113": "Ġconduct", "3114": "aph", "3115": "ĠParty", "3116": "22", "3117": "ĠKing", "3118": "Ġmedical", "3119": "Ġmach", "3120": "imately", "3121": "vent", "3122": "Ġachie", "3123": "Ġlanguage", "3124": "aturday", "3125": "Ġcard", "3126": "Ġsn", "3127": "unk", "3128": "Ġsort", "3129": "Ġcritic", "3130": "ope", "3131": "ĠTex", "3132": "ĠCenter", "3133": "Ġpen", "3134": "Ġund", "3135": "wo", "3136": "ĠIndia", "3137": "Ġpaper", "3138": "ysis", "3139": "IC", "3140": "Ġ2008", "3141": "pir", "3142": "Ġconserv", "3143": "Ġparents", "3144": "imin", "3145": "Ġsexual", "3146": "Ġsystems", "3147": "Ġprior", "3148": "ha", "3149": "uit", "3150": "asc", "3151": "Ġdoll", "3152": "Ġwritten", "3153": "uf", "3154": "Ġbox", "3155": "Ġspokes", "3156": "igr", "3157": "Ġseek", "3158": "Ġsens", "3159": "het", "3160": "Ġdocument", "3161": "idge", "3162": "eared", "3163": "Ġincreasing", "3164": "Ġhear", "3165": "ani", "3166": "atform", "3167": "Ġdraw", "3168": "Ġseven", "3169": "Ġson", "3170": "ĠMuslim", "3171": "Ġeffort", "3172": "ruary", "3173": "Ġjobs", "3174": "ĠIran", "3175": "Ġextreme", "3176": "Ġprevent", "3177": "Ġlearn", "3178": "ining", "3179": "Ġserious", "3180": "Ġregul", "3181": "rast", "3182": "Ġinn", "3183": "Ġrange", "3184": "room", "3185": "Ġviolence", "3186": "Ġeight", "3187": "ĠMark", "3188": "80", "3189": "ources", "3190": "ĠIraq", "3191": "itch", "3192": "OP", "3193": "Ġsurve", "3194": "Ġcompletely", "3195": "Ġconc", "3196": "Ġ...", "3197": "Ġ2009", "3198": "Ġmessage", "3199": "ico", "3200": "tr", "3201": "Ġâ", "3202": "She", "3203": "Ġobv", "3204": "Ġinteresting", "3205": "reedom", "3206": "Ġscreen", "3207": "abor", "3208": "Ġopportunity", "3209": "eff", "3210": "Ġclimate", "3211": "24", "3212": "ext", "3213": "Ġmajority", "3214": "ĠKe", "3215": "anced", "3216": "Ġparticularly", "3217": "Ġdoub", "3218": "Ġjournal", "3219": "ĠRom", "3220": "Ġdespite", "3221": "Ġclaims", "3222": "ĠChar", "3223": "Ġanswer", "3224": "Ġsociety", "3225": "ĠLondon", "3226": "Ġdefense", "3227": "Ġcarry", "3228": "entially", "3229": "aming", "3230": "Ġguy", "3231": "Ġextra", "3232": "ension", "3233": "mp", "3234": "ĠDonald", "3235": "isions", "3236": "Ġattacks", "3237": "Ġrequired", "3238": "erve", "3239": "rench", "3240": "illed", "3241": "Ġbiggest", "3242": "vertisement", "3243": "ĠEast", "3244": "Ġexactly", "3245": "iers", "3246": "Ġpaid", "3247": "ĠMore", "3248": "ibr", "3249": "Ġexperien", "3250": "Ġaren", "3251": "lying", "3252": "uclear", "3253": "inese", "3254": "Ġmodern", "3255": "Ġremain", "3256": "Ġquarter", "3257": "Ġofficers", "3258": "ett", "3259": "Ġhundred", "3260": "Ġcross", "3261": "Ġexcept", "3262": "utions", "3263": "ari", "3264": "Ġtable", "3265": "Ġpractice", "3266": "Ġnatural", "3267": "inally", "3268": "Ġmiddle", "3269": "erc", "3270": "Ġ27", "3271": "Ġcertainly", "3272": "Ġdro", "3273": "add", "3274": "oses", "3275": "ĠSaturday", "3276": "Ġstories", "3277": "ĠNet", "3278": "Ġhistor", "3279": "Ġgas", "3280": "Ġproducts", "3281": "Ġsurv", "3282": "Ġlooked", "3283": "Ġsometimes", "3284": "nces", "3285": "Ġstuff", "3286": "Ġrout", "3287": "Ġscience", "3288": "Ġfinally", "3289": "Ġuser", "3290": "AM", "3291": "Ġsummer", "3292": "Ġmovie", "3293": "Ġblood", "3294": "ospital", "3295": "aves", "3296": "Ġcommunic", "3297": "Ġaw", "3298": "ously", "3299": "Ġlay", "3300": "Ġchanged", "3301": "Ġones", "3302": "Ġleading", "3303": "Ġdescribed", "3304": "ĠSand", "3305": "Ġimag", "3306": "Ġterm", "3307": "ĠFebruary", "3308": "fl", "3309": "Ġprison", "3310": "Ġconvers", "3311": "ny", "3312": "Ġdetails", "3313": "icks", "3314": "Ġstarting", "3315": "ĠSpe", "3316": "Ġquality", "3317": "Ġoccur", "3318": "Ġpan", "3319": "hib", "3320": "Ġshowed", "3321": "Ġnamed", "3322": "Ġgiving", "3323": "Ġult", "3324": "Ġremains", "3325": "ĠMcC", "3326": "uing", "3327": "Ġregion", "3328": "pper", "3329": "Ġprovided", "3330": "Ġcosts", "3331": "akers", "3332": "ĠSoc", "3333": "arr", "3334": "Ġdamage", "3335": "Ġmob", "3336": "Ġdanger", "3337": "Ġfit", "3338": "aught", "3339": "ĠTH", "3340": "ĠTur", "3341": "Ġchief", "3342": "Ġpoor", "3343": "Ġpath", "3344": "ĠMor", "3345": "ida", "3346": "Ġeducation", "3347": "Ġmultiple", "3348": "Ġcontinued", "3349": "enge", "3350": "ĠInt", "3351": "Ġgrowing", "3352": "No", "3353": "Ġdemonst", "3354": "ĠChe", "3355": "Ġ*", "3356": "Ġparts", "3357": "yl", "3358": "Ġ26", "3359": "Ġwriting", "3360": "Ġcomments", "3361": "Ġ28", "3362": "Ġment", "3363": "Ġmaintain", "3364": "Ġsafe", "3365": "Ġassist", "3366": "Ġthinking", "3367": "ĠDes", "3368": "inary", "3369": "ĠRepublicans", "3370": "ĠEven", "3371": "Ġpurp", "3372": "Ġrequest", "3373": "Ġwrite", "3374": "Ġfix", "3375": "Ġitem", "3376": "Ġpurch", "3377": "ables", "3378": "Ġdied", "3379": "ĠDemocratic", "3380": "ĠCoun", "3381": "FL", "3382": "ago", "3383": "Ġready", "3384": "coin", "3385": "Ġwouldn", "3386": "Ġimplement", "3387": "23", "3388": "Ġincreased", "3389": "Ġculture", "3390": "fort", "3391": "Ġefforts", "3392": "Ġvoters", "3393": "ux", "3394": "pre", "3395": "Ġcamer", "3396": "Ġmill", "3397": "aly", "3398": "....", "3399": "oper", "3400": "Ġreading", "3401": "mitted", "3402": "iminal", "3403": "Ġfile", "3404": "Ġusually", "3405": "Ġcalls", "3406": "Ġspot", "3407": "Ġeffects", "3408": "Im", "3409": "ĠGener", "3410": "zz", "3411": "Ġperhaps", "3412": "ban", "3413": "Ġalone", "3414": "arian", "3415": "iles", "3416": "ĠFirst", "3417": "Ġalthough", "3418": "Ġtowards", "3419": "ĠLeague", "3420": "de", "3421": "Ġconsist", "3422": "ĠBill", "3423": "ĠTexas", "3424": "Ġselect", "3425": "Ġguys", "3426": "Ġstandard", "3427": "ĠMichael", "3428": "Ġsubst", "3429": "Ġcele", "3430": "Ġbeyond", "3431": "Ġdirectly", "3432": "Ġplatform", "3433": "ĠChinese", "3434": "Ġ(@", "3435": "Ġhous", "3436": "using", "3437": "itute", "3438": "Ġspeech", "3439": "Ġreality", "3440": "icated", "3441": "Ġkids", "3442": "ĠJames", "3443": "Ġavoid", "3444": "Ġthroughout", "3445": "Ġfootball", "3446": "Ġstudent", "3447": "ara", "3448": "Ġcouldn", "3449": "rowd", "3450": "BI", "3451": "Ġunf", "3452": "ford", "3453": "Ġimmediately", "3454": "oul", "3455": "Ġrob", "3456": "Ġincludes", "3457": "Ġcat", "3458": "Ġconcept", "3459": "egr", "3460": "Ġcenter", "3461": "Ġchoice", "3462": "Ġscene", "3463": "Ġcomplex", "3464": "anch", "3465": "Ġadditional", "3466": "sp", "3467": "ĠMon", "3468": "Ġchalleng", "3469": "ĠCons", "3470": "Ġwife", "3471": "Ġclos", "3472": "urt", "3473": "Ġtro", "3474": "Ġrecomm", "3475": "Ġresearc", "3476": "Re", "3477": "Ġepis", "3478": "hest", "3479": "itor", "3480": "All", "3481": "Ġver", "3482": "ĠMinister", "3483": "Ġsle", "3484": "Ġcorpor", "3485": "ĠâĢ¦", "3486": "Ġdesigned", "3487": "ĠSer", "3488": "urg", "3489": "agon", "3490": "Ġremember", "3491": "Ġsoftware", "3492": "Ġsafety", "3493": "ĠIndian", "3494": "wise", "3495": "Ġgone", "3496": "Ġil", "3497": "astic", "3498": "ports", "3499": "Ġcast", "3500": "Ġsell", "3501": "Ġtoward", "3502": "Ġagency", "3503": "Ġten", "3504": "Ġofficer", "3505": "aches", "3506": "Ġfigure", "3507": "Ġpiece", "3508": "Ġbrain", "3509": "omen", "3510": "Ġbattle", "3511": "ĠJack", "3512": "men", "3513": "Ġcounter", "3514": "Ġdebate", "3515": "airs", "3516": "ression", "3517": "ston", "3518": "Ġthousands", "3519": "adem", "3520": "Ġswe", "3521": "rupt", "3522": "Ġopin", "3523": "Ġahead", "3524": "icient", "3525": "Now", "3526": "imum", "3527": "Ġrelative", "3528": "irth", "3529": "Ġletter", "3530": "Ġreceive", "3531": "Ġpressure", "3532": "ĠÐ", "3533": "ĠBo", "3534": "Ġblog", "3535": "ilies", "3536": "ampions", "3537": "Ġ>", "3538": "Ġsil", "3539": "Ġmoved", "3540": "Ġlaunch", "3541": "Ġappears", "3542": "Ġoption", "3543": "ĠPlay", "3544": "Ġpassed", "3545": "Ġut", "3546": "Ġprec", "3547": "Ġstage", "3548": "roy", "3549": "oes", "3550": "Ġ60", "3551": "Ġclean", "3552": "ĠServ", "3553": "olute", "3554": "ĠII", "3555": "atever", "3556": "berg", "3557": "OT", "3558": "Ġproperty", "3559": "27", "3560": "Ġhelped", "3561": "amb", "3562": "Ġdrive", "3563": "ĠApple", "3564": "just", "3565": "Ġalleged", "3566": "ĠGreen", "3567": "Ġtwe", "3568": "new", "3569": "Ġdisapp", "3570": "Ġtour", "3571": "Ġmeaning", "3572": "Ġrock", "3573": "Ġdog", "3574": "Ġx", "3575": "Ġcris", "3576": "itation", "3577": "ĠAssoci", "3578": "Ġsuspect", "3579": "Ġdate", "3580": "ĠRich", "3581": "aughter", "3582": "Ġmoving", "3583": "Ġscore", "3584": "ĠDemocrats", "3585": "Ġorganization", "3586": "Ġsat", "3587": "Ġconditions", "3588": "Ġtouch", "3589": "Ġdark", "3590": "Ġcommand", "3591": "ĠThen", "3592": "?\"", "3593": "Ġign", "3594": "Ġreasons", "3595": "Ġbudget", "3596": "Ġpark", "3597": "more", "3598": "Ġnuclear", "3599": "Ġmyself", "3600": "Ġnom", "3601": "Ġdeg", "3602": "Ġhappy", "3603": "Ġdevice", "3604": "Ġdifference", "3605": "rief", "3606": "ĠSim", "3607": "Ġmaybe", "3608": "chan", "3609": "Ġbeginning", "3610": "AD", "3611": "Ġcopy", "3612": "Ġnature", "3613": "Ġfailed", "3614": "wood", "3615": "Ġfan", "3616": "Ġcharacters", "3617": "yan", "3618": "Ġcomputer", "3619": "Ġencour", "3620": "Ġaim", "3621": "ĠMart", "3622": "Ġtitle", "3623": "Ġwall", "3624": "Ġcompared", "3625": "Ġleague", "3626": "ocked", "3627": "ĠSuper", "3628": "ivity", "3629": "Ġestim", "3630": "ĠVal", "3631": "ĠStar", "3632": "Ġcollege", "3633": "Ġeyes", "3634": "Ġshown", "3635": "ĠEnglish", "3636": "Ġcentury", "3637": "Ġpowerful", "3638": "ĠDay", "3639": "lease", "3640": "ource", "3641": "Ġbal", "3642": "aint", "3643": "Ġlimited", "3644": "Ġyes", "3645": "Ġband", "3646": "Ġcontribut", "3647": "Ġpositive", "3648": "Ġforced", "3649": "Ġsche", "3650": "Ġnecessary", "3651": "Ġrefer", "3652": "Ġcandidate", "3653": "Ġstra", "3654": "Ġdisp", "3655": "35", "3656": "cient", "3657": "Ġbooks", "3658": "Ġtrust", "3659": "AP", "3660": "ĠFrench", "3661": "Ġlargest", "3662": "26", "3663": "Ġarch", "3664": "enty", "3665": "Ġsal", "3666": "ĠHere", "3667": "Ġconference", "3668": "ĠRober", "3669": "aud", "3670": "Ġnote", "3671": "Ġanalysis", "3672": "ufact", "3673": "Ġspending", "3674": "Ġpresidential", "3675": "45", "3676": "ĠOf", "3677": "Ġcitizens", "3678": "orks", "3679": "Ġschools", "3680": "igration", "3681": "ĠSyria", "3682": "Ġthrow", "3683": "venue", "3684": "ĠBen", "3685": "Ġaware", "3686": "Ġmeant", "3687": "Ġexecutive", "3688": "Ġeventually", "3689": "My", "3690": "Ġphysical", "3691": "Ġfollowed", "3692": "Ġfeature", "3693": "Ġtreatment", "3694": "Ġcrowd", "3695": "Be", "3696": "ĠTor", "3697": "ĠWind", "3698": "Ġfirm", "3699": "Ġstreng", "3700": "Ġconfir", "3701": "Ġmix", "3702": "Ġbott", "3703": "ero", "3704": "Ġcorrect", "3705": "orney", "3706": "Ġ29", "3707": "ares", "3708": "ĠDis", "3709": "Ġgrad", "3710": "Ġreligious", "3711": "Ġeasily", "3712": "Ġautom", "3713": "Ġesc", "3714": "Ġpus", "3715": "band", "3716": "board", "3717": "Is", "3718": "Ġcool", "3719": "etro", "3720": "Ġ196", "3721": "Ġfamilies", "3722": "Ġilleg", "3723": "ressed", "3724": "craft", "3725": "cul", "3726": "rated", "3727": "Ġactions", "3728": "Ġoverall", "3729": "ĠAir", "3730": "ĠMex", "3731": "Ġallows", "3732": "Ġgives", "3733": "Ġfeed", "3734": "ĠÂ£", "3735": "):", "3736": "Ġsusp", "3737": "ube", "3738": "Ġyourself", "3739": "By", "3740": "Ġdraft", "3741": "bum", "3742": "ken", "3743": "Ġsmart", "3744": "Ġappeared", "3745": "Ġdetail", "3746": "Ġincome", "3747": "iring", "3748": "Ġanaly", "3749": "ĠBel", "3750": "Ġsigned", "3751": "New", "3752": "encies", "3753": "Ġcentral", "3754": "Ġideas", "3755": "Ġang", "3756": "ĠGovern", "3757": "Ġsenior", "3758": "Advertisement", "3759": "Ġfrequ", "3760": "Ġweapons", "3761": "ID", "3762": "ĠBre", "3763": "Ġhar", "3764": "Ġdisplay", "3765": "Ġpromot", "3766": "Ġnice", "3767": "Ġcredit", "3768": "Ġdecades", "3769": "Ġpsych", "3770": "Ġpolitics", "3771": "Don", "3772": "Ġcrime", "3773": "OM", "3774": "EC", "3775": "Ġuses", "3776": "inn", "3777": "Ġdoor", "3778": "Ġdise", "3779": "uty", "3780": "ĠInternational", "3781": "Ġunique", "3782": "28", "3783": "Ġaltern", "3784": "Ġlif", "3785": "According", "3786": "Ġdrop", "3787": "Ġsales", "3788": "mar", "3789": "Ġdeveloped", "3790": "Ar", "3791": "resh", "3792": "Ġcustomers", "3793": "ET", "3794": "Ġbenefits", "3795": "Ġconflic", "3796": "urance", "3797": "Ġrelated", "3798": "Ġcrisis", "3799": "ĠSchool", "3800": "Ġmist", "3801": "erry", "3802": "iable", "3803": "Ġpredict", "3804": "Ġnoted", "3805": "ĠCap", "3806": "29", "3807": "ĠAustralia", "3808": "ĠEU", "3809": "Ġtruth", "3810": "box", "3811": "part", "3812": "Ġgoals", "3813": "iny", "3814": "Ġindividuals", "3815": "Ġcharge", "3816": "ĠEarth", "3817": "Ġbeaut", "3818": "Ġcontinues", "3819": "onents", "3820": "ĠUnion", "3821": "ĠArab", "3822": "Ġobserv", "3823": "Ġrap", "3824": "Ġchallenge", "3825": "Ġsto", "3826": "nown", "3827": "Ġapparent", "3828": "ĠAngel", "3829": "itely", "3830": "ĠSmith", "3831": "Ġlic", "3832": "Ġprojects", "3833": "Ġpeace", "3834": "Ġmeasure", "3835": "ĠPolice", "3836": "oti", "3837": "Ġintelligence", "3838": "ĠChristian", "3839": "Ġpreviously", "3840": "ĠGermany", "3841": "Ġfully", "3842": "Ġrule", "3843": "Ġmanager", "3844": "Ġbrother", "3845": "Ġrates", "3846": "Ġadvant", "3847": "Un", "3848": "change", "3849": "Ġexpand", "3850": "Ġclearly", "3851": "Ġreform", "3852": "Ġlines", "3853": "net", "3854": "Ġsuccessful", "3855": "riage", "3856": "Ġhighly", "3857": "Ġlarger", "3858": "ounds", "3859": "21", "3860": "Ġtraff", "3861": "Ġspread", "3862": "iance", "3863": "Ġseemed", "3864": "ĠCouncil", "3865": "Ġstraight", "3866": "Some", "3867": "Ġcriminal", "3868": "ĠComp", "3869": "Ġminor", "3870": "Ġemb", "3871": "ki", "3872": "ĠGeorge", "3873": "Ġprograms", "3874": "iced", "3875": "attle", "3876": "owers", "3877": "ĠFranc", "3878": "Ġincident", "3879": "Ġresources", "3880": "ĠTom", "3881": "Ġgreater", "3882": "Ġprimary", "3883": "IA", "3884": "inated", "3885": "antly", "3886": "Ġknowledge", "3887": "Pro", "3888": "Ġstudies", "3889": "while", "3890": "dom", "3891": "Ġsave", "3892": "orter", "3893": "Ġweb", "3894": "ategy", "3895": "ean", "3896": "Ġkept", "3897": "Ġattract", "3898": "ĠFlor", "3899": "olic", "3900": "Ġspir", "3901": "Ġemot", "3902": "que", "3903": "Ġcolor", "3904": "Ġfeet", "3905": "ĠCr", "3906": "sey", "3907": "Ġrare", "3908": "Ġreached", "3909": "ĠAnt", "3910": "secut", "3911": "Ġarm", "3912": "ĠHigh", "3913": "levision", "3914": "ĠInternet", "3915": "ĠBrown", "3916": "oday", "3917": "iders", "3918": "osh", "3919": "Ġfavorite", "3920": "Ġplaces", "3921": "rs", "3922": "ĠRec", "3923": "Ġregular", "3924": "wide", "3925": "ota", "3926": "vere", "3927": "Ġmanufact", "3928": "Ġlaun", "3929": "ĠDef", "3930": "100", "3931": "Ġsend", "3932": "Ġprem", "3933": "ĠHam", "3934": "roll", "3935": "lick", "3936": "icit", "3937": "Ġknows", "3938": "Ġshooting", "3939": "Ġactivity", "3940": "Ġpun", "3941": "Ġsources", "3942": "Ġnormal", "3943": "icago", "3944": "bon", "3945": "term", "3946": "ingly", "3947": "onent", "3948": "ser", "3949": "ville", "3950": "Ġstatus", "3951": "Ġfighting", "3952": "Ġvoice", "3953": "Ġrise", "3954": "ocks", "3955": "Ġfine", "3956": "Ġowners", "3957": "Ġcaused", "3958": "Ġclaimed", "3959": "ĠMac", "3960": "Ġenem", "3961": "Ġliter", "3962": "ĠRob", "3963": "ĠUp", "3964": "ĠGeneral", "3965": "aith", "3966": "EO", "3967": "Ġoptions", "3968": "Ġ2007", "3969": "Ġintegr", "3970": "ength", "3971": "usion", "3972": "Ġspend", "3973": "ĠGold", "3974": "ado", "3975": "Ġcities", "3976": "miss", "3977": "Ġorganiz", "3978": "ING", "3979": "Ġended", "3980": "iled", "3981": "Ġresearchers", "3982": "Ġcalling", "3983": "Ġshut", "3984": "Ġreflect", "3985": "ĠLa", "3986": "mission", "3987": "mark", "3988": "org", "3989": "âĢĿ,", "3990": "oles", "3991": "70", "3992": "roid", "3993": "Ġprices", "3994": "ĠEvery", "3995": "Ġalbum", "3996": "ĠFrom", "3997": "ifying", "3998": "Ġemployees", "3999": "Ġfemale", "4000": "ĠEngland", "4001": "ya", "4002": "www", "4003": "Ġvirt", "4004": "Ġhaven", "4005": "Ġraised", "4006": "mittee", "4007": "Ġele", "4008": "Ġjump", "4009": "uana", "4010": "33", "4011": "Ġsupposed", "4012": "itness", "4013": "Ġhappens", "4014": "Ġadding", "4015": "Ġpolicies", "4016": "Ġnames", "4017": "Ġcharges", "4018": "Ġpros", "4019": "Ġtrou", "4020": "ica", "4021": "ribution", "4022": "Ġbasic", "4023": "iverse", "4024": "uman", "4025": "Not", "4026": "ĠMag", "4027": "Ġconcerns", "4028": "Ġtraditional", "4029": "Ġwait", "4030": "inger", "4031": "Ġplant", "4032": "Ġabsolute", "4033": "Ġacqu", "4034": "Ġhospital", "4035": "Ġfunding", "4036": "ram", "4037": "ĠBay", "4038": "Ġprint", "4039": "Ġslight", "4040": "Ġcommer", "4041": "rol", "4042": "Ġpatients", "4043": "Ġauthorities", "4044": "Ġminister", "4045": "Sc", "4046": "Ġcreating", "4047": "Ġfreedom", "4048": "ĠAP", "4049": "Ġmechan", "4050": "Ġscen", "4051": "ĠMo", "4052": "Ġstyle", "4053": "Ġseeing", "4054": "Ġgrand", "4055": ".âĢĻ", "4056": "Ġbeat", "4057": "Ġlik", "4058": "ona", "4059": "rian", "4060": "Ġstation", "4061": "ĠScott", "4062": "see", "4063": "Ġpush", "4064": "ijuana", "4065": "Ġbehavior", "4066": "Ġbeg", "4067": "Ġleaving", "4068": "Ġcry", "4069": "Ġimpl", "4070": "Ġbirth", "4071": "Ġir", "4072": "Ġactual", "4073": "EL", "4074": "Ġensure", "4075": "Ġoffered", "4076": "pen", "4077": "Ġagreement", "4078": "ĠFlorida", "4079": "Ġeth", "4080": "soft", "4081": "ĠHillary", "4082": "Ġposted", "4083": "Ġgold", "4084": "ĠSun", "4085": "Ġweekend", "4086": "Ġgreen", "4087": "ĠMost", "4088": "ĠBer", "4089": "ĠReg", "4090": "Ġadult", "4091": "alse", "4092": "Ġweight", "4093": "OU", "4094": ".'", "4095": "acing", "4096": "Ġdetermin", "4097": "Ġvac", "4098": "Here", "4099": "Ġrevealed", "4100": "ĠWell", "4101": "Ġapplication", "4102": "Ġmostly", "4103": "Ġvalues", "4104": "Ġpropos", "4105": "itude", "4106": "ĠAlex", "4107": "aby", "4108": "Ġwilling", "4109": "earch", "4110": "Ġrank", "4111": "Ġadop", "4112": "ĠAccording", "4113": "Ġestabl", "4114": "Ġeye", "4115": "Ġrecords", "4116": "ection", "4117": "âĢ¢", "4118": "500", "4119": "Ġenforce", "4120": "http", "4121": "Ġpicture", "4122": "Ġbelieved", "4123": "pri", "4124": "Ġmer", "4125": "uild", "4126": "Ġbrief", "4127": "ĠLet", "4128": "Ġlearned", "4129": "ĠLaw", "4130": "Ġinstall", "4131": "Ġstrategy", "4132": "Ġappl", "4133": "SA", "4134": "igned", "4135": "Ġchoose", "4136": "istry", "4137": "Ġdire", "4138": "Ġwonder", "4139": "Ġqual", "4140": "Ġmassive", "4141": "Ġdevices", "4142": "Ġbenefit", "4143": "Ġwild", "4144": "Ġparties", "4145": "ĠChicago", "4146": "Ġlawy", "4147": "ĠPeople", "4148": "Ġuns", "4149": "cher", "4150": "Ġcars", "4151": "ĠTrans", "4152": "ĠPort", "4153": "cont", "4154": "ĠPhil", "4155": "Ġarrested", "4156": "Ġmount", "4157": "Ġwhatever", "4158": "Ġwat", "4159": "ĠOh", "4160": "ĠFrance", "4161": "Ġstreet", "4162": "Ġ;", "4163": "Ġprovides", "4164": "Ġwhom", "4165": "Ġassault", "4166": "90", "4167": "liament", "4168": "Ġasking", "4169": "Ġinfluence", "4170": "ties", "4171": "Ġjudge", "4172": "Ġlose", "4173": "Ġfat", "4174": "Ġfeeling", "4175": "Ġoperations", "4176": "Ġproduced", "4177": "Ġtemper", "4178": "ste", "4179": "Ġcritical", "4180": "ĠSecret", "4181": "ĠLou", "4182": "Ġnegoti", "4183": "point", "4184": "Ġmission", "4185": "Ġenter", "4186": "ĠBush", "4187": "Ex", "4188": "Ġimages", "4189": "Ð¾", "4190": "ĠStud", "4191": "Ġconfirmed", "4192": "Ġshowing", "4193": "IL", "4194": "Ġdistrict", "4195": "ription", "4196": "Ġruns", "4197": "Ġpattern", "4198": "gen", "4199": "Ġtend", "4200": "ĠMat", "4201": "Ġborder", "4202": "Ġresidents", "4203": "orial", "4204": "rav", "4205": "Ġdebt", "4206": "However", "4207": "ĠÃ", "4208": "aked", "4209": "no", "4210": "Ġcru", "4211": "Ġteac", "4212": "mine", "4213": "ĠCommittee", "4214": "udd", "4215": "Ġopposition", "4216": "Cl", "4217": "Ġcelebr", "4218": "ĠWall", "4219": "ĠHealth", "4220": "Ġsection", "4221": "Ġdefend", "4222": "Ġetc", "4223": "estic", "4224": "Ġproduce", "4225": "icial", "4226": "ĠCommission", "4227": "Ġdrink", "4228": "Ġindependent", "4229": "ĠMod", "4230": "ront", "4231": "cell", "4232": "ĠWhy", "4233": "Ġbrand", "4234": "ented", "4235": "ags", "4236": "ugg", "4237": "Ġcore", "4238": "ĠPress", "4239": "Ġtick", "4240": "Ġdigital", "4241": "ĠBit", "4242": "Ġhero", "4243": "Ġadvoc", "4244": "ae", "4245": "Ġdollars", "4246": "ocr", "4247": "rial", "4248": "Ġeffective", "4249": "Ġsolution", "4250": "ĠMal", "4251": "Ġvill", "4252": "Ġinterested", "4253": "ĠSam", "4254": "ĠKorea", "4255": "BA", "4256": "Ġhighest", "4257": "ords", "4258": "Ġmemory", "4259": "Ġopening", "4260": "Ġworse", "4261": "Ġlearning", "4262": "Ġresponsible", "4263": "Ġtrial", "4264": "Ġdaily", "4265": "Ġkick", "4266": "Ġtheory", "4267": "ĠOther", "4268": "Ġoffers", "4269": "ĠPalest", "4270": "Ġreplace", "4271": "Ġrestrict", "4272": "ĠGet", "4273": "Ġmur", "4274": "ĠOffice", "4275": "Ġagreed", "4276": "Ġtelevision", "4277": "ĠFrancis", "4278": "cience", "4279": "ĠMicro", "4280": "ĠBecause", "4281": "Ġoccas", "4282": "ST", "4283": "illing", "4284": "CC", "4285": "Ġtrain", "4286": "Ġinvestment", "4287": "Ġvs", "4288": "Ġtypes", "4289": "iation", "4290": "ĠWestern", "4291": "aks", "4292": "icians", "4293": "Ġchair", "4294": "Ġmiles", "4295": "Ġmillions", "4296": "uries", "4297": "Ġchem", "4298": "ĠJustice", "4299": "ĠDel", "4300": "Ġgenerally", "4301": "Ġbasis", "4302": "Ġproposed", "4303": "Ġ80", "4304": "ĠMike", "4305": "ĠMil", "4306": "ĠCup", "4307": "These", "4308": "ipe", "4309": "Ġheavy", "4310": "Ġexplained", "4311": "Ġmap", "4312": "ĠOur", "4313": "AA", "4314": "rad", "4315": "Ġder", "4316": "Ġbur", "4317": "oly", "4318": "Ġpartners", "4319": "ander", "4320": "ĠAdd", "4321": "Ġopinion", "4322": "win", "4323": "Ġdefe", "4324": "Ġonto", "4325": "Ġprotest", "4326": "Con", "4327": "________", "4328": "Get", "4329": "Ġassociated", "4330": "Ġload", "4331": "rig", "4332": "azing", "4333": "ĠNFL", "4334": "rate", "4335": "oom", "4336": "44", "4337": "ĠFound", "4338": "Ġmale", "4339": "Ġbecomes", "4340": "Ġreject", "4341": "outhern", "4342": "====", "4343": "ĠSecurity", "4344": "vest", "4345": "Ġcoal", "4346": "Ġobtain", "4347": "Ġdestroy", "4348": "Ġadvantage", "4349": "Ġassum", "4350": "ĠLiber", "4351": "Ġcondition", "4352": "Ġannounce", "4353": "Ġhundreds", "4354": "Ġachieve", "4355": "Ġopened", "4356": "eline", "4357": "Ġunderstanding", "4358": "odes", "4359": "ĠJohnson", "4360": "coming", "4361": "icip", "4362": "Ġsurround", "4363": "ading", "4364": "orthern", "4365": "bert", "4366": "well", "4367": "la", "4368": "upp", "4369": "Ġinitial", "4370": "ĠAtt", "4371": "ĠBig", "4372": "Ġsleep", "4373": "36", "4374": "Ġship", "4375": "Ġmarriage", "4376": "Ġmanagement", "4377": "ĠWindows", "4378": "Ġthus", "4379": "Ġlimit", "4380": "Ġborn", "4381": "32", "4382": "Ġbecoming", "4383": "known", "4384": "Ġphoto", "4385": "Ġeasier", "4386": "FC", "4387": "ĠGreat", "4388": "Ġrat", "4389": "Ġlegislation", "4390": "Ġcontrovers", "4391": "Ġunlike", "4392": "Ġelectric", "4393": "ĠMany", "4394": "Ġcamera", "4395": "witch", "4396": "Ġaccused", "4397": "Ġspl", "4398": "Ġneighbor", "4399": "Ġdouble", "4400": "Ġice", "4401": "Ġspecies", "4402": "lant", "4403": "Ġshared", "4404": "Ġjoin", "4405": "Ġillegal", "4406": "Ġ31", "4407": "ĠLab", "4408": "Ġ2006", "4409": "Mr", "4410": "Ġharm", "4411": "Ġmachine", "4412": "Ġserved", "4413": "ĠJer", "4414": "GB", "4415": "Ġextremely", "4416": "olf", "4417": "Ġactive", "4418": "Ġ35", "4419": "Ġserve", "4420": "Ġdocuments", "4421": "ĠIslamic", "4422": "Ġframe", "4423": "za", "4424": "Ġstrik", "4425": "level", "4426": "ĠDist", "4427": "Ġaudience", "4428": "BS", "4429": "Ġlocation", "4430": "ĠAM", "4431": "Ġscientists", "4432": "Ġbottom", "4433": "Ġvictims", "4434": "ĠArt", "4435": "orrow", "4436": "Ġwealth", "4437": "Ġprofessional", "4438": "Ġresist", "4439": "ih", "4440": "Ġreduce", "4441": "Ġbelief", "4442": "Ġnine", "4443": "Ġsolid", "4444": "Ġwinning", "4445": "Ġmarijuana", "4446": "ears", "4447": "ĠUk", "4448": "Ġnegative", "4449": "75", "4450": "iful", "4451": "Ġcommunities", "4452": "Ġreturned", "4453": "ortunately", "4454": "Ġbed", "4455": "Ġincred", "4456": "ĠPM", "4457": "ĠInstitute", "4458": "met", "4459": "tered", "4460": "Ġchurch", "4461": "PS", "4462": "Ġdepartment", "4463": "irgin", "4464": "ĠSanders", "4465": "Ġran", "4466": "Ġvictory", "4467": "rey", "4468": "Ġpurpose", "4469": "Ġ90", "4470": "ĠCommun", "4471": "Ġamb", "4472": "lands", "4473": "Ġvehicle", "4474": "Ġinternet", "4475": "Ġleadership", "4476": "ios", "4477": "ĠHall", "4478": "istics", "4479": "Ġbomb", "4480": "Ġmobile", "4481": "ghan", "4482": "Ġinstance", "4483": "ipped", "4484": "38", "4485": "Ġseparate", "4486": "Ġexisting", "4487": "Ġnotice", "4488": "Ġhearing", "4489": "Ġdie", "4490": "Ġexplain", "4491": "Ġdoubt", "4492": "Ġfaith", "4493": "Ġteach", "4494": "house", "4495": "ĠYour", "4496": "atically", "4497": "Ġepisode", "4498": "Ġwatching", "4499": "Ġcomfort", "4500": "ĠCanadian", "4501": "ĠBank", "4502": "Ġnotes", "4503": "Ġradio", "4504": "ĠEv", "4505": "Ġfresh", "4506": "ĠFin", "4507": "Ġunc", "4508": "Ġviews", "4509": "ĠInc", "4510": "Ġputting", "4511": "asy", "4512": "Ġsupporters", "4513": "Ġconservative", "4514": "Ġpurs", "4515": "Ġargument", "4516": "omas", "4517": "Ġmicro", "4518": "ario", "4519": "acity", "4520": "Ġlaunched", "4521": "scrib", "4522": "works", "4523": "OL", "4524": "Ġappeal", "4525": "iliar", "4526": "Ġitems", "4527": "Ġcommittee", "4528": "resp", "4529": "ĠMad", "4530": "which", "4531": "Ġdefinitely", "4532": "Ġdangerous", "4533": "iller", "4534": "PA", "4535": "zen", "4536": "Ġcoverage", "4537": "Ġdirection", "4538": "ĠOver", "4539": "Ġcharged", "4540": "Ġfloor", "4541": "Ġsun", "4542": "Ġmax", "4543": "ography", "4544": "34", "4545": "EM", "4546": "ĠCarol", "4547": "ĠChurch", "4548": "ĠFox", "4549": "Ġissued", "4550": "Ġdrugs", "4551": "Image", "4552": "ipp", "4553": "Ġtask", "4554": "Ġbackground", "4555": "Ġcompetition", "4556": "Ġtrend", "4557": "Ġstated", "4558": "vention", "4559": "andom", "4560": "ada", "4561": "Ġtraffic", "4562": "ĠFBI", "4563": "Ġcommercial", "4564": "ĠDirect", "4565": "urb", "4566": "itt", "4567": "NA", "4568": "Ġspoke", "4569": "Ġsett", "4570": "inct", "4571": "Ġtransfer", "4572": "Ġsuggested", "4573": "Ġstructure", "4574": "Ġsites", "4575": "Ġhus", "4576": "Ġnorth", "4577": "ĠSince", "4578": "ĠLike", "4579": "Ġrestaur", "4580": "ampionship", "4581": "Ġlabor", "4582": "Ġdecade", "4583": "Ġrepeated", "4584": "ĠGame", "4585": "Ġreact", "4586": "oman", "4587": "Ġcards", "4588": "Ġanimals", "4589": "going", "4590": "Ġnovel", "4591": "ctors", "4592": "but", "4593": "ribute", "4594": "Ġdaughter", "4595": "anted", "4596": "ĠSl", "4597": "Ġdriving", "4598": "Ġclosed", "4599": "Ġworst", "4600": "Ġcontain", "4601": "Ġentirely", "4602": "Ġded", "4603": "ĠBritain", "4604": "ady", "4605": "gency", "4606": "Ġdriver", "4607": "ĠWil", "4608": "Ġdisease", "4609": "Ġtelling", "4610": "iling", "4611": "Ġsmaller", "4612": "Ġdiscovered", "4613": "Ġnor", "4614": "Bl", "4615": "akistan", "4616": "Ġrefere", "4617": "ĠPri", "4618": "Americ", "4619": "ĠLos", "4620": "ius", "4621": "Ġhack", "4622": "hem", "4623": "!âĢĿ", "4624": "equ", "4625": "ference", "4626": "ĠQue", "4627": "spe", "4628": "Ġfalse", "4629": "Ġcash", "4630": "Ġconcerned", "4631": "ulf", "4632": "Ġplays", "4633": "Ġsurface", "4634": "semb", "4635": "Ġsupported", "4636": "annel", "4637": "ulated", "4638": "Ġtools", "4639": "oyal", "4640": "Ġcompar", "4641": "Ġtransport", "4642": "ĠChris", "4643": "Ġexperiment", "4644": "Ġfinding", "4645": "night", "4646": "Ġcateg", "4647": "ãĤ", "4648": "Ġaspect", "4649": "##", "4650": "Ġbusinesses", "4651": "Ġ70", "4652": "ĠUN", "4653": "ait", "4654": "Ġfarm", "4655": "Ġplease", "4656": "Ġolder", "4657": "azon", "4658": "how", "4659": "Ġactivities", "4660": "Ġrequires", "4661": "phone", "4662": "CH", "4663": "Ġgay", "4664": "ĠJones", "4665": "do", "4666": "ibrary", "4667": "Ġstrength", "4668": "48", "4669": "Ġwel", "4670": "andon", "4671": "Ġinsurance", "4672": "Ġconsequ", "4673": "37", "4674": "Ġlargely", "4675": "Ġmurder", "4676": "NN", "4677": "ici", "4678": "55", "4679": "Ġexerc", "4680": "Ġcaught", "4681": "Ġcandidates", "4682": "kins", "4683": "ĠIsraeli", "4684": "Ġallowing", "4685": "icy", "4686": "Ġblue", "4687": "ĠAre", "4688": "Ġannual", "4689": "ĠKen", "4690": "ĠTre", "4691": "Ġtesting", "4692": "ossible", "4693": "Ġstrateg", "4694": "ĠSup", "4695": "Ġraise", "4696": "Ġstock", "4697": "arant", "4698": "overy", "4699": "ĠRobert", "4700": "izes", "4701": "Ġdecisions", "4702": "Ġaccur", "4703": "rick", "4704": "Ġcontext", "4705": "Ġfuel", "4706": "ĠAc", "4707": "SP", "4708": "lor", "4709": "osure", "4710": "ĠUkrain", "4711": "Ġconcern", "4712": "Ġafford", "4713": "Ġbelieves", "4714": "Ġconstruction", "4715": "Ġtruly", "4716": "****", "4717": "ĠTy", "4718": "ĠMiss", "4719": "Ġge", "4720": "Ġjustice", "4721": "igrants", "4722": "Ġgeneration", "4723": "Ġhighlight", "4724": "Ġunit", "4725": "rim", "4726": "Ġpresence", "4727": "ĠJewish", "4728": "anging", "4729": "!!", "4730": "ĠSil", "4731": "Ð°", "4732": "tery", "4733": "Ðµ", "4734": "ception", "4735": "ĠAfrica", "4736": "Ġguess", "4737": "ancy", "4738": "Ġwitness", "4739": "itable", "4740": "Ġholding", "4741": "ĠGree", "4742": "Ġestablish", "4743": "Ġlength", "4744": "Ġplanning", "4745": "bre", "4746": "ava", "4747": "ĠAfrican", "4748": "Ġsequ", "4749": "cknow", "4750": "Ġrefuge", "4751": "Ġplaced", "4752": "Ġcatch", "4753": "ĠAfghan", "4754": "Ġsan", "4755": "inter", "4756": "ĠAssociation", "4757": "Ġtells", "4758": "âĢĺ", "4759": "Ġscale", "4760": "ey", "4761": "Ġspokesman", "4762": "Ġtim", "4763": "nel", "4764": "Ġrough", "4765": "Ġattend", "4766": "olly", "4767": "ĠVer", "4768": "Ġcells", "4769": "Ġjoined", "4770": "ĠPre", "4771": "Ġmentioned", "4772": "Ġinterests", "4773": "Ġabuse", "4774": "pective", "4775": "ĠJim", "4776": "More", "4777": "Ġhasn", "4778": "ĠPC", "4779": "Le", "4780": "Ġiniti", "4781": "Ġenforcement", "4782": "Ġkid", "4783": "ĠGOP", "4784": "Ġintroduced", "4785": "Ġdeliver", "4786": "Ġconflict", "4787": "ĠMer", "4788": "ĠMicrosoft", "4789": "Ġphil", "4790": "âĢĶâĢĶ", "4791": "Ġupdate", "4792": "Ġmissing", "4793": "ros", "4794": "Ġproviding", "4795": "Ġwaiting", "4796": "Ġcancer", "4797": "39", "4798": "Ġrecommend", "4799": "ocracy", "4800": "Ġestablished", "4801": "isation", "4802": "Ġeat", "4803": "bour", "4804": "ĠYes", "4805": "Ġoccup", "4806": "ĠFrank", "4807": "ĠJeff", "4808": "ĠAngeles", "4809": "Ġremoved", "4810": "Ġ2005", "4811": "ula", "4812": "Ġoffensive", "4813": "ĠFore", "4814": "ĠInstead", "4815": "icon", "4816": "Ġinjury", "4817": "Ġsports", "4818": "47", "4819": "Ġfant", "4820": "Ġdiscussion", "4821": "vant", "4822": "Ġoperation", "4823": "Ġdownload", "4824": "Ġuseful", "4825": "Ġnewsp", "4826": "Ġconversation", "4827": "Ġhomes", "4828": "ronic", "4829": "Ġsouth", "4830": "Ġcook", "4831": "ĠCEO", "4832": "Ġassess", "4833": "ĠGroup", "4834": "itz", "4835": "formation", "4836": "lig", "4837": "Ġbanks", "4838": "onto", "4839": "Ġstopped", "4840": "ĠStep", "4841": "ĠConst", "4842": "Ġobvious", "4843": "ications", "4844": "Ġmeasures", "4845": "Ġmodels", "4846": "ĠKh", "4847": "Ġfourth", "4848": "ĠMP", "4849": "Our", "4850": "season", "4851": "DA", "4852": "what", "4853": "Ġbul", "4854": "anda", "4855": "Ġ2018", "4856": "Ġfiles", "4857": "Ġgirls", "4858": "ĠLouis", "4859": "Ġstick", "4860": "cks", "4861": "azine", "4862": "mail", "4863": "umn", "4864": "Ġmanaged", "4865": "iter", "4866": "apped", "4867": "ĠPalestin", "4868": "oted", "4869": "Ġfigures", "4870": "oms", "4871": "ĠTim", "4872": "ĠLeg", "4873": "Ġidentified", "4874": "Ġgraph", "4875": "ĠJud", "4876": "ĠSal", "4877": "Ġfinished", "4878": "Ġfunds", "4879": "Pl", "4880": "ĠPakistan", "4881": "real", "4882": "Ġsetting", "4883": "Ġconclud", "4884": "Ġprefer", "4885": "Ġhair", "4886": "Ġcommitted", "4887": "ĠMexico", "4888": "49", "4889": "Ġskills", "4890": "kin", "4891": "Ġappropri", "4892": "Ġspirit", "4893": "ĠRock", "4894": "Ġveter", "4895": "Ġfocused", "4896": "Ġarrived", "4897": "ĠTHE", "4898": "Ġhousing", "4899": "ĠVirgin", "4900": "Ġkeeping", "4901": "Ġtherefore", "4902": "Ġacknow", "4903": "Ġdetect", "4904": "ulate", "4905": "Des", "4906": "Ġpartner", "4907": "Ġexclus", "4908": "igan", "4909": "ĠAndroid", "4910": "enses", "4911": "ups", "4912": "Ġearth", "4913": "Ġtransl", "4914": "outs", "4915": "place", "4916": "Ġtough", "4917": "ĠJapanese", "4918": "Ġ2000", "4919": "Ġrelatively", "4920": "Ã¡", "4921": "ĠSupreme", "4922": "owl", "4923": "wing", "4924": "Ġidentity", "4925": "Ġfeels", "4926": "rd", "4927": "ĠMet", "4928": "Ġotherwise", "4929": "Ġsurvey", "4930": "RA", "4931": "ĠRyan", "4932": "ocal", "4933": "ication", "4934": "itutional", "4935": "Ġprotection", "4936": "agn", "4937": "Ġexchange", "4938": "Ġowner", "4939": "isf", "4940": "Trump", "4941": "Ġsteps", "4942": "ĠInter", "4943": "Ġtrip", "4944": "imb", "4945": "Ġhusband", "4946": "ĠMont", "4947": "Ġtweet", "4948": "Ġconnection", "4949": "ĠArmy", "4950": "Ġslightly", "4951": "ĠProf", "4952": "eah", "4953": "ka", "4954": "Ġweak", "4955": "ĠGovernment", "4956": "verse", "4957": "\":", "4958": "Ġcircum", "4959": "Ġelements", "4960": "Ġclick", "4961": "ĠRichard", "4962": "Ġstrike", "4963": "Ġphotos", "4964": "ga", "4965": "Ġmere", "4966": "Ġdefensive", "4967": "dden", "4968": "gar", "4969": "Ġgain", "4970": "Ġfle", "4971": "Ġdepend", "4972": "ucky", "4973": "Ġcollection", "4974": "onym", "4975": "hens", "4976": "Ġkilling", "4977": "Ġroll", "4978": "ighter", "4979": "Go", "4980": "Ġcorner", "4981": "ĠMartin", "4982": "ancing", "4983": "odies", "4984": "Ġsuggests", "4985": "uct", "4986": "Ġaggress", "4987": "with", "4988": "prof", "4989": "Ġguard", "4990": "Photo", "4991": "Ġgender", "4992": "makers", "4993": "ĠCollege", "4994": "Ġcommission", "4995": "ĠAlthough", "4996": "range", "4997": "Ġdat", "4998": "ĠSur", "4999": "46", "5000": "ĠIr", "5001": "ĠDec", "5002": "Ġmental", "5003": "icide", "5004": "Ġamazing", "5005": "rees", "5006": "ĠSub", "5007": "hi", "5008": "Ġplanet", "5009": "ĠTeam", "5010": "rency", "5011": "ĠOut", "5012": "Ġbigger", "5013": "Ġfailure", "5014": "ym", "5015": "ĠJose", "5016": "Ġsupply", "5017": "Why", "5018": "ania", "5019": "ĠNor", "5020": "Ġstarts", "5021": "gers", "5022": "Ġsides", "5023": "hedul", "5024": "iser", "5025": "Ġfamiliar", "5026": "Ġremind", "5027": "Ġsust", "5028": "Ġspect", "5029": "ils", "5030": "uate", "5031": "Ġspeaking", "5032": "ano", "5033": "Ġtalks", "5034": "Ġhappening", "5035": "mas", "5036": "gypt", "5037": "Ġorganizations", "5038": "Ġhate", "5039": "Ġwindow", "5040": "Ġarmy", "5041": "ĠGood", "5042": "ĠJoe", "5043": "Ġnone", "5044": "uke", "5045": "Ġtaxes", "5046": "Ġplanned", "5047": "ĠPet", "5048": "Ġthanks", "5049": "ĠMary", "5050": "Ġstruct", "5051": "Ġpit", "5052": "Ġdecide", "5053": "Ġsudden", "5054": "Ġwish", "5055": "lo", "5056": "Ġcrew", "5057": "Ġcarried", "5058": "Ġappoint", "5059": "oston", "5060": "Ġpet", "5061": "awn", "5062": "eless", "5063": "agues", "5064": "ynam", "5065": "Ġregist", "5066": "TC", "5067": "Ġmulti", "5068": "idering", "5069": "Ġhelping", "5070": "Last", "5071": "Ġaward", "5072": "Ġstandards", "5073": "Ġ32", "5074": "ĠFire", "5075": "Ġrevolution", "5076": "Ġenvironmental", "5077": "ĠWeb", "5078": "arsh", "5079": "ĠThomas", "5080": "olit", "5081": "Ġscript", "5082": "pm", "5083": "ola", "5084": "Ġseconds", "5085": "gn", "5086": "run", "5087": "ĠResearch", "5088": "Ġscientific", "5089": "ĠBern", "5090": "Ġimmigration", "5091": "Ġstanding", "5092": "ĠTheir", "5093": "Ġ45", "5094": "stream", "5095": "ocol", "5096": "Ġque", "5097": "Ġbeer", "5098": "Ġdomestic", "5099": "imal", "5100": "adium", "5101": "Ġpair", "5102": "uters", "5103": "ĠAlso", "5104": "ĠSecretary", "5105": "ĠUs", "5106": "Ġacadem", "5107": "Ġcold", "5108": "Ġvariety", "5109": "Ġmarkets", "5110": "Ġsch", "5111": "fe", "5112": "].", "5113": "HL", "5114": "Ġterrit", "5115": "Ġdropped", "5116": "Ġaccounts", "5117": "!\"", "5118": "ĠAtlant", "5119": "Ġfiled", "5120": "erous", "5121": "acks", "5122": "illa", "5123": "Ġbalance", "5124": "Ġimpossible", "5125": "ĠTer", "5126": "aven", "5127": "Ġinteract", "5128": "Ġneighborhood", "5129": "Ġdegree", "5130": "Read", "5131": "Ġturns", "5132": "ores", "5133": "itect", "5134": "Ġpossibly", "5135": "Ġappre", "5136": "Ġoperating", "5137": "Ġprinc", "5138": "Ġalternative", "5139": "Ġunion", "5140": "Ġvotes", "5141": "Ġvul", "5142": "ader", "5143": "Ġprofessor", "5144": "Ġtack", "5145": "ĠService", "5146": "Ġincreasingly", "5147": "ayer", "5148": "ruit", "5149": "Ġapply", "5150": "Ġfellow", "5151": "Ġcuts", "5152": "stein", "5153": "Ġhonest", "5154": "ĠPrime", "5155": "Ġunivers", "5156": "Ġserver", "5157": "vis", "5158": "Ġdevelopers", "5159": "arks", "5160": "ĠSyrian", "5161": "Ġapparently", "5162": "abb", "5163": "aren", "5164": "Ġlived", "5165": "Ġchanging", "5166": "Ġworry", "5167": "rastructure", "5168": "ĠCarolina", "5169": "Ġtests", "5170": "Ġunits", "5171": "Ġrich", "5172": "ĠTwo", "5173": "cious", "5174": "icted", "5175": "From", "5176": "aded", "5177": "Ġhumans", "5178": "IM", "5179": "ĠFoundation", "5180": "ĠMos", "5181": "Ġagencies", "5182": "Ġsounds", "5183": "ashed", "5184": "Ġtwice", "5185": "Ġultimately", "5186": "obby", "5187": "Ġlosing", "5188": "Ġphilos", "5189": "Ġauthority", "5190": "Ġsoldiers", "5191": "ãĥ", "5192": "Ġanimal", "5193": "gu", "5194": "ĠImages", "5195": "Ġsettle", "5196": "Ġath", "5197": "Ġschedul", "5198": "Ġmut", "5199": "Ġcolle", "5200": "Ġcorporate", "5201": "Ġabsolutely", "5202": "Ġhealthy", "5203": "Ġpaying", "5204": "och", "5205": "Ġequip", "5206": "iams", "5207": "Ġdeveloping", "5208": "Ġsea", "5209": "ĠTime", "5210": "Ġcloser", "5211": "ĠDen", "5212": "Ġinnov", "5213": "related", "5214": "Ġseeking", "5215": "Ġregarding", "5216": "coh", "5217": "roud", "5218": "Ġskin", "5219": "Ġexpensive", "5220": "ansion", "5221": "Ġpossibility", "5222": "Ġbeautiful", "5223": "Ġreligion", "5224": "Ġapart", "5225": "ĠCentral", "5226": "Ġfundament", "5227": "Ġexperts", "5228": "Ġsolar", "5229": "65", "5230": "Ġyards", "5231": "Ġvast", "5232": "Ġwriter", "5233": "Ġflight", "5234": "ĠDistrict", "5235": "ĠLast", "5236": "Ġdeploy", "5237": "Ġadjust", "5238": "Of", "5239": "Ġinternal", "5240": "Ġtast", "5241": "ĠUnder", "5242": "ĠLat", "5243": "31", "5244": "ĠPeter", "5245": "apers", "5246": "Ġimagine", "5247": "ĠJon", "5248": "IV", "5249": "Ġapplications", "5250": "iot", "5251": "ologies", "5252": "Ġvision", "5253": "look", "5254": "state", "5255": "osen", "5256": "ĠFrancisco", "5257": "ĠToronto", "5258": "den", "5259": "Ġsitting", "5260": "ĠPlan", "5261": "Ġtrail", "5262": "Ġunless", "5263": "ĠUSA", "5264": "ĠJes", "5265": "isted", "5266": "Ġheat", "5267": "Ġ2004", "5268": "Even", "5269": "Ġresponsibility", "5270": "Ġcapacity", "5271": "IP", "5272": "atures", "5273": "ĠMiddle", "5274": "Ġerror", "5275": "aine", "5276": "ias", "5277": "Ġsymb", "5278": "Ġfol", "5279": "Ġarms", "5280": "Ġpil", "5281": "Ġgar", "5282": "pire", "5283": "Ġcovered", "5284": "idden", "5285": "ĠBur", "5286": "Ġfamous", "5287": "ĠCamp", "5288": "Ġforms", "5289": "uzz", "5290": "ND", "5291": "Ġuniversity", "5292": "Ġguarant", "5293": "Ġtight", "5294": "Ġpresented", "5295": "ortion", "5296": "oving", "5297": "enced", "5298": "ĠST", "5299": "ĠEgypt", "5300": "Ġearn", "5301": "ĠPut", "5302": "Ġconvention", "5303": "under", "5304": "Just", "5305": "ĠPublic", "5306": "Ġsurprise", "5307": "Ġattorney", "5308": "Ġelections", "5309": "Ġestimated", "5310": "Ġfif", "5311": "ĠAri", "5312": "Ġteen", "5313": "Ġinstit", "5314": "Ġvehicles", "5315": "rible", "5316": "ĠAmazon", "5317": "road", "5318": "Ġintended", "5319": "Ġrid", "5320": "Ġodd", "5321": ".âĢĿ<>", "5322": "Ġhelps", "5323": "Ġoccurred", "5324": "person", "5325": "Ġstreets", "5326": "uster", "5327": "hand", "5328": "ini", "5329": "ĠBoston", "5330": "ĠSol", "5331": "Ġ=>", "5332": "=\"", "5333": "ĠMur", "5334": "Ġsport", "5335": "sen", "5336": "Ġdetermine", "5337": "ressive", "5338": "ĠBitcoin", "5339": "Ġexpert", "5340": "alls", "5341": "Ġconsult", "5342": "uration", "5343": "Ġbroken", "5344": "Let", "5345": "lets", "5346": "Ġfired", "5347": "Ġton", "5348": "Ġflow", "5349": "Ġdomin", "5350": "ĠGal", "5351": "porary", "5352": "eder", "5353": "LE", "5354": "Ġshall", "5355": "Ġreserv", "5356": "Up", "5357": "Ġtroops", "5358": "ION", "5359": "ĠThose", "5360": "Ġhyp", "5361": "Ġnar", "5362": "terday", "5363": "Ġpieces", "5364": "ĠChief", "5365": "Ġprepared", "5366": "ĠMass", "5367": "ĠCath", "5368": "Ġrapid", "5369": "gl", "5370": "orage", "5371": "ĠJo", "5372": "Ġlocated", "5373": "ĠSocial", "5374": "Ġbaby", "5375": "----------------", "5376": "Ġconclus", "5377": "Ġbringing", "5378": "anche", "5379": "ĠProt", "5380": "Ġprove", "5381": "Ġspecifically", "5382": "ĠAny", "5383": "Ġpotentially", "5384": "Ġsector", "5385": "Ġrandom", "5386": "Ġjail", "5387": "OW", "5388": "Ġselling", "5389": "Ġgovernments", "5390": "ĠOnce", "5391": "Ġscr", "5392": "Ab", "5393": "Ġequal", "5394": "class", "5395": "war", "5396": "Ġfaster", "5397": "Ġheav", "5398": "ĠSpr", "5399": "Ġboost", "5400": "useum", "5401": "vey", "5402": "Ġclin", "5403": "Ġproposal", "5404": "oty", "5405": "Ġfactors", "5406": "Ġplenty", "5407": "TH", "5408": "Ġequipment", "5409": "Ġcouncil", "5410": "Ġera", "5411": "Ġinfrastructure", "5412": "Do", "5413": "Ġstress", "5414": "phas", "5415": "Ġstars", "5416": "ĠJournal", "5417": "ĠRub", "5418": "endment", "5419": "ĠVirginia", "5420": "Ġbreat", "5421": "Ġprosecut", "5422": "Ġvoted", "5423": "Ġoffering", "5424": "Ġcarbon", "5425": "inent", "5426": "Ġexpressed", "5427": "Ġvulner", "5428": "Ġcombat", "5429": "ĠParis", "5430": "Ġbroke", "5431": "()", "5432": "ureau", "5433": "Ġclot", "5434": "ours", "5435": "Ġruling", "5436": "ĠFederal", "5437": "Ġretail", "5438": "ĠGuard", "5439": "Ġrefused", "5440": "Ġdram", "5441": "ĠDan", "5442": "Ġelected", "5443": "ĠOpen", "5444": "ĠRiver", "5445": "Every", "5446": "Ġsecure", "5447": "cean", "5448": "Ġseasons", "5449": "Ġconducted", "5450": ",'", "5451": "ht", "5452": "Ġchallenges", "5453": "Ġremove", "5454": "isher", "5455": "ĠSant", "5456": "Ġmethods", "5457": "Ġweapon", "5458": "noon", "5459": "Ġpointed", "5460": "ĠIsland", "5461": "Ġmaster", "5462": "Ġremained", "5463": "ĠAustralian", "5464": "Ġprime", "5465": "ENT", "5466": "Ġtrig", "5467": "Ġpositions", "5468": "ĠCru", "5469": "Ġdin", "5470": "ĠMel", "5471": "Ġcriticism", "5472": "ipping", "5473": "First", "5474": "ocking", "5475": "ĠMedic", "5476": "ĠPlease", "5477": "rog", "5478": "onom", "5479": "IG", "5480": "Ġsale", "5481": "olved", "5482": "ĠFe", "5483": "Ġcultural", "5484": "that", "5485": "Ġweren", "5486": "Ġsignificantly", "5487": "Ġbrow", "5488": "etic", "5489": "Ġoriginally", "5490": "rie", "5491": "ĠDuring", "5492": "Ġaffected", "5493": "Ġappearance", "5494": "Ġcas", "5495": "Ġtourn", "5496": "Ġfacing", "5497": "Ġgreatest", "5498": "Ġfinish", "5499": "ĠLee", "5500": "Ġstret", "5501": "yr", "5502": "Ġyouth", "5503": "Ġtele", "5504": "ĠWho", "5505": "ĠCur", "5506": "Ġpercentage", "5507": "ĠPhoto", "5508": "col", "5509": "Ġdetermined", "5510": "Ġsigns", "5511": "Ġinvolve", "5512": "95", "5513": "cel", "5514": "Ð¸", "5515": "64", "5516": "Ġthank", "5517": "Ġbought", "5518": "Ġ500", "5519": "lyn", "5520": "ĠSing", "5521": "standing", "5522": "Ġchemical", "5523": "ashion", "5524": "Ġshape", "5525": "Ġvir", "5526": "Ġregime", "5527": "Ġgrew", "5528": "pired", "5529": "Ġremaining", "5530": "ĠSteve", "5531": "lymp", "5532": "Ġminimum", "5533": "ĠSaud", "5534": "reens", "5535": "Ġindeed", "5536": "Ġdream", "5537": "rier", "5538": "Since", "5539": "Ġmarg", "5540": "Sp", "5541": "ĠBoth", "5542": "Ġmode", "5543": "Ġherself", "5544": "Ġvoting", "5545": "ĠColor", "5546": ">>", "5547": "Ġobviously", "5548": "ĠForce", "5549": "Ġreduced", "5550": "ordin", "5551": "ĠNov", "5552": "Ġwood", "5553": "ĠRem", "5554": "Ġrecorded", "5555": "Ġargued", "5556": "Ġ1990", "5557": "Ġrevenue", "5558": "Ġtact", "5559": "ĠRo", "5560": "Ġwearing", "5561": "aling", "5562": "ighters", "5563": "Ġleads", "5564": "edia", "5565": "Ġhun", "5566": "Ġpoliticians", "5567": "Ġplus", "5568": "Ġcontrast", "5569": "Ġswitch", "5570": "Ġhandle", "5571": "Ġpurchase", "5572": "Ġthr", "5573": "Ġsubs", "5574": "Ġconcent", "5575": "Ġproced", "5576": "ÑĤ", "5577": "Ġagent", "5578": "arp", "5579": "ĠWilliams", "5580": "Ġappreci", "5581": "Ġexperienced", "5582": "Ġhurt", "5583": "top", "5584": "Ġexcited", "5585": "Ġvideos", "5586": "Ġhttps", "5587": "cohol", "5588": "Ġsupporting", "5589": "DP", "5590": "ĠHaw", "5591": "mm", "5592": "ownt", "5593": "ĠFree", "5594": "Ġsurprising", "5595": "Ġminute", "5596": "odd", "5597": "Ġexplos", "5598": "Ġbelong", "5599": "Ġconsumers", "5600": "Ġidentify", "5601": "Ġconsidering", "5602": "ĠPac", "5603": "ĠConserv", "5604": "ller", "5605": "apter", "5606": "Ġaircraft", "5607": "Ġrent", "5608": "Ġaid", "5609": "CL", "5610": "Ġpulled", "5611": "gment", "5612": "Ġbasically", "5613": "Ġdifferences", "5614": "ogue", "5615": "ĠBook", "5616": "Ġglass", "5617": "Ġafternoon", "5618": "Ġshift", "5619": "Ġdiss", "5620": "ĠRad", "5621": "Ġdepart", "5622": "Ġends", "5623": "essions", "5624": "Ġturning", "5625": "Ġbound", "5626": "Ġfilms", "5627": "Ġspring", "5628": "Ġprospect", "5629": "ruption", "5630": "ket", "5631": "ĠCharl", "5632": "hab", "5633": "Ġmort", "5634": "05", "5635": "life", "5636": "Ġtreated", "5637": "Ġaccident", "5638": ",[", "5639": "01", "5640": "Ġmotiv", "5641": "Ġlisten", "5642": "Ġseat", "5643": "ĠPower", "5644": "uts", "5645": "Ġcombined", "5646": "Ġconstruct", "5647": "Ind", "5648": "Ġseriously", "5649": "Ġprivacy", "5650": "apping", "5651": "Ġevening", "5652": "hered", "5653": "hy", "5654": "Ġopportunities", "5655": "asp", "5656": "Ġstruggle", "5657": "Ġ195", "5658": "Ġpanel", "5659": "Ġenemy", "5660": "Ġlots", "5661": "Ġcompleted", "5662": "ĠDaily", "5663": "Ġvisual", "5664": "His", "5665": "Phone", "5666": "pet", "5667": "Ġtalked", "5668": "Ġcart", "5669": "Ġhopes", "5670": "oral", "5671": "Ġpassing", "5672": "Ġid", "5673": "Ġapps", "5674": "osite", "5675": "PD", "5676": "Ġcalcul", "5677": "Another", "5678": "Ġwidely", "5679": "ensions", "5680": "Ġemergency", "5681": "ĠHol", "5682": "ĠShow", "5683": "Ġsuit", "5684": "Ġelement", "5685": "amm", "5686": "Ġast", "5687": "anged", "5688": "SS", "5689": "aled", "5690": "ucks", "5691": "Ġpowers", "5692": "ato", "5693": "ĠRel", "5694": "ĠBBC", "5695": "ĠOlymp", "5696": "Ġburn", "5697": "TV", "5698": "Ġdiscl", "5699": "Pe", "5700": "Ġplants", "5701": "Ġflat", "5702": "ĠSpace", "5703": "Ġliberal", "5704": "raud", "5705": "obe", "5706": "Ġopposed", "5707": "Well", "5708": "Ġproceed", "5709": "ompl", "5710": "Ġcopyright", "5711": "oking", "5712": "ĠProject", "5713": "Ġadvance", "5714": "Ġfactor", "5715": "Ġdistance", "5716": "Ġ2003", "5717": "ivered", "5718": "Ġdismiss", "5719": "plom", "5720": "Ġattempts", "5721": "Ġtun", "5722": "ĠMatt", "5723": "ĠRoad", "5724": "abilities", "5725": "Am", "5726": "ributed", "5727": "ĠIN", "5728": "Ġtrouble", "5729": "unction", "5730": "Ġhol", "5731": "Ġcollabor", "5732": "Ġdefault", "5733": "sts", "5734": "idel", "5735": "ĠBet", "5736": "Ġzone", "5737": "ĠJackson", "5738": "Ġupgr", "5739": "rawn", "5740": "ita", "5741": "Cont", "5742": "Ġreaction", "5743": "Ġstorm", "5744": "Ġreporters", "5745": "ĠMem", "5746": "Ġfrust", "5747": "PR", "5748": "nell", "5749": "mosp", "5750": "adow", "5751": "Ġwrites", "5752": "mond", "5753": "aints", "5754": "Ġtypically", "5755": "ĠToday", "5756": "lines", "5757": "respond", "5758": "UT", "5759": "Ġpages", "5760": "Ġinstruct", "5761": "ternal", "5762": "eds", "5763": "Ġreference", "5764": "Ġpackage", "5765": "Ġbodies", "5766": "zer", "5767": "Ġmatters", "5768": "free", "5769": "42", "5770": "Ġdenied", "5771": "care", "5772": "edd", "5773": "App", "5774": "Ġquant", "5775": "Ġdisappoint", "5776": "Ġsem", "5777": "Ġexplo", "5778": "ĠNAS", "5779": "Ġoptim", "5780": "ache", "5781": "Ġquiet", "5782": "Ġentertain", "5783": "Ġmal", "5784": "Ġresponded", "5785": "Ġapproved", "5786": "ĠTurkey", "5787": "Ġsatisf", "5788": "aped", "5789": "Ġbroadcast", "5790": "esters", "5791": "Ġinstitutions", "5792": "Ġadvert", "5793": "Ġstands", "5794": "ĠDirector", "5795": "Ġsets", "5796": "estival", "5797": "Ġelimin", "5798": "isters", "5799": "razy", "5800": "Ã¤", "5801": "Rep", "5802": "ĠPenn", "5803": "Ġvalid", "5804": "host", "5805": "Ġrenew", "5806": "ĠOhio", "5807": "elly", "5808": "0000", "5809": "Ġsplit", "5810": "Ġsevere", "5811": "ĠWilliam", "5812": "Ġsac", "5813": "Ġcapable", "5814": "Ġ2001", "5815": "Ġ//", "5816": "Ġpitch", "5817": "abin", "5818": "aniel", "5819": "Ġcaption", "5820": "Ġcloud", "5821": "Ġloved", "5822": "Ġtechnical", "5823": "Ġgiant", "5824": "pass", "5825": "Ġcann", "5826": "Ġtradition", "5827": "rant", "5828": "Ġprompt", "5829": "Ġbull", "5830": "Ġconfident", "5831": "uous", "5832": "Ġconfidence", "5833": "Ġnumerous", "5834": "Ġreportedly", "5835": "ĠMa", "5836": "Ġfaces", "5837": "],", "5838": "writ", "5839": "Ġweather", "5840": "Ġfly", "5841": "Ġtransition", "5842": "rid", "5843": "Ġ36", "5844": "ĠSystem", "5845": "ĠAfghanistan", "5846": "Ġgra", "5847": "ĠSqu", "5848": "Ġcreation", "5849": "De", "5850": "Ġperspective", "5851": "Ġunable", "5852": "Ġforget", "5853": "ĠLabour", "5854": "ĠYet", "5855": "43", "5856": "astern", "5857": "employ", "5858": "oken", "5859": "ĠMedia", "5860": "angers", "5861": "II", "5862": ".\"<>", "5863": "unte", "5864": "Ġcraft", "5865": "Ġsubstant", "5866": "Ġcooper", "5867": "Ġviolent", "5868": "Ġsuffered", "5869": "ilit", "5870": "Ġcoast", "5871": "Ġmand", "5872": "ampion", "5873": "Ġpictures", "5874": "Ġexperiences", "5875": "Ġapprox", "5876": "abled", "5877": "Ġroute", "5878": "88", "5879": "sex", "5880": "Ġflag", "5881": "Ġadvice", "5882": "ĠAndrew", "5883": "usiness", "5884": "Ġdeclared", "5885": "ĠWal", "5886": "Ġordered", "5887": "ĠHuman", "5888": "razil", "5889": "Ġcrimes", "5890": "Ġcoff", "5891": "Se", "5892": "Ġproud", "5893": "ishes", "5894": "Ġreporting", "5895": "Ġmessages", "5896": "Ġcircumst", "5897": "Ġfindings", "5898": "ĠLin", "5899": "Res", "5900": "Ġeval", "5901": "ulations", "5902": "Ġexcell", "5903": "Over", "5904": "Ġdeclined", "5905": "Ġexplains", "5906": "Ġdelay", "5907": "Ġ\\", "5908": "ĠFollow", "5909": "Ġnewspaper", "5910": "ounded", "5911": "Ġconnected", "5912": "ilty", "5913": "Ġshouldn", "5914": "evin", "5915": "oves", "5916": "Ġongoing", "5917": "can", "5918": "Ġvan", "5919": "dule", "5920": "Ġmovies", "5921": "Ġpicked", "5922": "ionally", "5923": "resents", "5924": "77", "5925": "Ġadmitted", "5926": "Ġdelivered", "5927": "During", "5928": "Ġguns", "5929": "ĠML", "5930": "ĠScot", "5931": "Ġwalking", "5932": "Ġagents", "5933": "called", "5934": "Ġprin", "5935": "tion", "5936": "Ġeditor", "5937": "Ġthoughts", "5938": "Ġmarried", "5939": "ĠTra", "5940": "Ġauth", "5941": "Ġemails", "5942": "Ġappropriate", "5943": "Ġemphas", "5944": "uations", "5945": "Ġedge", "5946": "Ġarchitect", "5947": "ĠGrand", "5948": "Ġleaves", "5949": "Ġupdates", "5950": "Ġaccompl", "5951": "OD", "5952": "Ġgather", "5953": "ĠMuslims", "5954": "Ġforg", "5955": "ansas", "5956": "ĠWood", "5957": "Ġquarterback", "5958": "Ġsession", "5959": "ooth", "5960": "41", "5961": "ĠTechn", "5962": "Ġpool", "5963": "ĠScience", "5964": "cos", "5965": "Ġinjured", "5966": "arn", "5967": "Ġpublicly", "5968": "ellow", "5969": "ĠSov", "5970": "Ġstatements", "5971": "Ġperman", "5972": "Ġlegit", "5973": "arl", "5974": "nergy", "5975": "MA", "5976": "Ġconfirm", "5977": "ĠLake", "5978": "Ġourselves", "5979": "Other", "5980": "Ġrealize", "5981": "Ġrot", "5982": "Ġdrivers", "5983": "ĠAv", "5984": "ĠDou", "5985": "TA", "5986": "mates", "5987": ",âĢĻ", "5988": "Ġarmed", "5989": "essor", "5990": "Ġdial", "5991": "cons", "5992": "Ġlawyer", "5993": "ourney", "5994": "Ġrail", "5995": "Ġreaders", "5996": "reland", "5997": "Ġsad", "5998": "Ġcontains", "5999": "Ġargue", "6000": "ĠRev", "6001": "Ġtalent", "6002": "Ġfilled", "6003": "ĠSum", "6004": "Ġallegations", "6005": "Ġactivists", "6006": "ĠChristmas", "6007": "Ġdynam", "6008": "Ġ1980", "6009": "ĠMichigan", "6010": "date", "6011": "ĠBack", "6012": "ĠRon", "6013": "Ġcrack", "6014": "Ġtransform", "6015": "Tube", "6016": "ĠIll", "6017": "Ġbuildings", "6018": "ĠRead", "6019": "long", "6020": "Ġwear", "6021": "Many", "6022": "Ġterrorist", "6023": "Ġsam", "6024": "Ġtree", "6025": "Ġexercise", "6026": "enda", "6027": "Ġlabel", "6028": "Ġeffectively", "6029": "Oh", "6030": "Ġpractices", "6031": "ala", "6032": "Ġsubsequ", "6033": "ĠJul", "6034": "ĠSher", "6035": "uls", "6036": "Ġflo", "6037": "TS", "6038": "Ġfish", "6039": "ette", "6040": "enture", "6041": "Ġshop", "6042": "Ġexamples", "6043": "ĠHy", "6044": "Ġpatient", "6045": "ĠGen", "6046": "ĠSeattle", "6047": "Ġobjects", "6048": "Ġtech", "6049": "ĠSee", "6050": "Ġsecretary", "6051": "asure", "6052": "Ġrain", "6053": "Ġmissed", "6054": "Ġcauses", "6055": "illy", "6056": "rum", "6057": "Ġdebut", "6058": "ĠRod", "6059": "gia", "6060": "Ġessentially", "6061": "66", "6062": "amin", "6063": "Ġmoral", "6064": "orders", "6065": "ador", "6066": "word", "6067": "acter", "6068": "ĠWork", "6069": "def", "6070": "arters", "6071": "ĠUkraine", "6072": "Ġcentre", "6073": "Follow", "6074": "ĠVict", "6075": "bur", "6076": "ĠStan", "6077": "ĠID", "6078": "icing", "6079": "Ġinjuries", "6080": "ĠPhot", "6081": "Ġmotor", "6082": "ĠiPhone", "6083": "Ġartist", "6084": "Ġclient", "6085": "Ġbond", "6086": "Ġthinks", "6087": "iat", "6088": "orse", "6089": "ouston", "6090": "Ġpure", "6091": "Ġhell", "6092": "Although", "6093": "ĠSaudi", "6094": "Ġfacts", "6095": "Ĥ¬", "6096": "Ġdesire", "6097": "agers", "6098": "aza", "6099": "Ġske", "6100": "orry", "6101": "Ġlinked", "6102": "ÃŃ", "6103": "Ġgovernor", "6104": "Ġmaterials", "6105": "Ġperformed", "6106": "Spe", "6107": "Ġfranch", "6108": "esome", "6109": "Ġsuc", "6110": "Ġphilosoph", "6111": "Ġinitially", "6112": "iest", "6113": "ĠSign", "6114": "Ġnecessarily", "6115": "ĠBat", "6116": "ĠFer", "6117": "Ġexpansion", "6118": "Ġscheduled", "6119": "water", "6120": "ERS", "6121": "Ġwarned", "6122": "Ġdiplom", "6123": "Ġadvanced", "6124": "Ġing", "6125": "Ġexplan", "6126": "Ġvari", "6127": "Ġeverybody", "6128": "Ġjoint", "6129": "Ġdecre", "6130": "Ġresolution", "6131": "Ġincreases", "6132": "enger", "6133": "Yes", "6134": "Ġaccepted", "6135": "Ġincor", "6136": "Ġmyster", "6137": "Ġfaced", "6138": "Ġbare", "6139": "illance", "6140": "ĠMount", "6141": "Ġannouncement", "6142": "Ġfollows", "6143": "Ġnations", "6144": "Ġplayoff", "6145": "ĠLife", "6146": "Ġabandon", "6147": "ĠSecond", "6148": "Ġradical", "6149": "Ġathlet", "6150": "Ġneither", "6151": "Ġyesterday", "6152": "gent", "6153": "Ġdatab", "6154": "Ġnearby", "6155": "Ġdistribution", "6156": "otic", "6157": "Ġapplied", "6158": "irty", "6159": "Ġmagazine", "6160": "Most", "6161": "athan", "6162": "rich", "6163": "Ġmir", "6164": "Ġconsequences", "6165": "Ġdoctor", "6166": "Ġlisted", "6167": "Ġfort", "6168": "uy", "6169": "ĠColumb", "6170": "Ġatmosp", "6171": "American", "6172": "Ġsurprised", "6173": "Ġoffense", "6174": "Qu", "6175": "itors", "6176": "ĠCNN", "6177": "ĠRE", "6178": "Ġspons", "6179": "Ġbegins", "6180": "ĠWeek", "6181": "Ġthreats", "6182": "sembly", "6183": "Ġrepresents", "6184": "ĠJews", "6185": "ĠGM", "6186": "ĠAff", "6187": "Ġenh", "6188": "Ġmoves", "6189": "Ġremark", "6190": "ĠTO", "6191": "Ġpra", "6192": "Ġsongs", "6193": "kay", "6194": "Ġchart", "6195": "Ġbehavi", "6196": "omin", "6197": "Ġride", "6198": "Ġadds", "6199": "Ġwithd", "6200": "Can", "6201": "ÃĤ", "6202": "Ġimproved", "6203": "Ġphen", "6204": "ĠBlue", "6205": "Ġbot", "6206": "Ġwarm", "6207": "Ġaf", "6208": "Ġalcohol", "6209": "rip", "6210": "ĠAT", "6211": "Ġoutput", "6212": "law", "6213": "Ġflood", "6214": "ĠDevelop", "6215": "ĠHen", "6216": "whel", "6217": "edy", "6218": "Ġshots", "6219": "Ġfill", "6220": "ĠVol", "6221": "Ġalt", "6222": "Ġstood", "6223": "Ġbrings", "6224": "Ġpushed", "6225": "Ġguilty", "6226": "ĠRomney", "6227": "ĠKim", "6228": "Ġsubscrib", "6229": "85", "6230": "Ġentry", "6231": "ocratic", "6232": "ĠBrazil", "6233": "Ġdemocracy", "6234": "Ġboys", "6235": "Ġ33", "6236": "Ġrow", "6237": "ĠSwed", "6238": "Ġconfig", "6239": "Ġrestaurant", "6240": "ĠNBA", "6241": "Ġlawsuit", "6242": "ĠDev", "6243": "ĠIreland", "6244": "acle", "6245": "Ġmanufacture", "6246": "Ġreceiving", "6247": "Ġrein", "6248": "ĠBarack", "6249": "Then", "6250": "Ġtrib", "6251": "Ġtotally", "6252": "ĠOnly", "6253": "Ġdiscussed", "6254": "Ġsought", "6255": "Ġrising", "6256": "Ġentered", "6257": "ĠISIS", "6258": "ĠBoard", "6259": "Ġconsistent", "6260": "Ġhistorical", "6261": "twitter", "6262": "ideo", "6263": "Ġstorage", "6264": "Ġcorrespond", "6265": "Ġplane", "6266": "Ġcombination", "6267": "Ġscored", "6268": "Ġinput", "6269": "Ġ300", "6270": "Ġsymbol", "6271": "Ġbright", "6272": "Ġbutton", "6273": "irds", "6274": "Ġsucceed", "6275": "stood", "6276": "Ġcreative", "6277": "Ġinvestors", "6278": "Ġsquare", "6279": "Ġarticles", "6280": "Ġ2002", "6281": "Ġisland", "6282": "mes", "6283": "Ġdeaths", "6284": "Ġfunctions", "6285": "Ġnetworks", "6286": "Ġclasses", "6287": "Ġunlikely", "6288": "alty", "6289": "Ġheads", "6290": "ician", "6291": "Ġboss", "6292": "Ġnative", "6293": "icious", "6294": "Ġlie", "6295": "Ġsav", "6296": "ĠLib", "6297": "Ġroughly", "6298": "Ġconsumer", "6299": "ĠStr", "6300": "ĠWhe", "6301": "ĠWalk", "6302": "ĠPrem", "6303": "fortunately", "6304": "ĠMs", "6305": "Ġstring", "6306": "ĠMaybe", "6307": "Ġheavily", "6308": "ĠAnother", "6309": "Ġfairly", "6310": "Ġtemperature", "6311": "arden", "6312": "Ġkit", "6313": "Ġexistence", "6314": "ĠIts", "6315": "ĠAsia", "6316": "Ġcontest", "6317": "Add", "6318": "Ġplot", "6319": "issions", "6320": "dis", "6321": "ĠCub", "6322": "Ġresident", "6323": "usal", "6324": "Ġtargets", "6325": "ĠBob", "6326": "Ġresc", "6327": "ĠKorean", "6328": "ican", "6329": "duc", "6330": "Ġlock", "6331": "Ġyounger", "6332": "Man", "6333": "',", "6334": "Ġcolleagues", "6335": "PU", "6336": "Ġlibrary", "6337": "Ã¶", "6338": "Ġrally", "6339": "Ġparliament", "6340": "Ġprotests", "6341": "Ġanywhere", "6342": "oked", "6343": "ĠSports", "6344": "ĠSky", "6345": "Ġbike", "6346": "zona", "6347": "Ġbreaking", "6348": "ii", "6349": "Ġgrab", "6350": "Ġsym", "6351": "Ġstores", "6352": "Ġexpression", "6353": "Ġwaste", "6354": "Ġchain", "6355": "Ġblow", "6356": "Ġwarning", "6357": "Ġimportance", "6358": "Ġdefined", "6359": "Ġbuying", "6360": "Ġmanage", "6361": "Ġprohib", "6362": "Ġclassic", "6363": "Ġcere", "6364": "Ġsnow", "6365": "Ġadults", "6366": "Ġillust", "6367": "ĠEach", "6368": "See", "6369": "Ġmarketing", "6370": "Ob", "6371": "Ġlinks", "6372": "Ã³", "6373": "iques", "6374": "Ġshif", "6375": "born", "6376": "andal", "6377": "ĠClub", "6378": "Ġtow", "6379": "ĠHist", "6380": "Ġfraud", "6381": "OC", "6382": "Ġfacility", "6383": "ollywood", "6384": "erences", "6385": "Ġhardware", "6386": "Ġschol", "6387": "Ġallegedly", "6388": "Ġ37", "6389": "Ġregulations", "6390": "pret", "6391": "Ġdoctors", "6392": "Ġbon", "6393": "ĠColorado", "6394": "Ġcurrency", "6395": "Ġhousehold", "6396": "Ġreplaced", "6397": "agan", "6398": "Ġessential", "6399": "opy", "6400": "Ġempt", "6401": "onna", "6402": "ĠRam", "6403": "Ġsomewhat", "6404": "ĠDiv", "6405": "press", "6406": "86", "6407": "Ġnav", "6408": "Ġfavour", "6409": "power", "6410": "Ġpromise", "6411": "ĠDC", "6412": "ĠBoy", "6413": "Ġlaugh", "6414": "ena", "6415": "Pol", "6416": "ĠRights", "6417": "Ġholds", "6418": "Ġopposite", "6419": "ocket", "6420": "Ñģ", "6421": "Ġmoments", "6422": "west", "6423": "Ġhat", "6424": "tering", "6425": "Ġopponent", "6426": "Ġbug", "6427": "ĠFar", "6428": "cho", "6429": "Ġcampus", "6430": "Ġacts", "6431": "Ġrum", "6432": "etroit", "6433": "Ġversions", "6434": "Ġmotion", "6435": "Ġmetal", "6436": "hips", "6437": "Ġevolution", "6438": "ometimes", "6439": "Ġvice", "6440": "anish", "6441": "Ġrelevant", "6442": "Ġsees", "6443": "ĠImage", "6444": "Ġbag", "6445": "Ġindustrial", "6446": "Ġzero", "6447": "IR", "6448": "Ġsick", "6449": "Ġdownt", "6450": "oma", "6451": "Ġclosely", "6452": "ĠAnn", "6453": "hetic", "6454": "Ġemotional", "6455": "chen", "6456": "game", "6457": "IF", "6458": "ĠYouTube", "6459": "ĠYear", "6460": "va", "6461": "Ġfewer", "6462": "Ġdivision", "6463": "olve", "6464": "Ġadm", "6465": "Ġharder", "6466": "Ġcustomer", "6467": "Ġhoping", "6468": "ologist", "6469": "Ġtom", "6470": "ĠBrook", "6471": "Donald", "6472": "En", "6473": "ĠValley", "6474": "Ġhur", "6475": "ĠGra", "6476": "Ġmechanism", "6477": "ittle", "6478": "ml", "6479": "ĠHouston", "6480": "ĠElect", "6481": "inem", "6482": "Ġreturns", "6483": "NC", "6484": "atell", "6485": "Ġvolunte", "6486": "Ġparticipants", "6487": "Ġextent", "6488": "Ġintention", "6489": "po", "6490": "alian", "6491": "esc", "6492": "ellect", "6493": "Ġexcellent", "6494": "ĠSoviet", "6495": "Ġacknowled", "6496": "Ġsyn", "6497": "ulous", "6498": "oming", "6499": "ĠMot", "6500": "Ġbatt", "6501": "ĠGames", "6502": "Ġsquad", "6503": "greg", "6504": "Ġcircumstances", "6505": "pan", "6506": "Ġfashion", "6507": "Ġisol", "6508": "Ã¼", "6509": "otal", "6510": "Ġimmediate", "6511": "ĠEric", "6512": "Ġsuffering", "6513": "ĠWatch", "6514": "str", "6515": "Ġlies", "6516": "Ġtiny", "6517": "Ġauthors", "6518": "Ġ38", "6519": "Ġgrown", "6520": "ĠGar", "6521": "iger", "6522": "efully", "6523": "Ġimmigrants", "6524": "Ãĥ", "6525": "print", "6526": "ora", "6527": "Ġkinds", "6528": "utch", "6529": "Ġ49", "6530": "ĠDie", "6531": "Ġcheap", "6532": "Ġmine", "6533": "Ġdetailed", "6534": "ordan", "6535": "ĠHel", "6536": "name", "6537": "Ġfeatured", "6538": "ĠWik", "6539": "ĠEr", "6540": "ĠSar", "6541": "ayers", "6542": "Ġmeat", "6543": "Ġunus", "6544": "ĠAut", "6545": "Ġcompetitive", "6546": "Ġdescribe", "6547": "Ġformed", "6548": "ĠHome", "6549": "ĠIP", "6550": "friend", "6551": "nic", "6552": "certain", "6553": "Ġcarrying", "6554": "Ġtournament", "6555": "Ġtermin", "6556": "Ġtrick", "6557": "Ġrelationships", "6558": "Ġfundamental", "6559": "kel", "6560": "Ġwave", "6561": "Ġcycle", "6562": "obb", "6563": "Ġcrazy", "6564": "ĠCy", "6565": "Ġsigning", "6566": "ĠWay", "6567": "Ġguide", "6568": "Ġwins", "6569": "ĠCatholic", "6570": "Ġearned", "6571": "08", "6572": "Ġdecline", "6573": "Ġregional", "6574": "nam", "6575": "ensus", "6576": "style", "6577": "Ġembr", "6578": "Ġstrange", "6579": "ĠPalestinian", "6580": "ĠJesus", "6581": "ĠLong", "6582": "Ġancient", "6583": "Ġfrequently", "6584": "06", "6585": "Ġacting", "6586": "ĠPutin", "6587": "Ġmanner", "6588": "Ġefficient", "6589": "rome", "6590": "Ġpushing", "6591": "ĠCIA", "6592": "Ġcomfortable", "6593": "ĠCard", "6594": "Ġpip", "6595": "ORE", "6596": "Per", "6597": "Ġsharing", "6598": "Ġwire", "6599": "Ġskill", "6600": "ĠEconom", "6601": "ockey", "6602": "chers", "6603": "Ġinstru", "6604": "ĠEll", "6605": "Ġowned", "6606": "bar", "6607": "Ġcommitment", "6608": "Ġalongside", "6609": "ĠOF", "6610": "uated", "6611": "anes", "6612": "ĠLord", "6613": "09", "6614": "ĠDavis", "6615": "rison", "6616": "Ġcontroversial", "6617": "Ġartists", "6618": "Ġreferred", "6619": "weight", "6620": "Ġegg", "6621": "Ġmouth", "6622": "Ġrepeatedly", "6623": "Ġ48", "6624": "ĠTop", "6625": "ï¿", "6626": "Ġ34", "6627": "FP", "6628": "awa", "6629": "Ġattempted", "6630": "Ġfemin", "6631": "umber", "6632": "Ġupdated", "6633": "foot", "6634": "Ġcert", "6635": "ua", "6636": "Ġpregn", "6637": "ĠOld", "6638": "Ġschedule", "6639": "vin", "6640": "xy", "6641": "ĠPS", "6642": "amily", "6643": "adel", "6644": "Ġdedicated", "6645": "Ð½", "6646": "ĠAL", "6647": "Ġsentence", "6648": "Ġupcoming", "6649": "ĠRight", "6650": "ĠNY", "6651": "ĠDown", "6652": "ĠDi", "6653": "Ġcolumn", "6654": "hus", "6655": "Ġdepth", "6656": "Ġpled", "6657": "Ġvirtual", "6658": "uable", "6659": "Ġjourney", "6660": "Ġstruck", "6661": "ÑĢ", "6662": "Ġdesk", "6663": "Ġstudio", "6664": "Ġrealized", "6665": "ĠEnergy", "6666": "Despite", "6667": "ceived", "6668": "%)", "6669": "ographic", "6670": "ko", "6671": "ugh", "6672": "Ġmedic", "6673": "DS", "6674": "Ġserving", "6675": "iami", "6676": "Ġwalked", "6677": "rive", "6678": "iveness", "6679": "Ġking", "6680": "Ġring", "6681": "Ġreput", "6682": "you", "6683": "Ġurban", "6684": "phy", "6685": "07", "6686": "ĠCle", "6687": "ĠCharles", "6688": "ĠWild", "6689": "Ġtargeted", "6690": "Ġchannel", "6691": "Ġassets", "6692": "luding", "6693": "Ġtort", "6694": "Ġinspired", "6695": "Ġhotel", "6696": "ĠArizona", "6697": "Ġposts", "6698": "Ġnewslet", "6699": "Like", "6700": "Two", "6701": "ĠSupp", "6702": "Ġuniverse", "6703": "Ġagenda", "6704": "Ġcausing", "6705": "Ġwatched", "6706": "Ġsuicide", "6707": "Ġstream", "6708": "Ġoverwhel", "6709": "ĠPy", "6710": "Ġusual", "6711": "Ġsurveillance", "6712": "ĠMen", "6713": "Ġintent", "6714": "sole", "6715": "People", "6716": "Ġliqu", "6717": "Ġsister", "6718": "Ġopponents", "6719": "Ġchairman", "6720": "Ġdu", "6721": "ĠWars", "6722": "ĠCruz", "6723": "Ġmainstream", "6724": "gor", "6725": "bel", "6726": "Ġlatter", "6727": "Ġhall", "6728": "Ġsurrounding", "6729": "Ġfolks", "6730": "Ġknowing", "6731": "Ġorders", "6732": "ĠInf", "6733": "Ġremote", "6734": "Ġ75", "6735": "Ġsand", "6736": "Ġliterally", "6737": "ĠJava", "6738": "Ġobserved", "6739": "ĠAgain", "6740": "Ġsubsid", "6741": "Fr", "6742": "ĠDefense", "6743": "Ġinfl", "6744": "Ġapproval", "6745": "acc", "6746": "ĠVan", "6747": "iments", "6748": "Ġbasket", "6749": "rence", "6750": "burg", "6751": "Ġteachers", "6752": "azi", "6753": "avor", "6754": "izz", "6755": "Ġwinter", "6756": "iciency", "6757": "alle", "6758": "Ġexciting", "6759": "aze", "6760": "iro", "6761": "aylor", "6762": "ĠTal", "6763": "Ġformat", "6764": "boy", "6765": "Ġcongress", "6766": "Ġprotected", "6767": "ati", "6768": "Ġnoticed", "6769": "Ġsimpl", "6770": "Ġdealing", "6771": "ĠYoung", "6772": "rations", "6773": "ĠChild", "6774": "Ġprecise", "6775": "67", "6776": "xual", "6777": "Ġdeeply", "6778": "ipl", "6779": "Ġcommunication", "6780": "Ġgang", "6781": "Ġsending", "6782": "Ġforth", "6783": "ĠJr", "6784": "Ġfasc", "6785": "Ġbattery", "6786": "Ġwal", "6787": "mun", "6788": "Ġsky", "6789": "Ġnarr", "6790": "Ġfixed", "6791": "post", "6792": "abis", "6793": "Ġaside", "6794": "Ġrequirements", "6795": "Int", "6796": "Ġproperties", "6797": "rors", "6798": "Ġalive", "6799": "Ġnarrow", "6800": "Ġwake", "6801": "allas", "6802": "Ġpassion", "6803": "ĠArch", "6804": "onymous", "6805": "Ġeating", "6806": "Or", "6807": "ensity", "6808": "Ġmistake", "6809": "woman", "6810": "Ġexplore", "6811": "Ġcoffee", "6812": "ĠPan", "6813": "Ġ1970", "6814": "Ġrape", "6815": "Ġvolume", "6816": "Ġpromised", "6817": "Ġdiet", "6818": "acking", "6819": "Ġrisks", "6820": "Ġexhib", "6821": "ĠPolit", "6822": "ĠFort", "6823": "Ġsweet", "6824": "May", "6825": "ĠEnter", "6826": "ĠWat", "6827": "Ġneut", "6828": "Ġinvolving", "6829": "Ġwage", "6830": "Ġselection", "6831": "ĠMax", "6832": "Ġtested", "6833": "ether", "6834": "Ġflu", "6835": "ulture", "6836": "Ġdefeat", "6837": "Ġnorthern", "6838": "Ġreward", "6839": "Ġwelcome", "6840": "ĠCast", "6841": "Ġextended", "6842": "Ġputs", "6843": "Ġterritory", "6844": "Ġphenomen", "6845": "Ġunemploy", "6846": "Ġrefugees", "6847": "Ġsample", "6848": "Ġheight", "6849": "Ġapproximately", "6850": "ĠKevin", "6851": "59", "6852": "Ġblame", "6853": "ĠBrad", "6854": "Ġanyway", "6855": "ums", "6856": "ĠDetroit", "6857": "Ġdestroyed", "6858": "obile", "6859": "ta", "6860": "Ġimpressive", "6861": "ĠStephen", "6862": "asks", "6863": "Ġgod", "6864": "Ġproof", "6865": "Ġgap", "6866": "Ġdry", "6867": "ï¿½", "6868": "Ġcrash", "6869": "Ġunknown", "6870": "Ġlocations", "6871": "04", "6872": "igg", "6873": "Ġselected", "6874": "apse", "6875": "Ġwest", "6876": "anges", "6877": "gery", "6878": "stone", "6879": "ĠFil", "6880": "Ġattacked", "6881": "Ġmaximum", "6882": "ĠMiller", "6883": "ĠWilson", "6884": "ĠTit", "6885": "Ġpromote", "6886": "âĢĻ.", "6887": "Ġshel", "6888": "aser", "6889": "Ġmerely", "6890": "Ġfranchise", "6891": "arry", "6892": "lv", "6893": "Ġrequests", "6894": "Ġsho", "6895": "Ġretire", "6896": "Ġsuddenly", "6897": "Ġslowly", "6898": "Ġprotesters", "6899": "Ġdisag", "6900": "dro", "6901": "Ġteacher", "6902": "ixt", "6903": "Ġtypical", "6904": "ogan", "6905": "ĠWomen", "6906": "ĠIns", "6907": "ingu", "6908": "Ġconver", "6909": "list", "6910": "Ġchose", "6911": "ĠCamer", "6912": "ĠClass", "6913": "ĠLu", "6914": "Ġmatches", "6915": "Ġprote", "6916": "Ġlicense", "6917": "Ġproperly", "6918": "Ġassume", "6919": "oration", "6920": "Ġdiscover", "6921": "03", "6922": "Ġwid", "6923": "ĠPR", "6924": "ĠMic", "6925": "Rel", "6926": "Ġworried", "6927": "Ġmoder", "6928": "fire", "6929": "Ġabortion", "6930": "owered", "6931": "Ġallies", "6932": "ao", "6933": "Ġoblig", "6934": "Ġterrorism", "6935": "02", "6936": "Ġsupports", "6937": "ĠÎ", "6938": "uilding", "6939": "ÃĥÃĤ", "6940": "inson", "6941": "verty", "6942": "Ġarguments", "6943": "Ġadapt", "6944": "Ġtheme", "6945": "Ġconfront", "6946": "Ġfacilities", "6947": "Ġsustain", "6948": "gender", "6949": "Ġeast", "6950": "Ġpal", "6951": "Ġrecognize", "6952": "igure", "6953": "Ġfuck", "6954": "ÃĥÃĤÃĥÃĤ", "6955": "lies", "6956": "Ġequival", "6957": "mo", "6958": "Ġobtained", "6959": "Ġpoverty", "6960": "Ġrub", "6961": "ĠItaly", "6962": "Ġnomine", "6963": "Ġdeals", "6964": "Ġfees", "6965": "alo", "6966": "itarian", "6967": "osis", "6968": "ĠHollywood", "6969": "Ġunderstood", "6970": "Ġcontrolled", "6971": "VER", "6972": "ĠBest", "6973": "ĠDam", "6974": "Ġtopic", "6975": "Ġcritics", "6976": "ĠSociety", "6977": "ĠAgency", "6978": "axy", "6979": "ĠFord", "6980": "Ġsole", "6981": "ĠJersey", "6982": "arity", "6983": "Ġvillage", "6984": "Ġdiagn", "6985": "ĠAdminist", "6986": "raid", "6987": "68", "6988": "Ġlikes", "6989": "celer", "6990": "han", "6991": "sters", "6992": "ĠFour", "6993": "Ġevil", "6994": "Te", "6995": "Ġpunish", "6996": "Ġdress", "6997": "cript", "6998": "Ġped", "6999": "ĠGeorgia", "7000": "Ġbunch", "7001": "ĠCompany", "7002": "Ġjournalists", "7003": "John", "7004": "Ġexposed", "7005": "Ġregions", "7006": "redit", "7007": "ocation", "7008": "Ġscheme", "7009": "Ġcommunications", "7010": "Ġtransp", "7011": "Ġstim", "7012": "Ġlimits", "7013": "Ġsomehow", "7014": "Ġstrongly", "7015": "Ġhonor", "7016": "Ġdrag", "7017": "Ġresistance", "7018": "lls", "7019": "aire", "7020": "aug", "7021": "Ġchampion", "7022": "ĠLabor", "7023": "Ġconstant", "7024": "Ġphase", "7025": "ĠNASA", "7026": "asts", "7027": "ĠCarl", "7028": "pool", "7029": "Ġprofit", "7030": "Ġtruck", "7031": "Ġcondem", "7032": "Ġescape", "7033": "Ġpersonally", "7034": "ĠNight", "7035": "ĠDun", "7036": "rimination", "7037": "ĠLand", "7038": "Ġbid", "7039": "ĠNHL", "7040": "ĠStand", "7041": "Ġvacc", "7042": "Ġdeck", "7043": "CA", "7044": "nesota", "7045": "iform", "7046": "Ġfalling", "7047": "GBT", "7048": "ĠNetwork", "7049": "Ġsomewhere", "7050": "ems", "7051": "cers", "7052": "Ġemployee", "7053": "Ġharass", "7054": "ads", "7055": "Ġbear", "7056": "ĠCD", "7057": "iner", "7058": "Ġcomparison", "7059": "orted", "7060": "ciples", "7061": "Ġpolls", "7062": "owa", "7063": "Ġinqu", "7064": "ĠLove", "7065": "pected", "7066": "Ġsouthern", "7067": "oric", "7068": "Ġdecent", "7069": "cow", "7070": "ĠSpanish", "7071": "Ġencourage", "7072": "Ġemissions", "7073": "Ġ39", "7074": "ĠKn", "7075": "ĠView", "7076": "enders", "7077": "Ġempty", "7078": "ĠMiami", "7079": "Ġhits", "7080": "oster", "7081": "ĠCam", "7082": "Ġdefinition", "7083": "57", "7084": "Ġpic", "7085": "wan", "7086": "Ġdirected", "7087": "pes", "7088": "Ġflex", "7089": "zens", "7090": "ĠOk", "7091": "Ġmeetings", "7092": "ĠEnd", "7093": "ĠBell", "7094": "Ð¾Ð", "7095": "Ġcomprom", "7096": "Ġwinner", "7097": "intend", "7098": "icken", "7099": "Ġgotten", "7100": "ĠDaniel", "7101": "ĠTurk", "7102": "Ġelectricity", "7103": "aun", "7104": "Ġchosen", "7105": "Ġofficially", "7106": "Ġbench", "7107": "Ġstretch", "7108": "Ġdatabase", "7109": "Com", "7110": "ĠDespite", "7111": "Ġintellect", "7112": "Ġspin", "7113": "igation", "7114": "Ġstronger", "7115": "Ġdeleg", "7116": "Ġpurposes", "7117": "ĠDNA", "7118": "Ġcutting", "7119": "ĠTurn", "7120": "Ġfold", "7121": "rary", "7122": "Ġextensive", "7123": "Ġamounts", "7124": "Ġdesper", "7125": "Ġtrees", "7126": "Ġanx", "7127": "Ġideal", "7128": "ĠAsian", "7129": "Ġthread", "7130": "Ġfifth", "7131": "ĪĴ", "7132": "UR", "7133": "Ġgoods", "7134": "Ġcolon", "7135": "Ġdeveloper", "7136": "Ġclaiming", "7137": "unning", "7138": "Any", "7139": "Ġretain", "7140": "Ġsoul", "7141": "Ġcaptured", "7142": "ĠThough", "7143": "Ġfinds", "7144": "Ġdriven", "7145": "Ġpayments", "7146": "asters", "7147": "ĠJordan", "7148": "ras", "7149": "CS", "7150": "Ġties", "7151": "Ġreasonable", "7152": "Ġdogs", "7153": "âĸ", "7154": "Ġsomebody", "7155": "Ġending", "7156": "ĠNations", "7157": "Ġchoices", "7158": "Ġble", "7159": "Ġseats", "7160": "ĠServices", "7161": "ĠThank", "7162": "Ġpod", "7163": "Ġengage", "7164": "Ġdrawn", "7165": "Ġsight", "7166": "CE", "7167": "Ġparam", "7168": "ĠDar", "7169": "Ġthreatened", "7170": "Ġruled", "7171": "eping", "7172": "ĠAttorney", "7173": "ĠIrish", "7174": "ura", "7175": "ĠSea", "7176": "Ġtrading", "7177": "owed", "7178": "Ġprimarily", "7179": "Ġaspects", "7180": "Ġfighters", "7181": "ML", "7182": "Ġanswers", "7183": "Ġperfectly", "7184": "irms", "7185": "ĠAcadem", "7186": "Ġincl", "7187": "Ġrival", "7188": "Ġparking", "7189": "Ġrejected", "7190": "ĠGall", "7191": "Ġconstantly", "7192": "ĠHun", "7193": "fast", "7194": "Ġpayment", "7195": "ĠCat", "7196": "Ġdistinct", "7197": "Ġflying", "7198": "Ġrig", "7199": "Ġtechnologies", "7200": "ĠReal", "7201": "</", "7202": "Ġcomponents", "7203": "Police", "7204": "Ġadmit", "7205": "ĠScotland", "7206": "Ġelsewhere", "7207": "ĠDark", "7208": "Ġconstit", "7209": "Ġtur", "7210": "Ġanymore", "7211": "lder", "7212": "Ġicon", "7213": "Ġfields", "7214": "Ġestimates", "7215": "EW", "7216": "sea", "7217": "Ġsolutions", "7218": "Ġresulting", "7219": "78", "7220": "ĠBru", "7221": "Ġawesome", "7222": "Ġencoun", "7223": "Ġprovince", "7224": "mod", "7225": "Ġworldwide", "7226": "Ġactor", "7227": "Ġregularly", "7228": "ĠMoore", "7229": "Ġcourts", "7230": "Ġnarrative", "7231": "ĠUt", "7232": "Once", "7233": "Ġboot", "7234": "Ġenemies", "7235": "Ġmixed", "7236": "regon", "7237": "ĠOS", "7238": "ĠDisney", "7239": "sm", "7240": "icer", "7241": "Ġhouses", "7242": "Ġnobody", "7243": "ĠSk", "7244": "inations", "7245": "Ġcontrols", "7246": "ĠWater", "7247": "Ġletters", "7248": "ez", "7249": "apes", "7250": "agram", "7251": "iana", "7252": "imp", "7253": "Ġ42", "7254": "Ġmurd", "7255": "Ġmayor", "7256": "Ġloan", "7257": "Ġoutcome", "7258": "ĠMS", "7259": "Ġcontem", "7260": "sell", "7261": "Sec", "7262": "vy", "7263": "ship", "7264": "ĠLight", "7265": "onic", "7266": "isan", "7267": "Ġapartment", "7268": "ĠSteven", "7269": "Ġcoalition", "7270": "Ġcontributed", "7271": "ĠBas", "7272": "Ġtank", "7273": "Ġconcluded", "7274": "ĠAdam", "7275": "Ġexists", "7276": "ĠTw", "7277": "Ġfounder", "7278": "ĠBrian", "7279": "earing", "7280": "ĠLew", "7281": "Ġatmosphere", "7282": "Ġprofile", "7283": "Ġbrew", "7284": "ĠId", "7285": "Ġsituations", "7286": "ĠChampionship", "7287": "ĠAuthor", "7288": "rates", "7289": "Ġincredible", "7290": "ĠConstitution", "7291": "Ġsignal", "7292": "otes", "7293": "ĠRog", "7294": "Ġaccurate", "7295": "300", "7296": "ĠVictor", "7297": "otten", "7298": "Ġunp", "7299": "ĠWhere", "7300": "ker", "7301": "ĠSouthern", "7302": ".\"[", "7303": "Ġemployment", "7304": "Ġclients", "7305": "Dr", "7306": "Ġkeeps", "7307": "Ġinformed", "7308": "Ġcontinuing", "7309": "inity", "7310": "Ġbaseball", "7311": "Ġgenerate", "7312": "Ġticket", "7313": "Ġconven", "7314": "Also", "7315": "ĠConf", "7316": "Ġweird", "7317": "Ġtied", "7318": "lock", "7319": "adelph", "7320": "Ġcategory", "7321": "Ġinfect", "7322": "ilarly", "7323": "acked", "7324": "Ġangry", "7325": "ĠOrgan", "7326": "Ġroutine", "7327": "aron", "7328": "Ġkil", "7329": "Ġraising", "7330": "ifer", "7331": "Ġmachines", "7332": "Ġregistered", "7333": "Ġproved", "7334": "there", "7335": "Ġdemands", "7336": "Ġgaming", "7337": "ĠItalian", "7338": "Ġincredibly", "7339": "Ġcrucial", "7340": "Ġstuck", "7341": "ĠCivil", "7342": "ĠDallas", "7343": "cr", "7344": "Ġterrible", "7345": "56", "7346": "MP", "7347": "Ġfeedback", "7348": "Ġupper", "7349": "Ġplastic", "7350": "Ġimper", "7351": "Ġnewly", "7352": "ĠJoseph", "7353": "Ġconsumption", "7354": "Ġdozen", "7355": "Ġenthus", "7356": "Ġestate", "7357": "ali", "7358": "rage", "7359": "Ġinnoc", "7360": "Ġmanip", "7361": "ĠTem", "7362": "Ġconscious", "7363": "Ġbills", "7364": "ĠCross", "7365": "ĠSpain", "7366": "ifications", "7367": "Today", "7368": "Ġwriters", "7369": "Ġexcess", "7370": "inding", "7371": "Ġaggressive", "7372": "Ġreporter", "7373": "Ġcompens", "7374": "Ġreturning", "7375": "Ġstead", "7376": "Ġprogramming", "7377": "ĠThanks", "7378": "Ġrepresented", "7379": "Ġconclusion", "7380": "98", "7381": "Ġrus", "7382": "ĠBowl", "7383": "ĠAR", "7384": "MS", "7385": "Ġorigin", "7386": "Ġassistant", "7387": "adelphia", "7388": "Ġroster", "7389": "ĠMinnesota", "7390": "Ġorganized", "7391": "ria", "7392": "Ġpenalty", "7393": "lers", "7394": "Ġdrinking", "7395": "Ġpaint", "7396": "Ġsatell", "7397": "Ġgro", "7398": "ĠProgram", "7399": "Ġcapture", "7400": "ni", "7401": "Ġconspir", "7402": "Ġinterpret", "7403": "Ġexplanation", "7404": "iscal", "7405": "58", "7406": "Ġcounty", "7407": "iscons", "7408": "essed", "7409": "mont", "7410": "ima", "7411": "Ġ%", "7412": "anny", "7413": "gorith", "7414": "emen", "7415": "isconsin", "7416": "Ġassistance", "7417": "ĠRoman", "7418": "Ġcomplaint", "7419": "Ġru", "7420": "Ġnut", "7421": "LA", "7422": "Ġmagic", "7423": "Ġtall", "7424": "ĠOper", "7425": "Ġgranted", "7426": "Ed", "7427": "Because", "7428": "ĠContin", "7429": "star", "7430": "Off", "7431": "ĠParliament", "7432": "Ġcomplicated", "7433": "Ġaudio", "7434": "Ġchances", "7435": "Ġextract", "7436": "rypt", "7437": "ĠGi", "7438": "Ġ1999", "7439": "Ġhel", "7440": "ĠEduc", "7441": "era", "7442": "Ġshares", "7443": "Ġsuccessfully", "7444": "esy", "7445": "........", "7446": "ĠIT", "7447": "zy", "7448": "Ġpilot", "7449": "ĠEp", "7450": "ĠHot", "7451": "Ġmyth", "7452": "Ġrecovery", "7453": "ĠTest", "7454": "Ġtechniques", "7455": "Ġiron", "7456": "ĠCare", "7457": "ĠZeal", "7458": "ĠSC", "7459": "Ġscenes", "7460": "ĠFre", "7461": "Ġveteran", "7462": "ĠWin", "7463": "Ġ($", "7464": "Ġdegrees", "7465": "actions", "7466": "ked", "7467": "Ġsympt", "7468": "thew", "7469": "Ġlawmakers", "7470": "Ġwestern", "7471": "Ġoperate", "7472": "Ġads", "7473": "rating", "7474": "Ġhabit", "7475": "Ġaimed", "7476": "Inst", "7477": "anchester", "7478": "Ġphr", "7479": "rep", "7480": "rete", "7481": "Ġtaste", "7482": "idency", "7483": "Ġengaged", "7484": "Ġprivile", "7485": "Ġ55", "7486": "========", "7487": "Ġrating", "7488": "Ġteaching", "7489": "ĠOs", "7490": "Ġacademic", "7491": "itar", "7492": "!<>", "7493": "Ġtherap", "7494": "Ġpasses", "7495": "Ġdollar", "7496": "hent", "7497": "Ġautomatically", "7498": "ĠPacific", "7499": "Ġmonit", "7500": "Ġblocks", "7501": "abama", "7502": "Ġattended", "7503": "Ġpermanent", "7504": "Ġsurvive", "7505": "uan", "7506": "Ġanticip", "7507": "Ġenable", "7508": "ĠLook", "7509": "Ġextrem", "7510": "ĠForeign", "7511": "chain", "7512": "Ġmarked", "7513": "itals", "7514": "Ġhidden", "7515": "Ġaccomp", "7516": "Ġtitles", "7517": "ĠSenator", "7518": "ĠNBC", "7519": "Ġtaught", "7520": "aed", "7521": "ĠLinux", "7522": "Ġbom", "7523": "Ġindex", "7524": "everal", "7525": "Ġelite", "7526": "ibilities", "7527": "Ġlawyers", "7528": "from", "7529": "Ġdepending", "7530": "Ġvaluable", "7531": "Ġinstalled", "7532": "Ġchampionship", "7533": "Ġroot", "7534": "Ġcompre", "7535": "mal", "7536": "ĠBull", "7537": "Ġdowntown", "7538": "Ġequivalent", "7539": "Ġsolve", "7540": "rific", "7541": "Ġduty", "7542": "ĠSpecial", "7543": "ĠBusiness", "7544": "Ġ64", "7545": "Ġpace", "7546": "HS", "7547": "Ġreputation", "7548": "Ġuncertain", "7549": "Ġphones", "7550": "uine", "7551": "Ġoverse", "7552": "bal", "7553": "ĠTaylor", "7554": "Ġpersonnel", "7555": "Ġpin", "7556": "reams", "7557": "aturally", "7558": "Ġsufficient", "7559": "Ġvisited", "7560": "Ġwarming", "7561": "Ġprinciples", "7562": "Ġvulnerable", "7563": "Ġenjoyed", "7564": "Ġfake", "7565": "ĠNick", "7566": "Ġadvis", "7567": "Ġnegotiations", "7568": "inder", "7569": "Ġgenerated", "7570": "Ġexposure", "7571": "Ġrecording", "7572": "Ġcollected", "7573": "Ġregardless", "7574": "Ġdict", "7575": "%.", "7576": "EA", "7577": "Ġbitcoin", "7578": "Ġelev", "7579": "ãĢ", "7580": "active", "7581": "ĠKelly", "7582": "ĠAnth", "7583": "Ġcup", "7584": "Ġpatterns", "7585": "Getty", "7586": "ĠTake", "7587": "))", "7588": "ĠAvenue", "7589": "ĠJosh", "7590": "bro", "7591": "Ġdisaster", "7592": "Ġcable", "7593": "Ġ65", "7594": "Ġchat", "7595": "Ġworker", "7596": "Ġmainly", "7597": "Ġracial", "7598": "quarters", "7599": "ĠCoast", "7600": "ĠViet", "7601": "month", "7602": "Ġpounds", "7603": "Ġ150", "7604": "ĠCall", "7605": "Ġportion", "7606": "Ġafraid", "7607": "Ġinspir", "7608": "ĠAh", "7609": "Ġdefence", "7610": "Ġbes", "7611": "ĠEastern", "7612": "da", "7613": "ĠTony", "7614": "Ġtracks", "7615": "Ġbusy", "7616": "Ġgrant", "7617": "Ġshit", "7618": "Ġintense", "7619": "ĠSeries", "7620": "ĠLGBT", "7621": "orne", "7622": "ĠStill", "7623": "athy", "7624": "Ġfunny", "7625": "Ġapolog", "7626": "Ġsurgery", "7627": "ĠMoscow", "7628": "mann", "7629": "ĠColl", "7630": "Ġpossession", "7631": "Ġprominent", "7632": "ĠMars", "7633": "Ġcomic", "7634": "ĠGer", "7635": "ashes", "7636": "97", "7637": "ules", "7638": "ĠRay", "7639": "Ġthin", "7640": "Ġengineering", "7641": "Ġtroub", "7642": "ĠKurd", "7643": "this", "7644": "Ġprocesses", "7645": "ĠNation", "7646": "fall", "7647": "ĠKent", "7648": "ĠCome", "7649": "Ġentit", "7650": "ĠâĢĻ", "7651": "Ġunusual", "7652": "raph", "7653": "etary", "7654": "Ġdescribes", "7655": "Col", "7656": "world", "7657": "96", "7658": "Ġresulted", "7659": "Ġemerged", "7660": "Ġtaxp", "7661": "Ġgall", "7662": "iler", "7663": "Ġdim", "7664": "Ġpropag", "7665": "ĠIowa", "7666": "ĠOregon", "7667": "Ġcoordin", "7668": "Ġcorruption", "7669": "Ġstations", "7670": "ĠInvest", "7671": "Ġfought", "7672": "ĠAD", "7673": "Ġbrut", "7674": "Ġextension", "7675": "ref", "7676": "Ġblind", "7677": "Ġadopted", "7678": "prise", "7679": "ye", "7680": "Ġcompete", "7681": "Ġrecru", "7682": "ĠZealand", "7683": "Ġhadn", "7684": "Pr", "7685": "Ġ400", "7686": "Ġmail", "7687": "Ġeverywhere", "7688": "ĠBalt", "7689": "Ġcrypt", "7690": "ĠHom", "7691": "ba", "7692": "Rec", "7693": "Mean", "7694": "herent", "7695": "icate", "7696": "ĠAli", "7697": "Ġcontracts", "7698": "front", "7699": "Ġneuro", "7700": "ĠLo", "7701": "ĠDead", "7702": "ĠRick", "7703": "Ġfeelings", "7704": "Ġfirms", "7705": "idelines", "7706": "âĢĻ,", "7707": "Ġminority", "7708": "Ġspr", "7709": "cles", "7710": "HA", "7711": "Ġadvertising", "7712": "tes", "7713": "Ġrarely", "7714": "Ġdiscipl", "7715": "making", "7716": "ĠNorthern", "7717": "Ġsanctions", "7718": "gun", "7719": "ĠVeg", "7720": "scape", "7721": "ĠPhiladelphia", "7722": "upid", "7723": "Ġcameras", "7724": "Ġexplicit", "7725": "Ġstrict", "7726": "viously", "7727": "log", "7728": "Ġenorm", "7729": "Ġfinance", "7730": "Ġcited", "7731": "ifies", "7732": "ĠBefore", "7733": "Ġshortly", "7734": "UL", "7735": "ĠPolicy", "7736": "olt", "7737": "Ġexpectations", "7738": "Ġimplementation", "7739": "ogen", "7740": "Ġrecip", "7741": "cling", "7742": "ĠGreek", "7743": "Ġthick", "7744": "Ġthousand", "7745": "antic", "7746": "ĠMu", "7747": "Ġloud", "7748": "istent", "7749": "Ġaffili", "7750": "urrent", "7751": "orough", "7752": "ĠNavy", "7753": "Ġinev", "7754": "rell", "7755": "cus", "7756": "Ġphotograph", "7757": "Ġmedium", "7758": "azz", "7759": "ĠWisconsin", "7760": "Ġscenario", "7761": "ĠFood", "7762": "ĠLive", "7763": "Ġsup", "7764": "ilton", "7765": "Ġplug", "7766": "Ġveget", "7767": "Ġho", "7768": "Ġvisible", "7769": "LC", "7770": "Ġlights", "7771": "Ġcreates", "7772": "Ġpriority", "7773": "Ġven", "7774": "Ġbridge", "7775": "eland", "7776": "inking", "7777": "Ġobst", "7778": "Ġagric", "7779": "ATE", "7780": "Ġpermission", "7781": "ĠFoot", "7782": "Ġalgorith", "7783": "izon", "7784": "Co", "7785": "elect", "7786": "Ġparticipate", "7787": "aska", "7788": "Ġwing", "7789": "who", "7790": "asion", "7791": "Ġbrowser", "7792": "ĠGlobal", "7793": "Ġtag", "7794": "ĠOl", "7795": "ĠHas", "7796": "Ġmel", "7797": "Ġacceler", "7798": "Ġdozens", "7799": "ĠKingdom", "7800": "Ġhistoric", "7801": "Ġcomputers", "7802": "Ġlaid", "7803": "Ġbasketball", "7804": "Ġlosses", "7805": "text", "7806": "ĠSaf", "7807": "ĠAsh", "7808": "76", "7809": "ogether", "7810": "Ġunw", "7811": "::", "7812": "Ġtor", "7813": "ĠAmendment", "7814": "Mar", "7815": "Ġstrikes", "7816": "Ġprinciple", "7817": "ĠDevelopment", "7818": "Ġformal", "7819": "EP", "7820": "igen", "7821": "54", "7822": "Ġscoring", "7823": "obs", "7824": "athered", "7825": "Ġ44", "7826": "Ġcounsel", "7827": "found", "7828": "++", "7829": "Ġshock", "7830": "Ġwonderful", "7831": "ĠSP", "7832": "Ġbehalf", "7833": "abs", "7834": "Ġuncom", "7835": "profit", "7836": "52", "7837": "enth", "7838": "Ġinterface", "7839": "Ġestablishment", "7840": "Ġtoler", "7841": "ĠHenry", "7842": "ĠGreg", "7843": "amber", "7844": "car", "7845": "ĠMajor", "7846": "ĠThus", "7847": "Us", "7848": "Ġgained", "7849": "Ġfee", "7850": "lete", "7851": "she", "7852": "Ġfounded", "7853": "etime", "7854": "Ġfoundation", "7855": "jo", "7856": "51", "7857": "ĠESP", "7858": "ilipp", "7859": "Ġclubs", "7860": "Ġcannabis", "7861": "Ġju", "7862": "Ġairport", "7863": "ĠKey", "7864": "ystem", "7865": "Ġborrow", "7866": "olis", "7867": "weet", "7868": "BO", "7869": "Ġmanufacturing", "7870": "Ġrely", "7871": "ĠHit", "7872": "aus", "7873": "ĠPay", "7874": "ĠAlabama", "7875": "Ġgenuine", "7876": "ĠRoyal", "7877": "rators", "7878": "Before", "7879": "uer", "7880": "Ġcomponent", "7881": "Ġridic", "7882": "osexual", "7883": "Ġwheel", "7884": "rative", "7885": "ĠOak", "7886": "Ġjournalist", "7887": "Ġrelief", "7888": "ĠSn", "7889": "Ġsaved", "7890": "Ġhole", "7891": "Ġyield", "7892": "Ġheaded", "7893": "Ġcyber", "7894": "Ne", "7895": "ĠMoh", "7896": "ependent", "7897": "Ġgift", "7898": "bell", "7899": "Ġfault", "7900": "Ġwithdraw", "7901": "Ġindicate", "7902": "Ġdrawing", "7903": "Ġuniform", "7904": "umer", "7905": "ĠRand", "7906": "ĠVis", "7907": "arlier", "7908": "Ġstable", "7909": "Ġships", "7910": "Ġ->", "7911": "Ġbanned", "7912": "Ġmagn", "7913": "ĠMid", "7914": "Ġfootage", "7915": "Meanwhile", "7916": "rous", "7917": "Ġdoors", "7918": "lan", "7919": "Ġrecognized", "7920": "Ġ1960", "7921": "Ġcontaining", "7922": "pread", "7923": "ĠFC", "7924": "Ġriver", "7925": "ami", "7926": "Ġstruggling", "7927": "Sub", "7928": "Ġspark", "7929": "ĠAcademy", "7930": "Ġwalls", "7931": "Ġachieved", "7932": "opher", "7933": "ounced", "7934": "Ġneighb", "7935": "aning", "7936": "Ġplate", "7937": "Ġedition", "7938": "ĠHT", "7939": "portion", "7940": "mate", "7941": "Ġmovements", "7942": "Ġdeliber", "7943": "uce", "7944": "teen", "7945": "Post", "7946": "Ġsharp", "7947": "ĠAS", "7948": "ĠSnow", "7949": "ulating", "7950": "ĠThree", "7951": "Ġepisodes", "7952": "Ġneutral", "7953": "ĠPremier", "7954": "ĠRet", "7955": "ĠFund", "7956": "Ġexception", "7957": "etts", "7958": "Ġproducer", "7959": "________________", "7960": "ĠFred", "7961": "Ġdestruction", "7962": "Ġ1998", "7963": "oured", "7964": "Ġbeliefs", "7965": "Ġ47", "7966": ":<>", "7967": "ĠReview", "7968": "Ġlegend", "7969": "Ġpump", "7970": "ĠMcG", "7971": "Ġbacked", "7972": "umin", "7973": "Ġliked", "7974": "Ġhired", "7975": "idespread", "7976": "cription", "7977": "Ġroles", "7978": "Ġlanguages", "7979": "Ġprofession", "7980": "Ġentering", "7981": "osa", "7982": "ĠVR", "7983": "Ġinterviews", "7984": "Ġhang", "7985": "isp", "7986": "ĠKir", "7987": "eman", "7988": "Ġtox", "7989": "Ġphilosophy", "7990": "ĠAdministration", "7991": "Ġarrange", "7992": "oen", "7993": "interest", "7994": "Ġflaw", "7995": "Those", "7996": "ĠNob", "7997": "sylv", "7998": "imore", "7999": "Ġstadium", "8000": "ĠAtlanta", "8001": "ĠJac", "8002": "Ġreduction", "8003": "Ġdinner", "8004": "ca", "8005": "ja", "8006": "Ġbath", "8007": "ĠReport", "8008": "iel", "8009": "uper", "8010": "ĠTurkish", "8011": "400", "8012": "Ġaver", "8013": "Ġfinger", "8014": "ĠNote", "8015": "ĠConference", "8016": "Ġtackle", "8017": "Ġcha", "8018": "burgh", "8019": "Ġgonna", "8020": "ĠDiego", "8021": "ĠPoint", "8022": "Ġcrop", "8023": "ĠCentre", "8024": "Ġfarmers", "8025": "ĠManchester", "8026": "Ġnominee", "8027": "Ġ41", "8028": "53", "8029": "aching", "8030": "ĠJason", "8031": "Ġbarely", "8032": "ATO", "8033": "Ġstructures", "8034": "Ġcontained", "8035": "Ġsynt", "8036": "ĠOtt", "8037": "Ġdelivery", "8038": "Ġconvin", "8039": "%,", "8040": "Ġprocessing", "8041": "Ġdiscrimination", "8042": "Ġincent", "8043": "riers", "8044": "ĠFair", "8045": "erved", "8046": "RS", "8047": "ĠData", "8048": "then", "8049": "ĠArm", "8050": "abinet", "8051": "Ġintellectual", "8052": "ĠRadio", "8053": "amsung", "8054": "Ġ46", "8055": "ĠBry", "8056": "ĠOK", "8057": "ĠField", "8058": "Me", "8059": "ĠDid", "8060": "Ġupset", "8061": "ĠPerhaps", "8062": "ĠMir", "8063": "ĠEducation", "8064": "sylvania", "8065": "away", "8066": "President", "8067": "Ġchallenging", "8068": "Ġproven", "8069": "Ġrestrictions", "8070": "rik", "8071": "Ġforever", "8072": "ho", "8073": "https", "8074": "olen", "8075": "Ġelectronic", "8076": "Ġhitting", "8077": "ĠHay", "8078": "Ġeuro", "8079": "Ġunex", "8080": "Ġreviews", "8081": "ĠFed", "8082": "ĠChristians", "8083": "Ġ43", "8084": "ĠNC", "8085": "Ġconvicted", "8086": "Star", "8087": "Ġillness", "8088": "Ġsmooth", "8089": "page", "8090": "Dav", "8091": "ĠHor", "8092": "Ġretired", "8093": "Ġindicated", "8094": "usive", "8095": "Ġproducing", "8096": "ĠAbout", "8097": "ĠHarry", "8098": "Ġrapidly", "8099": "Ġrose", "8100": "Ġhide", "8101": "fr", "8102": "Ġcorporations", "8103": "Ġocean", "8104": "iy", "8105": "ĠRus", "8106": "aying", "8107": "owing", "8108": "Ġlistening", "8109": "ĠReuters", "8110": "ĠUFC", "8111": "ĠSat", "8112": "Ġtechnique", "8113": "Ġmo", "8114": "yard", "8115": "sels", "8116": "Ġloyal", "8117": "ĠNic", "8118": "lessly", "8119": "Ġrobot", "8120": "Ġclimb", "8121": "Ġnotion", "8122": "Ġbegun", "8123": "87", "8124": "Ġutil", "8125": "Ġrecognition", "8126": "Ġren", "8127": "ouver", "8128": "engers", "8129": "Ġperpet", "8130": "Ġassociation", "8131": "Ġmilk", "8132": "inf", "8133": "Ġasks", "8134": "Ġwebsites", "8135": "Ġdescription", "8136": "ĠPack", "8137": "Ġtickets", "8138": "ĠPen", "8139": "achus", "8140": "Ġflash", "8141": "Ġbra", "8142": "Ġsuggesting", "8143": "enny", "8144": "ĠJudge", "8145": "Ġexclusive", "8146": "Ġreaching", "8147": "Ġprepare", "8148": "iti", "8149": "ĠKansas", "8150": "Who", "8151": "ione", "8152": "Ġbail", "8153": "Ġfrag", "8154": "Ġprogressive", "8155": "Ġburd", "8156": "Ġexceed", "8157": "Ġequally", "8158": "ĠHard", "8159": "Ġhardly", "8160": "Ġwidespread", "8161": "ĠABC", "8162": "Ġcampaigns", "8163": "ĠMayor", "8164": "Ġcontribute", "8165": "udes", "8166": "ologists", "8167": "Ġbranch", "8168": "Look", "8169": "ĠRose", "8170": "Ġgrass", "8171": "Ġinitiative", "8172": "ĠMarket", "8173": "Ġethnic", "8174": "Ġexternal", "8175": "ikes", "8176": "ĠCirc", "8177": "uma", "8178": "rient", "8179": "Ġsensitive", "8180": "Ġpractical", "8181": "usted", "8182": "elf", "8183": "Ġunclear", "8184": "Ġnormally", "8185": "Ref", "8186": "Ġrepresentative", "8187": "pat", "8188": "ls", "8189": "89", "8190": "thon", "8191": "Ġwelf", "8192": "ĠFull", "8193": "Ġreducing", "8194": "appy", "8195": "Ġfriendly", "8196": "bec", "8197": "Ġcarefully", "8198": "ĠArabia", "8199": "ĠRef", "8200": "lad", "8201": "ester", "8202": "ĠLy", "8203": "PM", "8204": "ĠLuc", "8205": "Ġracist", "8206": "Ġinvent", "8207": "rical", "8208": "ouch", "8209": "PG", "8210": "ĠCO", "8211": "ĠNext", "8212": "Ġrespectively", "8213": "senal", "8214": "rator", "8215": "Ġtail", "8216": "imm", "8217": "ĠMcCain", "8218": "ĠBernie", "8219": "ancouver", "8220": "Ġoverwhelming", "8221": "Ġviewers", "8222": "ĠBeach", "8223": "stract", "8224": "Ġwelfare", "8225": "arrass", "8226": "ĠFurther", "8227": "Ġconvinced", "8228": "UN", "8229": "Ġsmoke", "8230": "umes", "8231": "Ġcollapse", "8232": "Ġinvolvement", "8233": "ĠLind", "8234": "Ġthrown", "8235": "pload", "8236": "Ġconnections", "8237": "heast", "8238": "Ġterrorists", "8239": "ĠBattle", "8240": "Ġstrategic", "8241": "Ġhook", "8242": "Ġ00", "8243": "ĠLatin", "8244": "Ġrecover", "8245": "omething", "8246": "igrant", "8247": "ĠOnt", "8248": "Ġwine", "8249": "Mc", "8250": "inois", "8251": "ĠMusic", "8252": "rolled", "8253": "Ġminds", "8254": "Ġvital", "8255": "Ġsettlement", "8256": "Ġstatistics", "8257": "Ġlists", "8258": "Ġvary", "8259": "ĠSir", "8260": "Ġfeaturing", "8261": "ĠESPN", "8262": "ecut", "8263": "ĠDig", "8264": "achusetts", "8265": "Ġbehaviour", "8266": "Ġindependence", "8267": "worth", "8268": "Ġfantasy", "8269": "Ġdevast", "8270": "nedy", "8271": "core", "8272": "uties", "8273": "Ġinvited", "8274": "Ġcomplaints", "8275": "Ġjoining", "8276": "Ġscores", "8277": "dem", "8278": "Ġfiscal", "8279": "Ġdeeper", "8280": "abil", "8281": "ĠPennsylvania", "8282": "ifest", "8283": "Ġsteal", "8284": "Ġanger", "8285": "Ġdeputy", "8286": "Ġelig", "8287": "Ġwars", "8288": "ĠSquare", "8289": "ĠTenn", "8290": "Ġinvestigate", "8291": "ĠTown", "8292": "Ġsugar", "8293": "Ġconstitutional", "8294": "ĠIII", "8295": "Ġscholars", "8296": "ĠPit", "8297": "ĠiOS", "8298": "Ġanybody", "8299": "Ġsubjects", "8300": "ĠAND", "8301": "Ġarray", "8302": "Ġalien", "8303": "FA", "8304": "ĠUlt", "8305": "ĠGov", "8306": "Ġlobby", "8307": "Ġownership", "8308": "Ġframework", "8309": "Ġunemployment", "8310": "ĠDivision", "8311": "Ġtransgender", "8312": "bn", "8313": "Ġimprovements", "8314": "ĠSS", "8315": "Ġmenu", "8316": "Ġpeak", "8317": "Back", "8318": "Ġscreens", "8319": "ihad", "8320": "Ġinject", "8321": "Ġluck", "8322": "iversary", "8323": "Ġdefine", "8324": "Ġtasks", "8325": "ĠXbox", "8326": "Ġdemocratic", "8327": "Ġscandal", "8328": "icking", "8329": "Ġjury", "8330": "acon", "8331": "ĠAnton", "8332": "Che", "8333": "ĠMinistry", "8334": "Ġcos", "8335": "ĠEs", "8336": "Ġcomprehens", "8337": "osit", "8338": "ĠKat", "8339": "Ġremem", "8340": "Ġdiscovery", "8341": "unior", "8342": "Ġregister", "8343": "Ġcasual", "8344": "Ġcitizen", "8345": "RI", "8346": "Ġfab", "8347": "Under", "8348": "een", "8349": "Ġroads", "8350": "Ġdisagree", "8351": "Ġfailing", "8352": "ĠNever", "8353": "ĠLittle", "8354": "ĠJay", "8355": "Ġdynamic", "8356": "Ġserves", "8357": "ĠCameron", "8358": "ĠBrother", "8359": "ĠMah", "8360": "Ġtestim", "8361": "Ġgathered", "8362": "ĠStone", "8363": "ĠInformation", "8364": "Sm", "8365": "Ġsoph", "8366": "oding", "8367": "Ġimplemented", "8368": "Ġcontroversy", "8369": "Ġcollective", "8370": "Ġtrained", "8371": "anna", "8372": "ĠNSA", "8373": "Ġneighbour", "8374": "Ġfears", "8375": "leveland", "8376": "Ġsamples", "8377": "Ġfiction", "8378": "Ġprosec", "8379": "agg", "8380": "Ġestimate", "8381": "ĠCommunity", "8382": "69", "8383": "ĠIce", "8384": "ĠMedical", "8385": "Ġ1997", "8386": "ĠPhilipp", "8387": "Ġreferring", "8388": "Ġtip", "8389": "Ġcaptain", "8390": "Will", "8391": "Ġ1996", "8392": "Ġspaces", "8393": "cific", "8394": "ĠWalker", "8395": "Ġversus", "8396": "Ġlegs", "8397": "ĠSanta", "8398": "Ġtemporary", "8399": "PC", "8400": "Ġnoise", "8401": "ĠHD", "8402": "Ġovert", "8403": "Ġincorpor", "8404": "Ġtone", "8405": "Ġvisitors", "8406": "Ġreven", "8407": "Ġcivilians", "8408": "Ġwages", "8409": "Ġhypot", "8410": "Ġsin", "8411": "Ġremarks", "8412": "Ġawareness", "8413": "ĠON", "8414": "ĠSpring", "8415": "Ġrecommended", "8416": "Ġstupid", "8417": "ĠAllen", "8418": "Ġheading", "8419": "Ġhandful", "8420": "Ġregulation", "8421": "icket", "8422": "ĠAction", "8423": "ĠCore", "8424": "Ġplatforms", "8425": "Ġaccus", "8426": "ĠAnthony", "8427": "Ġaffairs", "8428": "Ġtouchdown", "8429": "Ġrural", "8430": "Ġattacking", "8431": "gener", "8432": "Ġextend", "8433": "Ġultimate", "8434": "Ġattached", "8435": "ĠVegas", "8436": "Ġdiscussions", "8437": "ĠRen", "8438": "Ġhorse", "8439": "ĠBrew", "8440": "mad", "8441": "Ġreprodu", "8442": "Ġgenetic", "8443": "Ġexpanded", "8444": "Ġattempting", "8445": "phones", "8446": "ĠMatthew", "8447": "Ġraces", "8448": "including", "8449": "iry", "8450": "ĠQueen", "8451": "Ġraw", "8452": "Ġignore", "8453": "ĠColumbia", "8454": "serv", "8455": "ĠPent", "8456": "ĠGuardian", "8457": "hour", "8458": "ĠCook", "8459": "ĠiP", "8460": "itionally", "8461": "Ġgear", "8462": "Ġsymptoms", "8463": "ĠPatrick", "8464": "Ġsuffer", "8465": "Ġsettings", "8466": "ĠMake", "8467": "âĢĶâĢĶâĢĶâĢĶ", "8468": "alling", "8469": "Ġsalary", "8470": "case", "8471": "Ġlicens", "8472": "mary", "8473": "GO", "8474": "Ġtweeted", "8475": "angel", "8476": "'.", "8477": "Ġpublication", "8478": "Ġbrill", "8479": "Ġfactory", "8480": "Ġsuspected", "8481": "Ġpurchased", "8482": "aret", "8483": "Ġintervention", "8484": "Ġeastern", "8485": "Ġholiday", "8486": "type", "8487": "2014", "8488": "Ġtheat", "8489": "esh", "8490": "About", "8491": "Ġdispl", "8492": "Ġranked", "8493": "ĠBudd", "8494": "Ġneck", "8495": "ĠAustin", "8496": "ĠConservative", "8497": "ĠMuseum", "8498": "ective", "8499": "ĠRoy", "8500": "\")", "8501": "Ġcro", "8502": "Ġenormous", "8503": "Sen", "8504": "####", "8505": "intendo", "8506": "Ġcogn", "8507": "Ġlogic", "8508": "ultural", "8509": "ictions", "8510": "Ġimprovement", "8511": "ĠAPI", "8512": "Ġviewed", "8513": "Ġingred", "8514": "Ġentertainment", "8515": "Ass", "8516": "Ġlegitimate", "8517": "ĠProfessor", "8518": "ommod", "8519": "Ġpresum", "8520": "ĠAlbert", "8521": "ĠMassachusetts", "8522": "ĠBall", "8523": "Ġ2019", "8524": "Ġwww", "8525": "News", "8526": "Ġactors", "8527": "Ġsubstantial", "8528": "Ġhumanity", "8529": "Ġinvolves", "8530": "Ġresource", "8531": "arms", "8532": "Ġbrothers", "8533": "Ġliquid", "8534": "Ġrational", "8535": "Ġseemingly", "8536": "Ġsorry", "8537": "Ġlayer", "8538": "Ġloans", "8539": "Ġrook", "8540": "Ġinvestigating", "8541": "Ġabsence", "8542": "Ġproviders", "8543": "Ġtomorrow", "8544": "Ġfallen", "8545": "Ġbureau", "8546": "Ġgrounds", "8547": "Ġcoaches", "8548": "Ġstake", "8549": "Ġresign", "8550": "Ġouts", "8551": "rec", "8552": "Ġadvocates", "8553": "ĠâĤ¬", "8554": "RC", "8555": "Ġinvestigators", "8556": "Ġconspiracy", "8557": "Where", "8558": "Ġmedicine", "8559": "Ġdramatic", "8560": "Ġfulf", "8561": "Ġmonitor", "8562": "ĠChair", "8563": "EST", "8564": "repre", "8565": "Ġovers", "8566": "Ġchapter", "8567": "ĠSeason", "8568": "Ġcoc", "8569": "oval", "8570": "GE", "8571": "lah", "8572": "ĠHo", "8573": ".-", "8574": "Ġactivist", "8575": "plete", "8576": "ped", "8577": "Ġboat", "8578": "ĠCheck", "8579": "aka", "8580": "ĠControl", "8581": "Ġjur", "8582": "Ġsuspended", "8583": "Ġpapers", "8584": "Script", "8585": "ĠGreece", "8586": "Ġopinions", "8587": "ĠSuch", "8588": "ĠRoss", "8589": "Ġmissile", "8590": "ĠGolden", "8591": "Ġceleb", "8592": "ĠRevolution", "8593": "2016", "8594": "Ġstayed", "8595": "Ġcovers", "8596": "ĠRa", "8597": "ĠHead", "8598": "iverpool", "8599": "Ġdiversity", "8600": "otype", "8601": "Ġbars", "8602": "Part", "8603": "Ġgam", "8604": "Russ", "8605": "Ġembarrass", "8606": "xit", "8607": "Ġoffices", "8608": "ĠAcc", "8609": "rets", "8610": "ourse", "8611": "claim", "8612": "ĠPot", "8613": "hot", "8614": "ĠIranian", "8615": "ammed", "8616": "Ġdisrupt", "8617": "cover", "8618": "ĠWW", "8619": "Ġpreced", "8620": "Ġpoly", "8621": "Ġforest", "8622": "wered", "8623": "Ġcareful", "8624": "mat", "8625": "reprene", "8626": "vard", "8627": "Ġamid", "8628": "ĠHistory", "8629": "79", "8630": "ĠHospital", "8631": "isting", "8632": "ĠAle", "8633": "Ġauthent", "8634": "quest", "8635": "ĠIllinois", "8636": "ĠCBS", "8637": "ĠSony", "8638": "uction", "8639": "Ġham", "8640": "geon", "8641": "Related", "8642": "dit", "8643": "ĠAp", "8644": "74", "8645": "72", "8646": "rine", "8647": "Ġtransportation", "8648": "ĠVancouver", "8649": "ĠGaza", "8650": "Ġhanded", "8651": "Ġprotocol", "8652": "Ġconsistently", "8653": "Ġmountain", "8654": "Ġ52", "8655": "Ġreads", "8656": "ĠStat", "8657": "Ġpref", "8658": "Ġclothes", "8659": "Ġattitude", "8660": "iability", "8661": "ĠShare", "8662": "ĠKennedy", "8663": "Ġporn", "8664": "Ġprincip", "8665": "ĠFreedom", "8666": "Ġdepends", "8667": "Ġmining", "8668": "Ġpetition", "8669": "Ġnoting", "8670": "Ġwarrant", "8671": "des", "8672": "Ġconce", "8673": "Ġcolors", "8674": "Ġlowest", "8675": "ĠAnderson", "8676": "ĠTri", "8677": "Ġaddressed", "8678": "ĠFamily", "8679": "bi", "8680": "unes", "8681": "Ġentr", "8682": "Ste", "8683": "ĠStadium", "8684": "xx", "8685": "Ġthrowing", "8686": "Ġje", "8687": "Ġfruit", "8688": "Ġvirtually", "8689": "!)", "8690": "Ġstone", "8691": "Ġfoss", "8692": "ĠMean", "8693": "Ġguarantee", "8694": "Ġreferend", "8695": "Both", "8696": "Ġspeaks", "8697": "ĠBaltimore", "8698": "inch", "8699": "??", "8700": "Ġsteel", "8701": "Ġclosing", "8702": "Ġreader", "8703": "dri", "8704": "FF", "8705": "Ġbuff", "8706": "Ġpersonality", "8707": "Ġappreciate", "8708": "ĠCre", "8709": "ĠIraqi", "8710": "Ġsurf", "8711": "ĠEnvironment", "8712": "Ġnerv", "8713": "iences", "8714": "maker", "8715": "Ġkm", "8716": "keep", "8717": "Ġhandling", "8718": "Ġprofits", "8719": "ordon", "8720": "Ġgrav", "8721": "Ġmarks", "8722": "low", "8723": "Ġtries", "8724": "ĠBroad", "8725": "Ġcontributions", "8726": "ĠEngine", "8727": "ropri", "8728": "zed", "8729": "Ġspiritual", "8730": "Ġconversations", "8731": "Ġfantastic", "8732": "ĠTro", "8733": "Ġlands", "8734": "Ġconsole", "8735": "ila", "8736": "Ġhorror", "8737": "ppers", "8738": "\".[", "8739": "icity", "8740": "Ġgains", "8741": "Ġcovering", "8742": "Ġtea", "8743": "ivals", "8744": "ĠHarris", "8745": "Her", "8746": "Ġhint", "8747": "Ġastron", "8748": "aval", "8749": "Ġshoulder", "8750": "scale", "8751": "Ġwrest", "8752": "Ġguest", "8753": "ĠExt", "8754": "Ġaccommod", "8755": "uted", "8756": "uits", "8757": "Ġdepression", "8758": "ĠCA", "8759": "Ġ_", "8760": "ĠLewis", "8761": "Ġlucky", "8762": "ĠBang", "8763": "Ġencouraged", "8764": "flix", "8765": "amac", "8766": "Ġjudges", "8767": "Ġincidents", "8768": "ĠCleveland", "8769": "Ġdrew", "8770": "Ġsubsequent", "8771": "ira", "8772": "Ġspoken", "8773": "ĠHoward", "8774": "annels", "8775": "ĠBad", "8776": "Ġbrown", "8777": "Ġbacter", "8778": "Please", "8779": "ixed", "8780": "Ġrhet", "8781": "Ġranks", "8782": "ĠGetty", "8783": "Ġphotograp", "8784": "Ġinflation", "8785": "Ġinner", "8786": "ĠIntelligence", "8787": "ĠPo", "8788": "itting", "8789": "ĠBa", "8790": "Ġmaps", "8791": "abeth", "8792": "ĠPatri", "8793": "ported", "8794": "ijing", "8795": "plate", "8796": "Ġdivided", "8797": "Ġ1995", "8798": "ĠNATO", "8799": "********", "8800": "Ġparalle", "8801": "Ġdrama", "8802": "ĠMexican", "8803": "Ġdistributed", "8804": "Ġgal", "8805": "Ġinnovation", "8806": "Ġswing", "8807": "unicip", "8808": "Ġcust", "8809": "ĠUnfortunately", "8810": "Ġpremium", "8811": "Ġvoter", "8812": "Ġpermit", "8813": "Ġrevel", "8814": "ĠKong", "8815": "Ġtrem", "8816": "Ġdance", "8817": "Ġclim", "8818": "pled", "8819": "ĠLas", "8820": "Ġefficiency", "8821": "Ġpromises", "8822": "ĠIndeed", "8823": "Note", "8824": "eding", "8825": "ĠCH", "8826": "ĠWhich", "8827": "Ġballot", "8828": "Ġ51", "8829": "pie", "8830": "ĠAdv", "8831": "Ġtemperatures", "8832": "ĠSamsung", "8833": "Ġportray", "8834": "Ġspokesperson", "8835": "Ġlocked", "8836": "Ġlying", "8837": "Ġimproving", "8838": "Ġthrew", "8839": "Ġjoy", "8840": "Ġdump", "8841": "Art", "8842": "Ġmusical", "8843": "PP", "8844": "Ġmistakes", "8845": "dated", "8846": "Ġshout", "8847": "ĠStart", "8848": "Ġhomeless", "8849": "conf", "8850": "Ġreplacement", "8851": "eries", "8852": "Ġcomedy", "8853": "Ġchecks", "8854": "ĠWithout", "8855": "ĠMoon", "8856": "Ġinstrument", "8857": "ounce", "8858": "ĠConnect", "8859": "Ġacknowledged", "8860": "Ġbarrel", "8861": "Ġresponses", "8862": "Ġprotecting", "8863": "backs", "8864": "ĠDet", "8865": "ÂĴ", "8866": "Ġsilver", "8867": "Ġcopies", "8868": "heim", "8869": "Ġles", "8870": "ĠAC", "8871": "Ġdad", "8872": "Ġbreaks", "8873": "ĠPlus", "8874": "ĠBuff", "8875": "Ġcommonly", "8876": "Ġlets", "8877": "Ġlegacy", "8878": "itage", "8879": "Ġprotein", "8880": "Ġmathem", "8881": "Ġjoke", "8882": "amacare", "8883": "erted", "8884": "hop", "8885": "arre", "8886": "Ġpassengers", "8887": "2015", "8888": "Ġyellow", "8889": "ĠMarvel", "8890": "Ġnaturally", "8891": "Your", "8892": "ĠScient", "8893": "Ġnomination", "8894": "Source", "8895": "Ġmeasured", "8896": "aping", "8897": "oded", "8898": "alia", "8899": "ĠUse", "8900": "Ġabandoned", "8901": "Ġmad", "8902": "ĠPrince", "8903": "Ġstudied", "8904": "800", "8905": "ĠFootball", "8906": "helsea", "8907": "Ġdiverse", "8908": "argo", "8909": "Ġacquired", "8910": "ieties", "8911": "ĠLyn", "8912": "Cons", "8913": "esty", "8914": "Ġsoil", "8915": "ĠMarsh", "8916": "Ġdemonstrated", "8917": "Ġblast", "8918": "Ġrear", "8919": "Ġfunded", "8920": "Ġheadquarters", "8921": "hesis", "8922": "yo", "8923": "Ġstolen", "8924": "Ġscan", "8925": "Ġcounts", "8926": "Ġtape", "8927": "Ġpartnership", "8928": "Ġmidfield", "8929": "ĠNOT", "8930": "Ġ(âĢľ", "8931": "Ġupgrade", "8932": "ĠCost", "8933": "ĠAtlantic", "8934": "yer", "8935": "Ġmarch", "8936": "Ġordinary", "8937": "ĠAud", "8938": "ĠNev", "8939": "Ġrom", "8940": "aware", "8941": "Ġliterature", "8942": "Ġplain", "8943": "Ġstages", "8944": "ĠâĢ¢", "8945": "Ġassert", "8946": "Ġ1994", "8947": "high", "8948": "ĠAI", "8949": "Ġhelpful", "8950": "Ġarrive", "8951": "Ġexit", "8952": "Ġscope", "8953": "Ġfalls", "8954": "63", "8955": "dog", "8956": "Ġignored", "8957": "BM", "8958": "Ġtwenty", "8959": "eters", "8960": "ĠMaster", "8961": "Ġclock", "8962": "Ġcompe", "8963": "inction", "8964": "Ġvirus", "8965": "ĠTrib", "8966": "Ġreferendum", "8967": "Ġinequ", "8968": "Ġunions", "8969": "ĠDoes", "8970": "assador", "8971": "ĠGun", "8972": "Ġconservatives", "8973": "Ġrif", "8974": "Ġgrid", "8975": "Ġsymp", "8976": "Ġfestival", "8977": "Ġfro", "8978": "Ġshopping", "8979": "Ġwaters", "8980": "ĠPop", "8981": "Ġcapabilities", "8982": "ĠBron", "8983": "Ġax", "8984": "lahoma", "8985": "Ġusage", "8986": "ĠHind", "8987": "iate", "8988": "zing", "8989": "ĠEmpire", "8990": "aeda", "8991": "ĠAbb", "8992": "ington", "8993": "ĠIndiana", "8994": "iley", "8995": "Ġtransactions", "8996": "erg", "8997": "Ġhoped", "8998": "Ġdistract", "8999": "ĠAst", "9000": "Ġguitar", "9001": "VE", "9002": "ĠEag", "9003": "Ġsty", "9004": "Ġramp", "9005": "Ġassessment", "9006": "ctic", "9007": "Ġuniversities", "9008": "ĠDave", "9009": "Ġmoon", "9010": "Ġmonitoring", "9011": "ormal", "9012": "acket", "9013": "bridge", "9014": "Ġrepresenting", "9015": "Facebook", "9016": "Ġratio", "9017": "ĠDeath", "9018": "encing", "9019": "ught", "9020": "62", "9021": "ĠProv", "9022": "Ġconventional", "9023": "comes", "9024": "UST", "9025": "orge", "9026": "Ġtrave", "9027": "ĠSet", "9028": "Ġtracking", "9029": "door", "9030": "ntil", "9031": "ĠSometimes", "9032": "61", "9033": "only", "9034": "shire", "9035": "Ġhung", "9036": "ĠSus", "9037": "Ġreliable", "9038": "Ġtie", "9039": "Ġproposals", "9040": "Ġskept", "9041": "ĠHell", "9042": "Ġreplied", "9043": "ĠRos", "9044": "fund", "9045": "uh", "9046": "Ġcriticized", "9047": "Ġappearances", "9048": "rimin", "9049": "ĠHa", "9050": "ecutive", "9051": "ela", "9052": "Ġracism", "9053": "Ġinsisted", "9054": "organ", "9055": "Ġintroduction", "9056": "Ġ2020", "9057": "Ġappointed", "9058": "dney", "9059": "ĠBureau", "9060": "olph", "9061": "agic", "9062": "ĠPass", "9063": "cut", "9064": "Ke", "9065": "ĠLine", "9066": "Ġbeauty", "9067": "Ġconcrete", "9068": "Ġreceiver", "9069": "Ġsupplies", "9070": "Ġperforming", "9071": "made", "9072": "ji", "9073": "Ġbub", "9074": "Ġexch", "9075": "rite", "9076": "Ġvisiting", "9077": "ĠTechnology", "9078": "ĠDenver", "9079": "ocument", "9080": "EE", "9081": "omes", "9082": "ĠCapt", "9083": "theless", "9084": "RL", "9085": "Ġletting", "9086": "AND", "9087": "Ġdeficit", "9088": "Ġclassified", "9089": "ĠGalaxy", "9090": "Ġauto", "9091": "HT", "9092": "Ġrender", "9093": "Ġabsor", "9094": "ĠOrig", "9095": "Ġswim", "9096": "Ġaccomplish", "9097": "Ġprogramme", "9098": "Ġpresidency", "9099": "crib", "9100": "Ġblocked", "9101": "ĠSweden", "9102": "archy", "9103": "Ġdust", "9104": "ĠUtah", "9105": "Ġdrove", "9106": "Ġlandscape", "9107": "Ġcance", "9108": "ĠPortland", "9109": "plus", "9110": "Ġdismissed", "9111": "ĠLA", "9112": "Ġhyper", "9113": "Ġabroad", "9114": "Ġbonus", "9115": "ĠJam", "9116": "ĠTour", "9117": "har", "9118": "Ġsequence", "9119": "Ġpredicted", "9120": "Ġsenator", "9121": "Â°", "9122": "ĠAge", "9123": "Ġdomain", "9124": "ĠCode", "9125": "Ġec", "9126": "Ġmuseum", "9127": "Ġwarn", "9128": "ĠAssociated", "9129": "acco", "9130": "Ġpersons", "9131": "NS", "9132": "Ġdub", "9133": "iano", "9134": "aga", "9135": "Ġrequested", "9136": "Ġtrigger", "9137": "ĠOntario", "9138": "Ġhockey", "9139": "ĠCorpor", "9140": "Ġartific", "9141": "Ġdates", "9142": "Ġtestimony", "9143": "Ġcenters", "9144": "Ð»", "9145": "Ġrocket", "9146": "irts", "9147": "Ġves", "9148": "Ġtransit", "9149": "Ġcongressional", "9150": "Ġentitled", "9151": "ultane", "9152": "Ġspokeswoman", "9153": "ĠFront", "9154": "ĠNintendo", "9155": "ĠAlexander", "9156": "Ġrescue", "9157": "ĠCooper", "9158": "mony", "9159": "Ġassign", "9160": "ĠBon", "9161": "Ġequality", "9162": "Ġpatch", "9163": "Ġurged", "9164": "Ġbread", "9165": "ĠOlympic", "9166": "Ġdocumentary", "9167": "Ġveterans", "9168": "Ġclar", "9169": "fol", "9170": "93", "9171": "ais", "9172": "king", "9173": "ĠâĢĿ", "9174": "pton", "9175": "Ġrecall", "9176": "Ġpopulations", "9177": "94", "9178": "ĠLow", "9179": "Ġbreath", "9180": "Still", "9181": "92", "9182": "rooms", "9183": "Ġwhenever", "9184": "Ġviolation", "9185": "Ġtactics", "9186": "Ġwider", "9187": "71", "9188": "ounding", "9189": "ĠKar", "9190": "Ġtargeting", "9191": "Yet", "9192": "through", "9193": "Ġpursue", "9194": "Ġsalt", "9195": "\">", "9196": "Are", "9197": "izabeth", "9198": "Ġfiring", "9199": "don", "9200": "ĠMill", "9201": "Ġacid", "9202": "Ġmole", "9203": "inating", "9204": "Ġrestaurants", "9205": "Ġcompare", "9206": "73", "9207": "fare", "9208": "Comp", "9209": "orous", "9210": "ennis", "9211": "Ġwedd", "9212": "Ġemployed", "9213": "ĠRoberts", "9214": "Ġcontrad", "9215": "ĠBible", "9216": "Ġpolitically", "9217": "Ġphrase", "9218": "Ġsatellite", "9219": "ĠCro", "9220": "Ġsurvival", "9221": "Ġretirement", "9222": "Ġbanking", "9223": "ĠForm", "9224": "Ġbrilliant", "9225": "isons", "9226": "ĠGirl", "9227": "atar", "9228": "Ġchannels", "9229": "Ġservers", "9230": "ĠBeijing", "9231": "Ġsoccer", "9232": "trans", "9233": "aver", "9234": "ĠMach", "9235": "they", "9236": "Ġintroduce", "9237": "ĠJustin", "9238": "Ġexperiments", "9239": "enez", "9240": "Ġprisoners", "9241": "rapped", "9242": "Ġcig", "9243": "ĠWH", "9244": "afe", "9245": "jud", "9246": "Ġfighter", "9247": "600", "9248": "Ġscientist", "9249": "OK", "9250": "ĠYOU", "9251": "usalem", "9252": "ĠList", "9253": "Ġsubmit", "9254": "Ġapproached", "9255": "ĠAward", "9256": "Ġmonthly", "9257": "ĠLiverpool", "9258": "Ġdesigns", "9259": "Ġrepresentatives", "9260": "Ġtitled", "9261": "ordinary", "9262": "Ġquote", "9263": "Ġpopularity", "9264": "olves", "9265": "Ġabilities", "9266": "oenix", "9267": "Ġcul", "9268": "ĠPD", "9269": "Ġmembership", "9270": "Ġinvestigations", "9271": "Ġfocusing", "9272": "mans", "9273": "Ġhosp", "9274": "Ġbab", "9275": "ĠBridge", "9276": "Though", "9277": "ĠMaryland", "9278": "Ġsaving", "9279": "pa", "9280": "Ġrush", "9281": "ĠGovernor", "9282": "Ġshadow", "9283": "ouri", "9284": "bow", "9285": "ĠHur", "9286": "ĠBase", "9287": "Ġobjective", "9288": "berry", "9289": "ĠTed", "9290": "emed", "9291": "erts", "9292": "ederation", "9293": "Ġmit", "9294": "Ġprepar", "9295": "Ġtips", "9296": "ĠWas", "9297": "Ġpipeline", "9298": "David", "9299": "Ġchildhood", "9300": "ika", "9301": "Ġratings", "9302": "Ġthorough", "9303": "Ġentreprene", "9304": "enter", "9305": "ĠVill", "9306": "ĠDutch", "9307": "was", "9308": "break", "9309": "Ġactively", "9310": "ĠHarvard", "9311": "Ġpig", "9312": "ĠSom", "9313": "Ġdemanding", "9314": "Ġloose", "9315": "asty", "9316": "ĠBra", "9317": "Ġunexpected", "9318": "CO", "9319": "Ġsmoking", "9320": "Ġsmell", "9321": "Ġdeny", "9322": "Ġuniversal", "9323": "Ġforecast", "9324": "Ġargues", "9325": "Ġphenomenon", "9326": "Ġoverseas", "9327": "mers", "9328": "olds", "9329": "Ġsettled", "9330": "walk", "9331": "ĠBeck", "9332": "Ġgenerations", "9333": "Ġweekly", "9334": "Ġchicken", "9335": "Ġpreparing", "9336": "Ġ95", "9337": "Ġsmartphone", "9338": "Ġproducers", "9339": "Ġbutt", "9340": "ĠPA", "9341": "Ġlegislative", "9342": "Ġanxiety", "9343": "Ġdisturb", "9344": "ĠHave", "9345": "Ġinnocent", "9346": "minute", "9347": "ĠClick", "9348": "Ġmortg", "9349": "Ġcelebrate", "9350": "Dem", "9351": "ĠUr", "9352": "iki", "9353": "Ġprovision", "9354": "ĠDO", "9355": "Ġkeys", "9356": "ded", "9357": "Ġshame", "9358": "Ġarguing", "9359": "ĠDesign", "9360": "held", "9361": "Ġquestioned", "9362": "Ġforcing", "9363": "ĠCow", "9364": "ĠHop", "9365": "ompson", "9366": "agh", "9367": "âĶ", "9368": "Ġbroader", "9369": "Ġencounter", "9370": "SL", "9371": "Ġflags", "9372": "Ġfool", "9373": "Ġmac", "9374": "Ġ53", "9375": "Ġdeadly", "9376": "Ġfur", "9377": "84", "9378": "Ġreverse", "9379": "oz", "9380": "Ġweigh", "9381": "ĠEdward", "9382": "ĠAmong", "9383": "Ġtens", "9384": "Ġ~", "9385": "Ġmos", "9386": "Ġwealthy", "9387": "ĠObamacare", "9388": "Ġunpre", "9389": "Ġmaintained", "9390": "Ġsurely", "9391": "Ġshield", "9392": "ĠProp", "9393": "ocolate", "9394": "oret", "9395": "Ġsecondary", "9396": "isa", "9397": "aved", "9398": "Sim", "9399": "Ġsavings", "9400": "irlf", "9401": "Ġroof", "9402": "Ġstability", "9403": "Ġcivilian", "9404": "Ġtab", "9405": "elson", "9406": "Äĥ", "9407": "ĠCarter", "9408": "Ġreveals", "9409": "mind", "9410": "Ġmini", "9411": "Ġalarm", "9412": "Ġanniversary", "9413": "Ġsorts", "9414": "ois", "9415": "ĠAk", "9416": "vernment", "9417": "El", "9418": "Ġtonight", "9419": "Ġreleases", "9420": "ĠHon", "9421": "Ġrooms", "9422": "irlfriend", "9423": "isk", "9424": "ĠGulf", "9425": "Ġoutrage", "9426": "Ġprosecutors", "9427": "ĠLeft", "9428": "Ġdisorder", "9429": "inals", "9430": "Ġexha", "9431": "orious", "9432": "Ġshr", "9433": "Ġrelax", "9434": "Ġwindows", "9435": "Ġthreatening", "9436": "Ġdifferently", "9437": "Ġharassment", "9438": "Ġquoted", "9439": "Ġhealthcare", "9440": "Ġsubmitted", "9441": "Ġarbit", "9442": "Ġlunch", "9443": "step", "9444": "itter", "9445": "ĠRun", "9446": "Ġreforms", "9447": "Ġtorture", "9448": "rection", "9449": "Ġfate", "9450": "Ġstored", "9451": "Ġokay", "9452": "ĠBelg", "9453": "Ġpropaganda", "9454": "Ġspots", "9455": "Ġinstructions", "9456": "ĠVietnam", "9457": "Ġsevent", "9458": "Ġrounds", "9459": "Ġodds", "9460": "Ġ1992", "9461": "aa", "9462": "Ġaer", "9463": "html", "9464": "tenance", "9465": "Ġerrors", "9466": "ested", "9467": "ĠOklahoma", "9468": "Ġhydro", "9469": "icism", "9470": "GA", "9471": "Ġdelic", "9472": "ailed", "9473": "ĠLiberal", "9474": "Ġsilence", "9475": "ĠGraham", "9476": "acts", "9477": "ĠWarren", "9478": "Ġgraduate", "9479": "ĠSab", "9480": "Ġaffordable", "9481": "Ġcircle", "9482": "sect", "9483": "ĠBloom", "9484": "Ġcooperation", "9485": "Ġpicks", "9486": "Ġsear", "9487": "itary", "9488": "ĠSarah", "9489": "ĠFall", "9490": "orship", "9491": "ĠExpl", "9492": "Ġstriking", "9493": "Ġpuzz", "9494": "Ġpersu", "9495": "Ġstreaming", "9496": "Ġcomprehensive", "9497": "race", "9498": "Ġimportantly", "9499": "Ġcow", "9500": "Ġpossess", "9501": "Watch", "9502": "Ġfing", "9503": "Ġexecution", "9504": "ĠRuby", "9505": "lined", "9506": "rows", "9507": "Ġintim", "9508": "Ġstruggled", "9509": "ĠPerson", "9510": "Ġassass", "9511": "ĠSilver", "9512": "ĠLeader", "9513": "uten", "9514": "ahu", "9515": "Ġgent", "9516": "Ty", "9517": "ĠPrice", "9518": "Reuters", "9519": "ishop", "9520": "Ġdeserve", "9521": "ĠJerusalem", "9522": "Ġlanding", "9523": "Ġcalm", "9524": "Ġalter", "9525": "Ġceremony", "9526": "Ġassumed", "9527": "Ġdemonstrate", "9528": "Ġdifficulty", "9529": "83", "9530": "Ġages", "9531": "Ġpron", "9532": "Ġdying", "9533": "Ġhal", "9534": "Ġdistingu", "9535": "asury", "9536": "Ġstepped", "9537": "ethe", "9538": "Ġborders", "9539": "Ġchest", "9540": "ĠWolf", "9541": "ĠLt", "9542": "Ġadventure", "9543": "Ġpointing", "9544": "ova", "9545": "Ġwaves", "9546": "Ġkilomet", "9547": "essee", "9548": "ierce", "9549": "ĠNetflix", "9550": "atern", "9551": "Ġautonom", "9552": "eals", "9553": "Ġprecisely", "9554": "Ġarchitecture", "9555": "Ġgreatly", "9556": "ĠDeb", "9557": "Ġpromising", "9558": "Ġconsent", "9559": "bury", "9560": "Ġconsideration", "9561": "ĠTen", "9562": "Ġdrives", "9563": "Ġdialogue", "9564": "ĠMain", "9565": "Ġtremend", "9566": "ĠBud", "9567": "asant", "9568": "Ġnewsletter", "9569": "Ġrookie", "9570": "Ġawarded", "9571": "ĠMeanwhile", "9572": "after", "9573": "Ġrepeat", "9574": "ĠStory", "9575": "Ġcontribution", "9576": "ĠTele", "9577": "Ġburning", "9578": "iev", "9579": "party", "9580": "Ġsimultane", "9581": "ĠScottish", "9582": "ĠVice", "9583": "Ġdonations", "9584": "ĠIndust", "9585": "akh", "9586": "Ġinterf", "9587": "itol", "9588": "ĠMagic", "9589": "Ġvoices", "9590": "Ġanalyst", "9591": "ĠBruce", "9592": "ĠTech", "9593": "ceptions", "9594": "Ġgif", "9595": "Ġfrequency", "9596": "ĠCommon", "9597": "Ġprocedure", "9598": "Ġwanting", "9599": "ĠPres", "9600": "Ġexecutives", "9601": "Ġplayoffs", "9602": "lee", "9603": "oice", "9604": "Ġstaying", "9605": "apolis", "9606": "Ġbirds", "9607": "Ġbias", "9608": "VD", "9609": "ĠHong", "9610": "ĠAz", "9611": "izer", "9612": "Ġinches", "9613": "Ġtrillion", "9614": "omy", "9615": "holders", "9616": "Ġhighlights", "9617": "Ġsemi", "9618": "Ġremarkable", "9619": "Ġwhereas", "9620": "EX", "9621": "ributes", "9622": "ĠPalestinians", "9623": "Ġknee", "9624": "open", "9625": "ĠJonathan", "9626": "Ġans", "9627": "raig", "9628": "Ġimplications", "9629": "scribe", "9630": "Ġformation", "9631": "Ġsuperior", "9632": "Ġstrategies", "9633": "itual", "9634": "ĠBerlin", "9635": "Step", "9636": "ĠLink", "9637": "stal", "9638": "div", "9639": "ĠSydney", "9640": "ĠMORE", "9641": "Ġcategories", "9642": "ĠArk", "9643": "Ġfet", "9644": "Ġfollowers", "9645": "Ġcream", "9646": "Story", "9647": "portation", "9648": "FO", "9649": "Ġcontacted", "9650": "Ms", "9651": "Ġjudgment", "9652": "annon", "9653": "Ġsmile", "9654": "Ġinfo", "9655": "Ġemerging", "9656": "igious", "9657": "rif", "9658": "js", "9659": "onder", "9660": "omed", "9661": "yes", "9662": "bered", "9663": "vision", "9664": "ĠEff", "9665": "vertisements", "9666": "iffs", "9667": "hatt", "9668": "Ġaccessible", "9669": "Ġcrimin", "9670": "TP", "9671": "Ġphysically", "9672": "Ġassigned", "9673": "Ġ54", "9674": "ĠAndre", "9675": "Ġguidelines", "9676": "Ġdefeated", "9677": "Ġwounded", "9678": "Ġtrials", "9679": "Ġstem", "9680": "Ġmanaging", "9681": "Ġspell", "9682": "Ġministry", "9683": "Ġgrade", "9684": "Ġcoinc", "9685": "Ġriding", "9686": "Ġindicates", "9687": "Ġcenturies", "9688": "Christ", "9689": "cest", "9690": "ĠAffairs", "9691": "Ġopens", "9692": "aki", "9693": "Ġpharm", "9694": "lla", "9695": "->", "9696": "Ġmeaningful", "9697": "Ġtiss", "9698": "erent", "9699": "ĠMrs", "9700": "Ġease", "9701": "child", "9702": "Ġmargin", "9703": "ĠStore", "9704": "Ġclothing", "9705": "ĠâĪĴ", "9706": "ĠTes", "9707": "ĠSix", "9708": "ĠCapital", "9709": "Ġparticipation", "9710": "cedented", "9711": "Mus", "9712": "Ġrevers", "9713": "aria", "9714": "Ġpoison", "9715": "ĠBrexit", "9716": "Ġ120", "9717": "ĠYemen", "9718": "Ġlapt", "9719": "Ġcompeting", "9720": "Ġmemories", "9721": "ĠCS", "9722": "Ġtheories", "9723": "Ġrecipe", "9724": "Ġgross", "9725": "umble", "9726": "author", "9727": "hard", "9728": "91", "9729": "Ġpassage", "9730": "sl", "9731": "Ġaged", "9732": "ĠCredit", "9733": "Ġbin", "9734": "Ġdrone", "9735": "Ġblank", "9736": "Ġdispute", "9737": "Ġdamaged", "9738": "Ġ1993", "9739": "van", "9740": "ĠHamilton", "9741": "base", "9742": "Ġsubstance", "9743": "Ġhosted", "9744": "TER", "9745": "Google", "9746": "ĠChelsea", "9747": "ĠLam", "9748": "Ġpromoting", "9749": "Ġfacilit", "9750": "Ġopenly", "9751": "ĠInstagram", "9752": "Ġ1950", "9753": "ĠVik", "9754": "View", "9755": "ĠChildren", "9756": "ĠCrime", "9757": "Ġclinical", "9758": "Out", "9759": "Ġnic", "9760": "eremy", "9761": "ĠHold", "9762": "bits", "9763": "Ġinvestments", "9764": "Ġconsensus", "9765": "even", "9766": "igate", "9767": "ĠLeon", "9768": "ses", "9769": "ĠFal", "9770": "Ġeducational", "9771": "ito", "9772": "const", "9773": "Ġdish", "9774": "Ġmanifest", "9775": "Ġcustody", "9776": "week", "9777": "82", "9778": "Ġeligible", "9779": "ĠHawai", "9780": "Ġlegally", "9781": "Ġmissions", "9782": "Ġendorse", "9783": "Ġgate", "9784": "eria", "9785": "Ġmemo", "9786": "ĠGT", "9787": "Ġtables", "9788": "ĠPict", "9789": "Ġnin", "9790": "Ġstudying", "9791": "Hz", "9792": "Ġcharity", "9793": "aration", "9794": "adi", "9795": "Ġaddresses", "9796": "Ġ?", "9797": "Ġinspect", "9798": "Ġdiscount", "9799": "rix", "9800": "left", "9801": "Ġbattles", "9802": "ALL", "9803": "ĠDer", "9804": "Ġ250", "9805": "ĠAssembly", "9806": "Ġathletes", "9807": "Pre", "9808": "ĠTrade", "9809": "Ġfossil", "9810": "Ġenthusi", "9811": "ĠManagement", "9812": "iac", "9813": "Ġsuspects", "9814": "Ġtired", "9815": "Ġhelic", "9816": "Act", "9817": "Ġcounterpart", "9818": "Ġna", "9819": "achel", "9820": "Ġdating", "9821": "ĠEth", "9822": "Ġspectrum", "9823": "ĠMetro", "9824": "ateral", "9825": "ĠStation", "9826": "ĠBal", "9827": "Ġpresentation", "9828": "Ġlux", "9829": "gered", "9830": "arts", "9831": "Ġbottle", "9832": "Ġtap", "9833": "riors", "9834": "Ġvig", "9835": "Ġfundra", "9836": "Ġenhance", "9837": "assy", "9838": "ĠSean", "9839": "Ġtherapy", "9840": "ĠWales", "9841": "ĠExper", "9842": "Ġperceived", "9843": "market", "9844": "ĠTok", "9845": "Ġdominant", "9846": "Def", "9847": "math", "9848": "Ġbacking", "9849": "ĠFestival", "9850": "Ġunderlying", "9851": "Ġdefending", "9852": "ĠThrough", "9853": "Ġracing", "9854": "Ġdiscussing", "9855": "Ġburden", "9856": "Ġexpanding", "9857": "Ġmuscle", "9858": "Ġstops", "9859": "uz", "9860": "Ġbeings", "9861": "ĠMarx", "9862": "ĠEqu", "9863": "Ġtransaction", "9864": "ĠUber", "9865": "Ġ99", "9866": "Cal", "9867": "Ġrecruit", "9868": "itudes", "9869": "acher", "9870": "ĠGary", "9871": "Ġmood", "9872": "Ġpicking", "9873": "81", "9874": "lando", "9875": "ylum", "9876": "player", "9877": "Ġmanagers", "9878": "orable", "9879": "Ġgathering", "9880": "Ġhopefully", "9881": "angle", "9882": "ĠSon", "9883": "alysis", "9884": "ĠVideo", "9885": "section", "9886": "Ġcrus", "9887": "ĠLibya", "9888": "Ġimpression", "9889": "Ġhip", "9890": "olar", "9891": "Ã¢", "9892": "Ġscrut", "9893": "Ġroy", "9894": "ĠTai", "9895": "igenous", "9896": "Ġinstitution", "9897": "ĠBatman", "9898": "}}", "9899": "Ġstere", "9900": "Ġprocedures", "9901": "Ã±", "9902": "Ġpocket", "9903": "Ġcreatures", "9904": "ĠBoe", "9905": "Ġcompat", "9906": "Ġarrival", "9907": "ptions", "9908": "sa", "9909": "watch", "9910": "Ġeager", "9911": "Ġpollution", "9912": "iture", "9913": "Ġkitchen", "9914": "Ġfoods", "9915": "ocial", "9916": "Ġrecre", "9917": "Ġsurviv", "9918": "roph", "9919": "Ġorganic", "9920": "ĠPentagon", "9921": "ĠMorgan", "9922": "Ġshipping", "9923": "Ġcapitalism", "9924": "Ġinsult", "9925": "Ġtiming", "9926": "sub", "9927": "odox", "9928": "Ġrequirement", "9929": "Ġunfair", "9930": "aders", "9931": "Ġ56", "9932": "Ġmice", "9933": "ĠAssad", "9934": "Rem", "9935": "ĠRepresent", "9936": "ĠMess", "9937": "ĠMLS", "9938": "bing", "9939": "atively", "9940": "ĠElizabeth", "9941": "ĠOp", "9942": "Ġdiseases", "9943": "Mod", "9944": "Ġindustries", "9945": "ĠOakland", "9946": "dy", "9947": "Ġbowl", "9948": "oln", "9949": "ĠMurray", "9950": "ĠCreat", "9951": "Ġsed", "9952": "Ġhelicop", "9953": "Ġdivor", "9954": "agger", "9955": "Ġbeach", "9956": "Ġpunishment", "9957": "abet", "9958": "Ġshell", "9959": "***", "9960": "Ġfled", "9961": "Ġhospitals", "9962": "missions", "9963": "Ġtons", "9964": "AF", "9965": "ĠKick", "9966": "Ġseed", "9967": "ogy", "9968": "ĠComey", "9969": "opyright", "9970": "Ġstatist", "9971": "Ġengineers", "9972": "Ġobsc", "9973": "Ġhire", "9974": "SC", "9975": "Ġmodule", "9976": "AY", "9977": "amous", "9978": "Ġcoaching", "9979": "oca", "9980": "Ġanswered", "9981": "rac", "9982": "Reg", "9983": "TR", "9984": "Ġgraphics", "9985": "Ġregulatory", "9986": "Ġsovere", "9987": "Ġstance", "9988": "alties", "9989": "Ġbow", "9990": "ĠKeep", "9991": "Click", "9992": "Ġexplaining", "9993": "Ġrhetoric", "9994": "Ġbeating", "9995": "ĠFriend", "9996": "Ġtut", "9997": "ĠEmail", "9998": "rior", "9999": "ĠYeah", "10000": "emic", "10001": "Ġacknowledge", "10002": "ĠMichel", "10003": "Ġprincipal", "10004": "ĠMit", "10005": "Ġpulling", "10006": "erves", "10007": "Ġsignature", "10008": "brid", "10009": "olving", "10010": "Ġconvince", "10011": "ĠRoll", "10012": "Ġvariable", "10013": "cosystem", "10014": "Ġpill", "10015": "Ġsearching", "10016": "ĠOx", "10017": "Ġdies", "10018": "Ġovercome", "10019": "Ġpreferred", "10020": "duction", "10021": "Ġsixth", "10022": "Ġadviser", "10023": "ĠTennessee", "10024": "Ġtrends", "10025": "ĠRussell", "10026": "Ġ(\"", "10027": "ĠThompson", "10028": "Ge", "10029": "Ġmerch", "10030": "Ġrebels", "10031": "Ġinteraction", "10032": "Ġperiods", "10033": "ĠYan", "10034": "Ġpsychological", "10035": "Mich", "10036": "ĠSure", "10037": "ĠUsing", "10038": "Ġeconomics", "10039": "ĠCharlie", "10040": "ĠBi", "10041": "Ġoutlets", "10042": "ĠGil", "10043": "ĠIntel", "10044": "Ġsignals", "10045": "pg", "10046": "Ġecho", "10047": "ĠExecutive", "10048": "ĠKentucky", "10049": "Ġtempor", "10050": "Ġbillions", "10051": "Ġlineup", "10052": "Ġmath", "10053": "2013", "10054": "Ġ1991", "10055": "Ġsetup", "10056": "Ġrend", "10057": "Finally", "10058": "netic", "10059": "mic", "10060": "Ġeggs", "10061": "Ġsegment", "10062": "Ġarr", "10063": "Ġbadly", "10064": "kee", "10065": "ĠLi", "10066": "ui", "10067": "Ġsentenced", "10068": "Ġeveryday", "10069": "ĠDragon", "10070": "Ġcommander", "10071": "ĠHoll", "10072": "ĠAN", "10073": "Ġloves", "10074": "unicipal", "10075": "ds", "10076": "Ġgenes", "10077": "NBC", "10078": "Ġbold", "10079": "Ġrequiring", "10080": "Ġbullet", "10081": "Ġinvasion", "10082": "will", "10083": "Comm", "10084": "Ġpartly", "10085": "Ġescal", "10086": "Ġinstant", "10087": "Ġgig", "10088": "ĠJean", "10089": "check", "10090": "Ġarts", "10091": "Ġgene", "10092": "Ġremoval", "10093": "Ġundert", "10094": "Ġupload", "10095": "liest", "10096": "ĠHart", "10097": "Ġtopics", "10098": "ĠIron", "10099": "enezuel", "10100": "Ġ!", "10101": "Ġinquiry", "10102": "Ġamendment", "10103": "Ġweakness", "10104": "ĠRather", "10105": "news", "10106": "Ġconcepts", "10107": "ĠZe", "10108": "ĠMcK", "10109": "has", "10110": "PL", "10111": "Ġshoes", "10112": "arted", "10113": "ĠSound", "10114": "Ġfabric", "10115": "izza", "10116": "grade", "10117": "ĠDelhi", "10118": "Earlier", "10119": "tsburgh", "10120": "Ġfrequent", "10121": "Ġsections", "10122": "Ġoccurs", "10123": "oli", "10124": "Ġmigrants", "10125": "Ġcompensation", "10126": "Ġengineer", "10127": "eness", "10128": "Ġlad", "10129": "ĠFinally", "10130": "Ġfo", "10131": "Ġattractive", "10132": "ĠBox", "10133": "Ġunve", "10134": "instein", "10135": "Ġ).", "10136": "Ġciting", "10137": "Ġtweets", "10138": "Ġutility", "10139": "arency", "10140": "cor", "10141": "Ġposting", "10142": "Ġridiculous", "10143": "Ġblockchain", "10144": "Ġcler", "10145": "ĠClark", "10146": "Ġspeaker", "10147": "âĶĢ", "10148": "Ġdiam", "10149": "Ø§", "10150": "Ġcorrupt", "10151": "Ġtalented", "10152": "Ġlect", "10153": "Ġcollaps", "10154": "Ġmask", "10155": "âĢĲ", "10156": "necess", "10157": "screen", "10158": "Ġnotable", "10159": "ĠTherefore", "10160": "Ġelder", "10161": "Ġgenre", "10162": "Ġdeadline", "10163": "Ġrolling", "10164": "Ġcarries", "10165": "ĠBM", "10166": "gus", "10167": "Top", "10168": "ĠFinal", "10169": "via", "10170": "ĠET", "10171": "ental", "10172": "Ġapproaches", "10173": "Ġeliminate", "10174": "ĠPriv", "10175": "Ġanalysts", "10176": "Ġsits", "10177": "Ġcens", "10178": "State", "10179": "Ġinstances", "10180": "ĠSimon", "10181": "Ġpublishing", "10182": "Ġunprecedented", "10183": "Ġcolour", "10184": "ĠVe", "10185": "Ġroots", "10186": "ĠPhoenix", "10187": "VP", "10188": "Ġcock", "10189": "Ġbene", "10190": "ĠPsych", "10191": "Ġtoxic", "10192": "Ġcollaboration", "10193": "Ġarc", "10194": "Ġinequality", "10195": "Ġneighbors", "10196": "Ġinsight", "10197": "Ġdramatically", "10198": "ĠHarper", "10199": "Ġhomosexual", "10200": "Ġprize", "10201": "Ġtowns", "10202": "Ġextraordinary", "10203": "Ġperception", "10204": "ĠGordon", "10205": "ĠWhether", "10206": "ĠPhill", "10207": "Ġparad", "10208": "arget", "10209": "Ġgest", "10210": "Ġmaintenance", "10211": "owski", "10212": "rowing", "10213": "ĠGro", "10214": "ĠGO", "10215": "Ġcheaper", "10216": "isdom", "10217": "Ġassociate", "10218": "Ġcoup", "10219": "Mark", "10220": "ĠEvent", "10221": "Ġsheet", "10222": "ĠBow", "10223": "ĠBelow", "10224": "ĠSav", "10225": "ĠCaptain", "10226": "pack", "10227": "Ġcognitive", "10228": "Ġencouraging", "10229": "Ġdreams", "10230": "ĠPers", "10231": "Ġseized", "10232": "Ġinterviewed", "10233": "Ġdeployed", "10234": "Ġviolations", "10235": "Ġcamps", "10236": "Ġcomics", "10237": "Ġconstitu", "10238": "ĠReagan", "10239": "Ġreserved", "10240": "Ġbuck", "10241": "Ġemployers", "10242": "Ġaims", "10243": "atus", "10244": "Ġfunctional", "10245": "Ġmystery", "10246": "Ġdisplayed", "10247": "Paul", "10248": "iban", "10249": "Ġspan", "10250": "Ġloop", "10251": "Ġdelight", "10252": "apore", "10253": "cre", "10254": "AB", "10255": "Ġtraged", "10256": "ĠEconomic", "10257": "ixture", "10258": "ĠSa", "10259": "Ġ57", "10260": "ricane", "10261": "Ġglad", "10262": "Ġoccasionally", "10263": "Ġvend", "10264": "Ġexport", "10265": "TON", "10266": "Ġbirthday", "10267": "Ġheroes", "10268": "Ġfatal", "10269": "estyle", "10270": "oga", "10271": "Ġcorrectly", "10272": "ĠStew", "10273": "Ġprompted", "10274": "wa", "10275": "Ġstamp", "10276": "ĠCole", "10277": "elle", "10278": "Ġcontemporary", "10279": "ĠAccess", "10280": "ĠJenn", "10281": "Ġprospects", "10282": "oting", "10283": "endar", "10284": "Ġirre", "10285": "vi", "10286": "Ġrecommendations", "10287": "mir", "10288": "Ġdiplomatic", "10289": "throp", "10290": "Ġpa", "10291": "ighth", "10292": "Ġbell", "10293": "Ġparallel", "10294": "Ġexclud", "10295": "eling", "10296": "Ġconstitution", "10297": "onz", "10298": "Ġdisappointed", "10299": "Ġmanufacturers", "10300": "Ġadequ", "10301": "Ġintr", "10302": "ĠStaff", "10303": "Ġmoderate", "10304": "ĠEver", "10305": "ĠDog", "10306": "Ġecosystem", "10307": "Ġaccompan", "10308": "Time", "10309": "Ġdemanded", "10310": "Ġ85", "10311": "ĠGDP", "10312": "ĠPhotos", "10313": "Ġnose", "10314": "ĠMontreal", "10315": "ĠDick", "10316": "ailable", "10317": "Ġinterpre", "10318": "Ġpleased", "10319": "2017", "10320": "Ġlabour", "10321": "Ġlifetime", "10322": "ĠBrooklyn", "10323": "ĠTax", "10324": "ĠEst", "10325": "ĠReserve", "10326": "rock", "10327": "Ġcommunicate", "10328": "Ġfights", "10329": "Ġmodified", "10330": "Ġdrunk", "10331": "ĠOcean", "10332": "Ġsessions", "10333": "Ġwedding", "10334": "Ġknock", "10335": "Ġexplosion", "10336": "ĠLibrary", "10337": "Ġbiological", "10338": "Ġlanded", "10339": "Ġrepair", "10340": "ĠEPA", "10341": "Ġ58", "10342": "ĠAuthority", "10343": "Ġsubsc", "10344": "Ġrepresentation", "10345": "ĠGiven", "10346": "ĠBol", "10347": "Ġartificial", "10348": "250", "10349": "leans", "10350": "fit", "10351": "Fi", "10352": "Ġrelation", "10353": "Ġowns", "10354": "ĠKhan", "10355": "ixon", "10356": "ĠAntonio", "10357": "ĠDigital", "10358": "Ġlift", "10359": "agen", "10360": "Ġdesigner", "10361": "rot", "10362": "Ġrecon", "10363": "Thanks", "10364": "Ġemp", "10365": "Ġconsciousness", "10366": "Ġkicked", "10367": "ĠOrder", "10368": "Ġdefender", "10369": "Ġhanging", "10370": "Ġlessons", "10371": "hist", "10372": "Ġimposed", "10373": "Ġguests", "10374": "Ġadopt", "10375": "Ġanonymous", "10376": "150", "10377": "Ġsli", "10378": "Ġconcerning", "10379": "wind", "10380": "Ġpregnant", "10381": "ĠFive", "10382": "incoln", "10383": "ĠBul", "10384": "Ġunderground", "10385": "acre", "10386": "Ġmaintaining", "10387": "Ġasset", "10388": "ĠAlan", "10389": "Ġpunch", "10390": "ĠRome", "10391": "ols", "10392": "bourne", "10393": "Ġshirt", "10394": "Ġingredients", "10395": ")<>", "10396": "Update", "10397": "Ġcheese", "10398": "wed", "10399": "Ġintellig", "10400": "isition", "10401": "ĠChannel", "10402": "ĠConvention", "10403": "Ġpodcast", "10404": "Ġinterior", "10405": "graph", "10406": "\":\"", "10407": "Ġemotions", "10408": "ching", "10409": "human", "10410": "Ġabstract", "10411": "ĠArgent", "10412": "Ġcouples", "10413": "Ġlesson", "10414": "Ġcreature", "10415": "Ġresolve", "10416": "Ġshocked", "10417": "Ġoppose", "10418": "Whe", "10419": "Ġsummit", "10420": "Ġperformances", "10421": "ĠSU", "10422": "Ġvolunteers", "10423": "ĠBurn", "10424": "Dis", "10425": "Ġsoldier", "10426": "Ñĥ", "10427": "some", "10428": "Ġstimul", "10429": "Ġlogo", "10430": "à¤", "10431": "appropri", "10432": "istant", "10433": "Ġterr", "10434": "Ġvocal", "10435": "Ġaccum", "10436": "Ġgirlfriend", "10437": "ĠProtection", "10438": "ben", "10439": "ĠDur", "10440": "ulty", "10441": "SE", "10442": "Ġjumped", "10443": "Ġannoy", "10444": "ĠPage", "10445": "Ġjihad", "10446": "Ġmile", "10447": "Ġnurs", "10448": "ĠLear", "10449": "user", "10450": "Ġmilitants", "10451": "acles", "10452": "Ġguid", "10453": "ĠFant", "10454": "ĠMissouri", "10455": "Ġprofessionals", "10456": "Gener", "10457": "(\"", "10458": "ĠAnna", "10459": "ikh", "10460": "Instead", "10461": "Ġbutter", "10462": "ials", "10463": "Ġswit", "10464": "Ġrefers", "10465": "Ġdesktop", "10466": "dr", "10467": "Ġtraveling", "10468": "Ġlibr", "10469": "gets", "10470": "Ġisolated", "10471": "Ġforum", "10472": "Ġadvocate", "10473": "Ġexisted", "10474": "ĠLim", "10475": "Ġopposing", "10476": "ĠCoal", "10477": "gate", "10478": "Ġrecalled", "10479": "Next", "10480": "Station", "10481": "ĠCase", "10482": "ĠHan", "10483": "Israel", "10484": "Ġ600", "10485": "Ġintegration", "10486": "Ġdescribing", "10487": "Ġboxes", "10488": "ĠJavaScript", "10489": "ĠOrleans", "10490": "early", "10491": "Ġstro", "10492": "CD", "10493": "ĠMail", "10494": "Ġminimal", "10495": "ĠHal", "10496": "tainment", "10497": "Ġconfused", "10498": "ĠCustom", "10499": "ĠSD", "10500": "umph", "10501": "Ġpeaceful", "10502": "Ġinherent", "10503": "abe", "10504": "odge", "10505": "cal", "10506": "Ġsurrounded", "10507": "Ġvert", "10508": "owned", "10509": "ĠCapitol", "10510": "hattan", "10511": "ĠHand", "10512": "commun", "10513": "Ġholes", "10514": "Ġmeal", "10515": "Ġ1989", "10516": "Ġintegrity", "10517": "ĠKnow", "10518": "ĠPlayer", "10519": "Ġpm", "10520": "ĠBarb", "10521": "Ġinspiration", "10522": "Ġconfiguration", "10523": "ĠRs", "10524": "Ġsne", "10525": "ĠTrust", "10526": "ĠBan", "10527": "hero", "10528": "ðŁ", "10529": "Ġexpense", "10530": "Ġcredits", "10531": "ĠNon", "10532": "Ġsubur", "10533": "Ġelectoral", "10534": "Ġideology", "10535": "Ġyell", "10536": "Ġsilent", "10537": "Ġdual", "10538": "ĠMarine", "10539": "ĠDoctor", "10540": "Ġstack", "10541": "Ġsuspic", "10542": "Ġburied", "10543": "TE", "10544": "ĠNevada", "10545": "iens", "10546": "Ã§", "10547": "imize", "10548": "Ġdesperate", "10549": "ĠOcc", "10550": "starter", "10551": "Ðº", "10552": "Ġscream", "10553": "Ġclip", "10554": "Ġchoosing", "10555": "Ġbombs", "10556": "Trans", "10557": "ĠCB", "10558": "Ġbands", "10559": "Ġteammates", "10560": "Ġfleet", "10561": "ĠSH", "10562": "âĢ¦.", "10563": "Ġconvert", "10564": "Ġacceptable", "10565": "tra", "10566": "ĠOrlando", "10567": "ibl", "10568": "Ġjer", "10569": "Gu", "10570": "ĠWright", "10571": "Ġregistration", "10572": "List", "10573": "ĠPortug", "10574": "ĠHitler", "10575": "Ġbrutal", "10576": "SU", "10577": "awks", "10578": "Net", "10579": "ĠMove", "10580": "Ġscar", "10581": "Ġancest", "10582": "ĠOnline", "10583": "ĠAlliance", "10584": "election", "10585": "Ġsubscribe", "10586": "Ġstruggles", "10587": "Ġkeyboard", "10588": "Ġmomentum", "10589": "ĠLeban", "10590": "ĠArea", "10591": "aro", "10592": "Ġpromotion", "10593": "ĠArsenal", "10594": "ĠVen", "10595": "Ġevident", "10596": "Fl", "10597": "Ġquit", "10598": "hire", "10599": "father", "10600": "Name", "10601": "Ġorganisation", "10602": "Ġwondering", "10603": "ĠIndones", "10604": "Ġclosest", "10605": "mits", "10606": "too", "10607": "Ġembrace", "10608": "ĠSteel", "10609": "books", "10610": "ĠFollowing", "10611": "Ġrefugee", "10612": "ĠHamp", "10613": "Ġteeth", "10614": "ART", "10615": "Ġprobe", "10616": "Ġutter", "10617": "Speaking", "10618": "chell", "10619": "Ġathe", "10620": "ĠWord", "10621": "Ġoccasional", "10622": "Ġmonster", "10623": "strong", "10624": "Ġassembly", "10625": "Ġbankrupt", "10626": "Ġreferences", "10627": "isd", "10628": "Ġjournalism", "10629": "Ġexpenses", "10630": "Ġsubsequently", "10631": "oub", "10632": "stop", "10633": "oker", "10634": "Ġpride", "10635": "Ġguards", "10636": "ĠMun", "10637": "Ġinterpretation", "10638": "ĠVenezuel", "10639": "Ġyeah", "10640": "ï¼", "10641": "Ġlin", "10642": "hr", "10643": "grad", "10644": "Ġremoving", "10645": "Ġorbit", "10646": "Gl", "10647": "ĠIndependent", "10648": "ĠWrit", "10649": "Ġprofound", "10650": "ipedia", "10651": "rett", "10652": "2012", "10653": "ĠPittsburgh", "10654": "Ġcompromise", "10655": "Ġknife", "10656": "Ġdistricts", "10657": "Ġexclusively", "10658": "Ġsurvived", "10659": "ĠSource", "10660": "Ġconsiderable", "10661": "Ġmathemat", "10662": "Ġstating", "10663": "Ġengaging", "10664": "ĠCould", "10665": "Ġrefuse", "10666": "Ġbird", "10667": "Ġcharacteristics", "10668": "ĠMountain", "10669": "Ġlobb", "10670": "ĠRaj", "10671": "Ġjustify", "10672": "Ġdominated", "10673": "HP", "10674": "Ġ72", "10675": "QL", "10676": "Ġbriefly", "10677": "ĠNazi", "10678": "bound", "10679": "arson", "10680": "ĠRest", "10681": "Ġchip", "10682": "Ġministers", "10683": "Ġprost", "10684": "Ġelectron", "10685": "Ġtremendous", "10686": "Ġcontrary", "10687": "rend", "10688": "Ġgri", "10689": "Ġsustainable", "10690": "Share", "10691": "Ġloaded", "10692": "Ġflour", "10693": "Ġdisappear", "10694": "Ġnervous", "10695": "Ġroutes", "10696": "orneys", "10697": "Ġproportion", "10698": "Ġsophistic", "10699": "attered", "10700": "Ġexecuted", "10701": "ocated", "10702": "elve", "10703": "ĠDuke", "10704": "utter", "10705": "Ġasylum", "10706": "ĠEveryone", "10707": "Ġgameplay", "10708": "Ġsexually", "10709": "inst", "10710": "Thank", "10711": "Hey", "10712": "ĠBu", "10713": "Ġpir", "10714": "Ġdonors", "10715": "Ġconfusion", "10716": "ĠDream", "10717": "Ġrevolutionary", "10718": "amine", "10719": "cap", "10720": "ĠAaron", "10721": "ĠAndy", "10722": "ĠPant", "10723": "Ġcurious", "10724": "ĠTreasury", "10725": "Ġharsh", "10726": "limited", "10727": "lihood", "10728": "income", "10729": "KE", "10730": "Ġattending", "10731": "Ġ800", "10732": "ĠAdams", "10733": "immer", "10734": "ĠIM", "10735": "Ã¨", "10736": "security", "10737": "UC", "10738": "Ġspeakers", "10739": "Ã³n", "10740": "Ġcabinet", "10741": "Ġnowhere", "10742": "Ag", "10743": "reek", "10744": "Ġflee", "10745": "Ġvoid", "10746": "Ġbrands", "10747": "Ġchronic", "10748": "Ġprinted", "10749": "ĠTesla", "10750": "ĠShort", "10751": "Ġcharging", "10752": "Ġengines", "10753": "Ġphysics", "10754": "reck", "10755": "anim", "10756": "ĠHaving", "10757": "function", "10758": "urse", "10759": "ĠMult", "10760": "Ġconcert", "10761": "scar", "10762": "ĠSheriff", "10763": "inge", "10764": "Ġoutcomes", "10765": "ĠAren", "10766": "ĠOfficer", "10767": "MAN", "10768": "ublished", "10769": "olid", "10770": "otte", "10771": "Ġorient", "10772": "Ġmirror", "10773": "Ġstrengthen", "10774": "ĠGib", "10775": "ĠJun", "10776": "thood", "10777": "Ġfails", "10778": "opt", "10779": "Ġspo", "10780": ".]", "10781": "Ġobser", "10782": "Ġchaos", "10783": "Ġpassenger", "10784": "ĠiPad", "10785": "ĠCurrent", "10786": "Ġcriminals", "10787": "Ġfel", "10788": "ĠSpir", "10789": "Ġsteady", "10790": "ĠRobinson", "10791": "Red", "10792": "700", "10793": "ĠNether", "10794": "merce", "10795": "ĠÂ±", "10796": "Ġrobust", "10797": "ĠCON", "10798": "ĠManhattan", "10799": "white", "10800": "IE", "10801": "Ġendors", "10802": "Ġspeculation", "10803": "ĠChange", "10804": "reshold", "10805": "Ġcertific", "10806": "Ġdeemed", "10807": "ĠTaliban", "10808": "Ġdropping", "10809": "Ġhiring", "10810": "ĠNorm", "10811": "ĠGiants", "10812": "ĠSingapore", "10813": "ĠAlp", "10814": "Ġintegrated", "10815": "ĠPerry", "10816": "Ġpresents", "10817": "Ġavo", "10818": "ĠTs", "10819": "ĠBand", "10820": "ĠFA", "10821": "Ġguaranteed", "10822": "apper", "10823": "Ġfert", "10824": "Ġepic", "10825": "Ġleaked", "10826": "ĠKings", "10827": "Ġpackages", "10828": "mble", "10829": "Ġpleasure", "10830": "BN", "10831": "ele", "10832": "Ġsuspension", "10833": "Ġchallenged", "10834": "Ġpacked", "10835": "good", "10836": "Ġchecking", "10837": "à¸", "10838": "Ġbits", "10839": "Ġvit", "10840": "Ġengagement", "10841": "Ġradiation", "10842": "Ġslot", "10843": "Ġbombing", "10844": "ĠHu", "10845": "Ġpatri", "10846": "leep", "10847": "Ġda", "10848": "Ġalert", "10849": "Pal", "10850": "istle", "10851": "Ġwet", "10852": "rics", "10853": "Ġhunting", "10854": "ĠUSB", "10855": "ĠTel", "10856": "riv", "10857": "Äģ", "10858": "ÃĥÃĤÃĥÃĤÃĥÃĤÃĥÃĤ", "10859": "Ġproduces", "10860": "Ġwitnesses", "10861": "ĠCraig", "10862": "ophob", "10863": "Ġeditorial", "10864": "Ġdefended", "10865": "Ġrecovered", "10866": "ĠHoly", "10867": "mented", "10868": "Ġdevelopments", "10869": "Ġsimultaneously", "10870": "Ġboom", "10871": "Ġbacteria", "10872": "ĠLog", "10873": "Ġblocking", "10874": "Right", "10875": "ĠLater", "10876": "Ġ59", "10877": "Ġattracted", "10878": "Ġ66", "10879": "Ġfigured", "10880": "ĠOpp", "10881": "Ġcorrel", "10882": "ĠHung", "10883": "Ġalliance", "10884": "Ġresearcher", "10885": "Ġtaxpayers", "10886": "ĠEntertainment", "10887": "ĠLes", "10888": "ĠNone", "10889": "Ġcaps", "10890": "card", "10891": "ĠJeremy", "10892": "Ġhosts", "10893": "Ġcinem", "10894": "Ġpatent", "10895": "ĠRussians", "10896": "izarre", "10897": "Ġexamine", "10898": "ATCH", "10899": "ĠFuture", "10900": "Ġvariables", "10901": "aste", "10902": "ĠLincoln", "10903": "ifier", "10904": "Ġoxy", "10905": "Ġembed", "10906": "--------------------------------", "10907": "Ġjunior", "10908": "lynn", "10909": "ateful", "10910": "Black", "10911": "ĠGh", "10912": "uter", "10913": "oned", "10914": "ĠChairman", "10915": "Ġpublish", "10916": "ĠTower", "10917": "JP", "10918": "Ġtear", "10919": "Ġ62", "10920": "Ġmeth", "10921": "gly", "10922": "Ġbreast", "10923": "ĠVlad", "10924": "DR", "10925": "Ġvent", "10926": "ĠPoland", "10927": "Car", "10928": "ĠUkrainian", "10929": "ĠStudies", "10930": "adesh", "10931": "gged", "10932": "dep", "10933": "Ġenact", "10934": "may", "10935": "ĠDak", "10936": "Ġflights", "10937": "omic", "10938": "Ġaccuracy", "10939": "Ġflav", "10940": "ĠBor", "10941": "ĠWi", "10942": "Ġdistribut", "10943": "Ġlos", "10944": "Ġimpacts", "10945": "ĠKit", "10946": "Ġsurprisingly", "10947": "Ġsolo", "10948": "Ġraises", "10949": "Ġburned", "10950": "Ġric", "10951": "ĠSci", "10952": "Ġangle", "10953": "secutive", "10954": "ĠWould", "10955": "Ġevac", "10956": "Ġqualified", "10957": "Ġdecrease", "10958": "ĠCPU", "10959": "oft", "10960": "nie", "10961": "vas", "10962": "Ġevolved", "10963": "Ġflavor", "10964": "olitical", "10965": "test", "10966": "Ġunnecess", "10967": "bin", "10968": "aco", "10969": "Ġassemb", "10970": "ĠTotal", "10971": "Ġintimid", "10972": "wich", "10973": "imir", "10974": "Ġcourtesy", "10975": "ĠOR", "10976": "Cor", "10977": "ERE", "10978": "Ġfingers", "10979": "ĠMPs", "10980": "rition", "10981": "Ġproductive", "10982": "Ġvoc", "10983": "Ġblamed", "10984": "etheless", "10985": "ĠHIV", "10986": "Ġdependent", "10987": "Ġexpecting", "10988": "Ġtransferred", "10989": "ĠRangers", "10990": "Ġenabled", "10991": "Ġidentical", "10992": "Ġvisits", "10993": "nan", "10994": "Ġexpects", "10995": "Ġlane", "10996": "ĠGill", "10997": "dict", "10998": "Ġignor", "10999": "ĠUb", "11000": "Ġaccord", "11001": "ĠGriff", "11002": "terror", "11003": "ishers", "11004": "Book", "11005": "ĠStewart", "11006": "Ġventure", "11007": "ĠCC", "11008": "Ġbarg", "11009": "Br", "11010": "Ġshops", "11011": "Ġdeparture", "11012": "ĠCommand", "11013": "iere", "11014": "ĠMississ", "11015": "TO", "11016": "Ġkiller", "11017": "Ġrepeal", "11018": "Ġmotivated", "11019": "Ġrestore", "11020": "Ġagreements", "11021": "ĠDu", "11022": "Ġconflicts", "11023": "Ġorganis", "11024": "thodox", "11025": "Ġscared", "11026": "Ġforgotten", "11027": "ĠThink", "11028": "iden", "11029": "icked", "11030": "ulse", "11031": "Ġinher", "11032": "Ġnationwide", "11033": "ĠEdition", "11034": "bian", "11035": "Ġcycl", "11036": "Ġinfluenced", "11037": "Ġcriteria", "11038": "ĠNi", "11039": "ernand", "11040": "Ġoccupied", "11041": "Ġanimation", "11042": "ĠBC", "11043": "Ġtrailer", "11044": "Ġranking", "11045": "ĠPope", "11046": "ĠShould", "11047": "ĠThings", "11048": "Ġ`", "11049": "Ġbacks", "11050": "ahoo", "11051": "Ġtelephone", "11052": "df", "11053": "Ġoccasion", "11054": "about", "11055": "unity", "11056": "Ġanalys", "11057": "ĠReddit", "11058": "Ġfunctionality", "11059": "Ġchecked", "11060": "Ġconcentration", "11061": "ĠModel", "11062": "looking", "11063": "Ġhouseholds", "11064": "link", "11065": "Ġreass", "11066": "onduct", "11067": "Ġalgorithm", "11068": "Ġcourage", "11069": "rah", "11070": "ressing", "11071": "ĠSupport", "11072": "oup", "11073": "Ġpromoted", "11074": "ĠHug", "11075": "Ġimprison", "11076": "aments", "11077": "Ġexplicitly", "11078": "Ġbatter", "11079": "iar", "11080": "leted", "11081": "Ġdesp", "11082": "Ġbabies", "11083": "Ġtanks", "11084": "Ġought", "11085": "Ġstatic", "11086": "ĠProduct", "11087": "Ġreleasing", "11088": "Ġantib", "11089": "ĠPlace", "11090": "rike", "11091": "Ġsubtle", "11092": "Former", "11093": "ILL", "11094": "Ġstats", "11095": "Ġbases", "11096": "Ġstrip", "11097": "Ġdoct", "11098": "large", "11099": "uating", "11100": "Gr", "11101": "Ġprivilege", "11102": "ĠJerry", "11103": "ĠMoreover", "11104": "agine", "11105": "ĠEnt", "11106": "ippi", "11107": "ĠWarner", "11108": "ĠNO", "11109": "Ġmeters", "11110": "Ġentrance", "11111": "MB", "11112": "bat", "11113": "Ġtower", "11114": "Ġinvestigated", "11115": "Three", "11116": "Ġsenators", "11117": "zone", "11118": "ĠCold", "11119": "ĠCanadians", "11120": "Ġhub", "11121": "Ġwise", "11122": "Ġoverl", "11123": "Ġapplies", "11124": "Ġformula", "11125": "ĠStandard", "11126": "ĠEb", "11127": "ollar", "11128": "ĠEgyptian", "11129": "Ġmart", "11130": "ĠChristopher", "11131": "Ġinevitable", "11132": "breaking", "11133": "Ġuncertainty", "11134": "Ġprovider", "11135": "actor", "11136": "Ġpainting", "11137": "Ġcontinu", "11138": "Ġmodest", "11139": "Ġlens", "11140": "Ġinfluential", "11141": "Ġdestination", "11142": "ĠQueens", "11143": "Ġunre", "11144": "ĠMap", "11145": "forward", "11146": "izations", "11147": "Ġchips", "11148": "being", "11149": "Supp", "11150": "Ġally", "11151": "Ġinfection", "11152": "Ġdimin", "11153": "leading", "11154": "\",\"", "11155": "ĠUnivers", "11156": "Ġjet", "11157": "kes", "11158": "Ġsolely", "11159": "Ġbelt", "11160": "Ġscrew", "11161": "Ġinaug", "11162": "Ġ63", "11163": "Ġinsist", "11164": "Good", "11165": "Yeah", "11166": "rying", "11167": "ĠTR", "11168": "ĠNiger", "11169": "Ġtheft", "11170": "uccess", "11171": "ĠMarg", "11172": "Ġpolitician", "11173": "ĠAlaska", "11174": "Ġtransparency", "11175": "ĠPlayStation", "11176": "Ġinvested", "11177": "Ġsinger", "11178": "Ġimmune", "11179": "ĠOttawa", "11180": "Ġprovisions", "11181": "istance", "11182": "ĠStock", "11183": "town", "11184": "Ġhandled", "11185": "Ġpy", "11186": "overs", "11187": "Ġuncomfort", "11188": "ampa", "11189": "ĠOlympics", "11190": "ĠLouisiana", "11191": "Ġimpressed", "11192": "Ġinbox", "11193": "ĠOil", "11194": "Ġoperator", "11195": "SD", "11196": "ardo", "11197": "untu", "11198": "ĠNetherlands", "11199": "Em", "11200": "Ġballs", "11201": "Ġtent", "11202": "ilation", "11203": "ĠJane", "11204": "non", "11205": "Ġcolleg", "11206": "Ġbol", "11207": "Ġsimilarly", "11208": "Ġlifestyle", "11209": "offs", "11210": "Ġheadlines", "11211": "idal", "11212": "Ġboards", "11213": "rifice", "11214": "ĠTrek", "11215": "comp", "11216": "Ġdisabled", "11217": "ĠKr", "11218": "thur", "11219": "ante", "11220": "ixel", "11221": "ĠStanley", "11222": "Ġoperated", "11223": "olas", "11224": "Ġregarded", "11225": "var", "11226": "ĠType", "11227": "Ġlaunching", "11228": "ĠSN", "11229": "Ġreluct", "11230": "ĠExp", "11231": "achment", "11232": "wall", "11233": "Down", "11234": "ĠMother", "11235": "Ġvolunt", "11236": "Ġphotographs", "11237": "such", "11238": "Ġkidn", "11239": "ĠDrug", "11240": "?âĢĻ", "11241": "Ġsake", "11242": "citation", "11243": "Ġkeen", "11244": "Ġdetention", "11245": "track", "11246": "rc", "11247": "Ġconsecutive", "11248": "Obama", "11249": "Ġgym", "11250": "ĠUnlike", "11251": "million", "11252": "inite", "11253": ").[", "11254": "ĠBlood", "11255": "gov", "11256": "?)", "11257": "Ġprosecutor", "11258": "Ġfilter", "11259": "ĠDa", "11260": "Ġprosecution", "11261": "keley", "11262": "Ġsuck", "11263": "oning", "11264": "anguage", "11265": "Ġconviction", "11266": "ige", "11267": "uther", "11268": "Ġearthqu", "11269": "Ġlean", "11270": "Ġrolled", "11271": "Ġkiss", "11272": "ĠTable", "11273": "armed", "11274": "ista", "11275": "Ġinex", "11276": "ĠModi", "11277": "erald", "11278": "orate", "11279": "ĠCorporation", "11280": "ĠCaption", "11281": "tarian", "11282": "ĠCorp", "11283": "bitious", "11284": "Ġbulk", "11285": "first", "11286": "ĠHampshire", "11287": "Ġmales", "11288": "ĠFO", "11289": "ĠBir", "11290": "Jo", "11291": "Ġtears", "11292": "Ġtragedy", "11293": "Ġchocolate", "11294": "Ġmouse", "11295": "Ġpoet", "11296": "Ġpreserve", "11297": "llor", "11298": "Ġguidance", "11299": "ĠFather", "11300": "ĠBeing", "11301": "ĠSche", "11302": "Ġleak", "11303": "ĠPhilippines", "11304": "Bel", "11305": "ĠForest", "11306": "urches", "11307": "Ġnu", "11308": "assion", "11309": "Ġbags", "11310": "ĠSeveral", "11311": "Ġreck", "11312": "block", "11313": "Ġdestro", "11314": "Ġexamined", "11315": "Ġsynd", "11316": "Ġaccepting", "11317": "Ġelabor", "11318": "Ġmissiles", "11319": "Ġabsurd", "11320": "rin",
[...]
