{
  "0": "Ā",
  "1": "ā",
  "2": "Ă",
  "3": "ă",
  "4": "Ą",
  "5": "ą",
  "6": "Ć",
  "7": "ć",
  "8": "Ĉ",
  "9": "ĉ",
  "10": "Ċ",
  "11": "ċ",
  "12": "Č",
  "13": "č",
  "14": "Ď",
  "15": "ď",
  "16": "Đ",
  "17": "đ",
  "18": "Ē",
  "19": "ē",
  "20": "Ĕ",
  "21": "ĕ",
  "22": "Ė",
  "23": "ė",
  "24": "Ę",
  "25": "ę",
  "26": "Ě",
  "27": "ě",
  "28": "Ĝ",
  "29": "ĝ",
  "30": "Ğ",
  "31": "ğ",
  "32": "Ġ",
  "33": "!",
  "34": "\"",
  "35": "#",
  "36": "$",
  "37": "%",
  "38": "&",
  "39": "'",
  "40": "(",
  "41": ")",
  "42": "*",
  "43": "+",
  "44": ",",
  "45": "-",
  "46": ".",
  "47": "/",
  "48": "0",
  "49": "1",
  "50": "2",
  "51": "3",
  "52": "4",
  "53": "5",
  "54": "6",
  "55": "7",
  "56": "8",
  "57": "9",
  "58": ":",
  "59": ";",
  "60": "<",
  "61": "=",
  "62": ">",
  "63": "?",
  "64": "@",
  "65": "A",
  "66": "B",
  "67": "C",
  "68": "D",
  "69": "E",
  "70": "F",
  "71": "G",
  "72": "H",
  "73": "I",
  "74": "J",
  "75": "K",
  "76": "L",
  "77": "M",
  "78": "N",
  "79": "O",
  "80": "P",
  "81": "Q",
  "82": "R",
  "83": "S",
  "84": "T",
  "85": "U",
  "86": "V",
  "87": "W",
  "88": "X",
  "89": "Y",
  "90": "Z",
  "91": "[",
  "92": "\\",
  "93": "]",
  "94": "^",
  "95": "_",
  "96": "`",
  "97": "a",
  "98": "b",
  "99": "c",
  "100": "d",
  "101": "e",
  "102": "f",
  "103": "g",
  "104": "h",
  "105": "i",
  "106": "j",
  "107": "k",
  "108": "l",
  "109": "m",
  "110": "n",
  "111": "o",
  "112": "p",
  "113": "q",
  "114": "r",
  "115": "s",
  "116": "t",
  "117": "u",
  "118": "v",
  "119": "w",
  "120": "x",
  "121": "y",
  "122": "z",
  "123": "{",
  "124": "|",
  "125": "}",
  "126": "~",
  "127": "ġ",
  "128": "Ģ",
  "129": "ģ",
  "130": "Ĥ",
  "131": "ĥ",
  "132": "Ħ",
  "133": "ħ",
  "134": "Ĩ",
  "135": "ĩ",
  "136": "Ī",
  "137": "ī",
  "138": "Ĭ",
  "139": "ĭ",
  "140": "Į",
  "141": "į",
  "142": "İ",
  "143": "ı",
  "144": "Ĳ",
  "145": "ĳ",
  "146": "Ĵ",
  "147": "ĵ",
  "148": "Ķ",
  "149": "ķ",
  "150": "ĸ",
  "151": "Ĺ",
  "152": "ĺ",
  "153": "Ļ",
  "154": "ļ",
  "155": "Ľ",
  "156": "ľ",
  "157": "Ŀ",
  "158": "ŀ",
  "159": "Ł",
  "160": "ł",
  "161": "¡",
  "162": "¢",
  "163": "£",
  "164": "¤",
  "165": "¥",
  "166": "¦",
  "167": "§",
  "168": "¨",
  "169": "©",
  "170": "ª",
  "171": "«",
  "172": "¬",
  "173": "Ń",
  "174": "®",
  "175": "¯",
  "176": "°",
  "177": "±",
  "178": "²",
  "179": "³",
  "180": "´",
  "181": "µ",
  "182": "¶",
  "183": "·",
  "184": "¸",
  "185": "¹",
  "186": "º",
  "187": "»",
  "188": "¼",
  "189": "½",
  "190": "¾",
  "191": "¿",
  "192": "À",
  "193": "Á",
  "194": "Â",
  "195": "Ã",
  "196": "Ä",
  "197": "Å",
  "198": "Æ",
  "199": "Ç",
  "200": "È",
  "201": "É",
  "202": "Ê",
  "203": "Ë",
  "204": "Ì",
  "205": "Í",
  "206": "Î",
  "207": "Ï",
  "208": "Ð",
  "209": "Ñ",
  "210": "Ò",
  "211": "Ó",
  "212": "Ô",
  "213": "Õ",
  "214": "Ö",
  "215": "×",
  "216": "Ø",
  "217": "Ù",
  "218": "Ú",
  "219": "Û",
  "220": "Ü",
  "221": "Ý",
  "222": "Þ",
  "223": "ß",
  "224": "à",
  "225": "á",
  "226": "â",
  "227": "ã",
  "228": "ä",
  "229": "å",
  "230": "æ",
  "231": "ç",
  "232": "è",
  "233": "é",
  "234": "ê",
  "235": "ë",
  "236": "ì",
  "237": "í",
  "238": "î",
  "239": "ï",
  "240": "ð",
  "241": "ñ",
  "242": "ò",
  "243": "ó",
  "244": "ô",
  "245": "õ",
  "246": "ö",
  "247": "÷",
  "248": "ø",
  "249": "ù",
  "250": "ú",
  "251": "û",
  "252": "ü",
  "253": "ý",
  "254": "þ",
  "255": "ÿ",
  "256": "Ġt",
  "257": "he",
  "258": "Ġa",
  "259": "Ġs",
  "260": "Ġw",
  "261": "nd",
  "262": "Ġthe",
  "263": "ed",
  "264": "Ġb",
  "265": "Ġto",
  "266": "Ġand",
  "267": "Ġh",
  "268": "Ġf",
  "269": "in",
  "270": "ĠT",
  "271": "Ġwa",
  "272": "re",
  "273": "it",
  "274": "ou",
  "275": "Ġl",
  "276": "Ġd",
  "277": "Ġc",
  "278": "Ġp",
  "279": "ay",
  "280": "Ġm",
  "281": "er",
  "282": "Ġwas",
  "283": "om",
  "284": "ĠThe",
  "285": "Ġhe",
  "286": "is",
  "287": "ar",
  "288": "Ġn",
  "289": "im",
  "290": "on",
  "291": "Ġsa",
  "292": "id",
  "293": "ll",
  "294": "Ġha",
  "295": "Ġg",
  "296": "at",
  "297": "ĠS",
  "298": "ing",
  "299": "ot",
  "300": "en",
  "301": "an",
  "302": "le",
  "303": "or",
  "304": "ir",
  "305": "am",
  "306": "et",
  "307": "ĠH",
  "308": "Ġit",
  "309": "Ġth",
  "310": "ig",
  "311": "ĠThey",
  "312": "Ġin",
  "313": "il",
  "314": "Ġpl",
  "315": "ĠHe",
  "316": "Ġ\"",
  "317": "ow",
  "318": "ver",
  "319": "ri",
  "320": "ut",
  "321": "Ġbe",
  "322": "Ġu",
  "323": "Ġsaid",
  "324": "Ġplay",
  "325": "ith",
  "326": "Ġday",
  "327": "Ġwith",
  "328": "pp",
  "329": "On",
  "330": "Ġo",
  "331": "Ġy",
  "332": "oo",
  "333": "ked",
  "334": "Ġr",
  "335": "Ġher",
  "336": "ce",
  "337": "ĠI",
  "338": "ĠShe",
  "339": "ld",
  "340": "ĠTim",
  "341": "Ġhis",
  "342": "Ġst",
  "343": "ke",
  "344": "Ġe",
  "345": "Ġbig",
  "346": "nt",
  "347": "ck",
  "348": "Ġyou",
  "349": "very",
  "350": "st",
  "351": "ve",
  "352": "end",
  "353": "Ġon",
  "354": "un",
  "355": "Ġhapp",
  "356": "riend",
  "357": "Ġfriend",
  "358": "all",
  "359": "ily",
  "360": "ĠL",
  "361": "Ġthey",
  "362": "Ġwe",
  "363": "Ġhad",
  "364": "Ġnot",
  "365": "Ġli",
  "366": "Ġup",
  "367": "her",
  "368": "Ġwant",
  "369": "Ġof",
  "370": "ad",
  "371": "itt",
  "372": "<>",
  "373": "se",
  "374": "ĠB",
  "375": "Ġdo",
  "376": "Ġhappy",
  "377": "ent",
  "378": "Ġvery",
  "379": "ĠM",
  "380": "es",
  "381": "Ġthat",
  "382": "Ġsaw",
  "383": "One",
  "384": "'s",
  "385": "ould",
  "386": "Ġmom",
  "387": "Ġfor",
  "388": "Ġsh",
  "389": "ittle",
  "390": "Ġlittle",
  "391": "Ġso",
  "392": "Ġshe",
  "393": "ch",
  "394": "ime",
  "395": "Ġne",
  "396": "Ġnam",
  "397": ".\"",
  "398": "Ġtime",
  "399": "Ġk",
  "400": "ound",
  "401": "Ġthere",
  "402": "Ġnamed",
  "403": "Ġsm",
  "404": "Ġbo",
  "405": "Ġwere",
  "406": "ĠLily",
  "407": "Ġwanted",
  "408": "Ġbut",
  "409": "out",
  "410": "The",
  "411": "Ġfriends",
  "412": "ved",
  "413": "!\"",
  "414": "ht",
  "415": "ĠTom",
  "416": "ird",
  "417": "el",
  "418": "Ġbird",
  "419": "al",
  "420": "Ġan",
  "421": "ake",
  "422": "Ġtoo",
  "423": "ome",
  "424": "ĠIt",
  "425": "ug",
  "426": "ide",
  "427": "Ġwent",
  "428": "Ġwh",
  "429": "Ġhel",
  "430": "Once",
  "431": "Ġis",
  "432": "Ġall",
  "433": "Ġhelp",
  "434": "ue",
  "435": "Ġloo",
  "436": "Ġlo",
  "437": "ter",
  "438": "ĠA",
  "439": "Ġupon",
  "440": "ry",
  "441": "ore",
  "442": "ind",
  "443": "Ġfun",
  "444": "get",
  "445": "Ġtoy",
  "446": "ill",
  "447": "ame",
  "448": "Ġas",
  "449": "Ġat",
  "450": "ra",
  "451": "Ġj",
  "452": "Ġdid",
  "453": "gether",
  "454": "Ġre",
  "455": "ur",
  "456": "Ġse",
  "457": "Ġtogether",
  "458": "ack",
  "459": "Ġcat",
  "460": "ly",
  "461": "Ġtre",
  "462": "ood",
  "463": "ic",
  "464": "ted",
  "465": "Ġdog",
  "466": "Ġcould",
  "467": "Ġcan",
  "468": "Ġtheir",
  "469": "ard",
  "470": "ec",
  "471": "ark",
  "472": "Ġgir",
  "473": "Ġplayed",
  "474": "Ġhim",
  "475": "Ġball",
  "476": "?\"",
  "477": "Ġgirl",
  "478": "way",
  "479": "Ġro",
  "480": "Ġgo",
  "481": "hed",
  "482": "my",
  "483": "Ġare",
  "484": "Ġout",
  "485": "Ġle",
  "486": "Ġfr",
  "487": "ain",
  "488": "Ġkn",
  "489": "hen",
  "490": "Ġthem",
  "491": "um",
  "492": "'t",
  "493": "ax",
  "494": "Ġsad",
  "495": "ul",
  "496": "Ġboy",
  "497": "Ġtree",
  "498": "other",
  "499": "Ġhave",
  "500": "Ġman",
  "501": "Ġcl",
  "502": "Ġloved",
  "503": "Ġlooked",
  "504": "oug",
  "505": "Ġfound",
  "506": "Ġsp",
  "507": "Ġstar",
  "508": "ĠSue",
  "509": "one",
  "510": "hing",
  "511": "Ġsc",
  "512": "Ġback",
  "513": "own",
  "514": "ĠMax",
  "515": "are",
  "516": "Ġlike",
  "517": "ful",
  "518": "side",
  "519": "Ġme",
  "520": "Ġbec",
  "521": "Ġpark",
  "522": "ight",
  "523": "ong",
  "524": "Ġcar",
  "525": "op",
  "526": "elt",
  "527": "ĠOne",
  "528": "Ġliked",
  "529": "Ġwould",
  "530": "Ġmake",
  "531": "round",
  "532": "Ġla",
  "533": "Ġfa",
  "534": "Ġfelt",
  "535": "You",
  "536": "ĠW",
  "537": "ell",
  "538": "Ġsee",
  "539": "ĠBut",
  "540": "omet",
  "541": "Ġasked",
  "542": "ag",
  "543": "Ġnew",
  "544": "Ġno",
  "545": "ice",
  "546": "ĠSam",
  "547": "ouse",
  "548": "Ġstarted",
  "549": "ared",
  "550": "Ġcame",
  "551": "ĠBen",
  "552": "Ġal",
  "553": "Ġother",
  "554": "ought",
  "555": "iled",
  "556": "Ġsomet",
  "557": "Ġag",
  "558": "Ġgood",
  "559": "Ġsmall",
  "560": "ss",
  "561": "Ġbr",
  "562": "Ġsmiled",
  "563": "Ġsay",
  "564": "ried",
  "565": "ade",
  "566": "ings",
  "567": "ob",
  "568": "pot",
  "569": "Ġwor",
  "570": "Ġfind",
  "571": "Ġex",
  "572": "ia",
  "573": "Ġaway",
  "574": "ty",
  "575": "Ġput",
  "576": "Ġwhat",
  "577": "Ġsomething",
  "578": "Ġco",
  "579": "Ġfrom",
  "580": "Ġmade",
  "581": "Ġthought",
  "582": "ened",
  "583": "Ġhome",
  "584": "Ġplaying",
  "585": "ook",
  "586": "Ġevery",
  "587": "Ġwal",
  "588": "Ġmu",
  "589": "uc",
  "590": "ach",
  "591": "arn",
  "592": "ĠSpot",
  "593": "Ġran",
  "594": "ile",
  "595": "ĠF",
  "596": "ie",
  "597": "ĠJ",
  "598": "ave",
  "599": "Ġagain",
  "600": "Ġsome",
  "601": "Ġlaug",
  "602": "dd",
  "603": "Ġhouse",
  "604": "Ġdown",
  "605": "Ġfl",
  "606": "king",
  "607": "Ġtook",
  "608": "Ġscared",
  "609": "Ġpr",
  "610": "ny",
  "611": "ure",
  "612": "Ġtoys",
  "613": "Ġlearn",
  "614": "ĠYou",
  "615": "if",
  "616": "Ġwill",
  "617": "Ġbox",
  "618": "ick",
  "619": "ret",
  "620": "ab",
  "621": "ep",
  "622": "Ġmy",
  "623": "Ġaround",
  "624": "Ġthings",
  "625": "Ġyour",
  "626": "oud",
  "627": "Ġbl",
  "628": "uck",
  "629": "Ġwhen",
  "630": "ish",
  "631": "Ġlived",
  "632": "Ġfe",
  "633": "Ġthen",
  "634": "Ġsun",
  "635": "as",
  "636": "Ġsw",
  "637": ",\"",
  "638": "Ġch",
  "639": "us",
  "640": "pped",
  "641": "Ġab",
  "642": "ĠMia",
  "643": "ank",
  "644": "Ġget",
  "645": "ucy",
  "646": "Tim",
  "647": "ump",
  "648": "Th",
  "649": "Ġlot",
  "650": "ist",
  "651": "oth",
  "652": "Ġtried",
  "653": "ap",
  "654": "Ġknow",
  "655": "Ġsays",
  "656": "Ġgot",
  "657": "ited",
  "658": "Ġwho",
  "659": "Ġkne",
  "660": "ust",
  "661": "Ġmany",
  "662": "nder",
  "663": "Ġint",
  "664": "Ġabout",
  "665": "Lily",
  "666": "Ġpret",
  "667": "Ġdec",
  "668": "Ġany",
  "669": "Ġred",
  "670": "ĠD",
  "671": "ive",
  "672": "Ġknew",
  "673": "ace",
  "674": "ous",
  "675": "Ġmore",
  "676": "ise",
  "677": "Ġcare",
  "678": "ally",
  "679": "Ġpic",
  "680": "au",
  "681": "qu",
  "682": "Ġhug",
  "683": "ĠLucy",
  "684": "Ġlearned",
  "685": "Ġpo",
  "686": "Ġwater",
  "687": "fter",
  "688": "Ġv",
  "689": "Ġbecame",
  "690": "Ġbest",
  "691": "ause",
  "692": "Ġop",
  "693": "Ġgre",
  "694": "Ġexc",
  "695": "urp",
  "696": "ways",
  "697": "âĢ",
  "698": "Ġoutside",
  "699": "Ġlaughed",
  "700": "Ġlook",
  "701": "Ġalways",
  "702": "Ġdecid",
  "703": "Ġshow",
  "704": "Ġun",
  "705": "ant",
  "706": "ĠBob",
  "707": "Ġroom",
  "708": "fe",
  "709": "Ġdecided",
  "710": "Ġho",
  "711": "Ġbecause",
  "712": "ĠSo",
  "713": "Ġinto",
  "714": "Ġeat",
  "715": "ite",
  "716": "Ġjump",
  "717": "ĠAnd",
  "718": "Ġpe",
  "719": "Ġboth",
  "720": "ers",
  "721": "ĠMom",
  "722": "Ġdad",
  "723": "They",
  "724": "udd",
  "725": "Ġke",
  "726": "Ġone",
  "727": "nn",
  "728": "Ġthis",
  "729": "Ġexcited",
  "730": "Ġfast",
  "731": "Ġnice",
  "732": "ĠE",
  "733": "Ġfeel",
  "734": "Tom",
  "735": "Yes",
  "736": "Ġrun",
  "737": "Ġlong",
  "738": "Ġtold",
  "739": "Ġsk",
  "740": "Ġam",
  "741": "urpr",
  "742": "our",
  "743": "Ġinside",
  "744": "ull",
  "745": "Ġtr",
  "746": "Ġsurpr",
  "747": "Ġmo",
  "748": "ink",
  "749": "Ġpretty",
  "750": "iny",
  "751": "Ġsor",
  "752": "Wh",
  "753": "Ġtake",
  "754": "og",
  "755": "Ġsl",
  "756": "Ġeach",
  "757": "Ġgave",
  "758": "Ġmuch",
  "759": "Ġgra",
  "760": "lew",
  "761": "nna",
  "762": "Ġrock",
  "763": "Ġhow",
  "764": "Ġstr",
  "765": "ara",
  "766": "imal",
  "767": "Ġanimal",
  "768": "ged",
  "769": "Ġneed",
  "770": "Ġthan",
  "771": "But",
  "772": "ven",
  "773": "etter",
  "774": "Ġtow",
  "775": "Ġor",
  "776": "ĠC",
  "777": "Ġunder",
  "778": "ess",
  "779": "Ġold",
  "780": "Ġsorry",
  "781": "ge",
  "782": "ised",
  "783": "ro",
  "784": "urt",
  "785": "Ġcle",
  "786": "Ġfish",
  "787": "Ġwalked",
  "788": "Ġclo",
  "789": "and",
  "790": "Ġbear",
  "791": "ft",
  "792": "ase",
  "793": "ast",
  "794": "Ġhand",
  "795": "urn",
  "796": "ĠWe",
  "797": "Ġkind",
  "798": "ĠHis",
  "799": "Ġte",
  "800": "here",
  "801": "Ġhappened",
  "802": "Ġjust",
  "803": "Ġflow",
  "804": "Ġfood",
  "805": "Ġlist",
  "806": "Ġdidn",
  "807": "Ġanimals",
  "808": "Ġhig",
  "809": "pl",
  "810": "Ġnear",
  "811": "Ġwat",
  "812": "Ġide",
  "813": "Ġtry",
  "814": "ched",
  "815": "Ġsky",
  "816": "ine",
  "817": "Ġsn",
  "818": "ving",
  "819": "Ġfi",
  "820": "rom",
  "821": "Ġus",
  "822": "Ġidea",
  "823": "Ġbetter",
  "824": "ĠAmy",
  "825": "Ġbug",
  "826": "Ġheard",
  "827": "gry",
  "828": "Ġits",
  "829": "Ġtw",
  "830": "Ġlet",
  "831": "pec",
  "832": "ate",
  "833": "able",
  "834": "ff",
  "835": "Ġen",
  "836": "Ġcareful",
  "837": "Ġshare",
  "838": "ex",
  "839": "Ġif",
  "840": "Thank",
  "841": "Mom",
  "842": "Ġfly",
  "843": "Ġstor",
  "844": "ial",
  "845": "Ġflew",
  "846": "more",
  "847": "Ġanymore",
  "848": "ĠTh",
  "849": "Ġspec",
  "850": "Ġspecial",
  "851": "ion",
  "852": "Ġcom",
  "853": "Ġlots",
  "854": "Ġnever",
  "855": "Ġby",
  "856": "lf",
  "857": "ream",
  "858": "Ġdan",
  "859": "Ġbu",
  "860": "Ġfo",
  "861": "Ġwind",
  "862": "Ġdon",
  "863": "Ġtal",
  "864": "Ġclean",
  "865": "ort",
  "866": "Ġgr",
  "867": "Ġlove",
  "868": "rm",
  "869": "ber",
  "870": "Ġend",
  "871": "ĠThen",
  "872": "ople",
  "873": "Ġeven",
  "874": "ĊĊ",
  "875": "Ġmag",
  "876": "Ġhard",
  "877": "Ġshiny",
  "878": "udden",
  "879": "Ġfore",
  "880": "Ġover",
  "881": "Ġcake",
  "882": "ak",
  "883": "Ġbook",
  "884": "Ġcol",
  "885": "Ġturn",
  "886": "Ġfam",
  "887": "Ġbad",
  "888": "Ġsafe",
  "889": "Ġafter",
  "890": "ady",
  "891": "ĠAnna",
  "892": "uddenly",
  "893": "Ġpeople",
  "894": "Ġproud",
  "895": "ĠEvery",
  "896": "Ġsurprised",
  "897": "pected",
  "898": "Let",
  "899": "Ġhigh",
  "900": "Ġcu",
  "901": "Ġhurt",
  "902": "Ġcome",
  "903": "imb",
  "904": "arden",
  "905": "Ġdoor",
  "906": "Ġgarden",
  "907": "bb",
  "908": "Ġground",
  "909": "Ġopened",
  "910": "Ġpicked",
  "911": "Ġloud",
  "912": "Ġclimb",
  "913": "expected",
  "914": "Ġunexpected",
  "915": "Ġgl",
  "916": "Ġche",
  "917": "ild",
  "918": "Ġim",
  "919": "As",
  "920": "Ġgive",
  "921": "Ġway",
  "922": "ail",
  "923": "'m",
  "924": "Ġthanked",
  "925": "Ġcolor",
  "926": "Ġblue",
  "927": "Ġstill",
  "928": "Ġever",
  "929": "Ġhugged",
  "930": "ĠFrom",
  "931": "Ġcall",
  "932": "Ġfar",
  "933": "ip",
  "934": "ĠHer",
  "935": "ĠSara",
  "936": "ĠWhen",
  "937": "No",
  "938": "Ġoff",
  "939": "Ġmagic",
  "940": "iz",
  "941": "ough",
  "942": "age",
  "943": "ummy",
  "944": "ĠK",
  "945": "Ġjumped",
  "946": "Ġshould",
  "947": "Ġfamily",
  "948": "Ġpar",
  "949": "ool",
  "950": "Ġkid",
  "951": "Ġsmile",
  "952": "hes",
  "953": "uff",
  "954": "Ġplace",
  "955": "kay",
  "956": "Ġwalk",
  "957": "Ġnow",
  "958": "ct",
  "959": "ĠIn",
  "960": "Ġgreat",
  "961": "em",
  "962": "ture",
  "963": "Ġqu",
  "964": "les",
  "965": "Ġstrong",
  "966": "Ġstay",
  "967": "Ġunt",
  "968": "Ġsto",
  "969": "aut",
  "970": "Ġforest",
  "971": "ane",
  "972": "Ġbra",
  "973": "itty",
  "974": "ĠP",
  "975": "Ġfrog",
  "976": "Ġbro",
  "977": "Ġuntil",
  "978": "oon",
  "979": "Ġbeaut",
  "980": "dy",
  "981": "Ġsqu",
  "982": "Ġstick",
  "983": "xt",
  "984": "Ġnext",
  "985": "Ġboat",
  "986": "lease",
  "987": "ning",
  "988": "Ġhappily",
  "989": "Ġlisten",
  "990": "aking",
  "991": "Ġkids",
  "992": "Ġtra",
  "993": "ies",
  "994": "iful",
  "995": "Ġbeautiful",
  "996": "Ġapp",
  "997": "th",
  "998": "Ġhelped",
  "999": "Ġdra",
  "1000": "Ġshowed",
  "1001": "Ġclos",
  "1002": "be",
  "1003": "Ġimp",
  "1004": "Ġstory",
  "1005": "unny",
  "1006": "oy",
  "1007": "Ġwhile",
  "1008": "Ġtown",
  "1009": "rel",
  "1010": "pt",
  "1011": "Ġrain",
  "1012": "ress",
  "1013": "Ġpicture",
  "1014": "Ġbeing",
  "1015": "Ġrem",
  "1016": "Ġeveryone",
  "1017": "It",
  "1018": "ary",
  "1019": "ree",
  "1020": "Ġmor",
  "1021": "Ġhat",
  "1022": "Ġcalled",
  "1023": "Ġmet",
  "1024": "Ġstopped",
  "1025": "Ġad",
  "1026": "Ġgame",
  "1027": "Now",
  "1028": "He",
  "1029": "Can",
  "1030": "Ġangry",
  "1031": "ger",
  "1032": "uffy",
  "1033": "Ġopen",
  "1034": "Ġwo",
  "1035": "Ġtruck",
  "1036": "Ġkeep",
  "1037": "Ġsoft",
  "1038": "When",
  "1039": "Ġcry",
  "1040": "Ġyummy",
  "1041": "Ġlost",
  "1042": "Ġbed",
  "1043": "ĠLet",
  "1044": "ĠSally",
  "1045": "Ġwarm",
  "1046": "by",
  "1047": "vent",
  "1048": "Ġbrave",
  "1049": "Ġmouse",
  "1050": "ĠWh",
  "1051": "Ġate",
  "1052": "ĠKitty",
  "1053": "ished",
  "1054": "Ġde",
  "1055": "fore",
  "1056": "Ġdoll",
  "1057": "so",
  "1058": "Ġcouldn",
  "1059": "Ġwatch",
  "1060": "Ġleave",
  "1061": "Ġalso",
  "1062": "dded",
  "1063": "Ġfell",
  "1064": "Ġgreen",
  "1065": "Ġface",
  "1066": "Ġtwo",
  "1067": "gan",
  "1068": "iss",
  "1069": "Ġflowers",
  "1070": "bit",
  "1071": "What",
  "1072": "ĠR",
  "1073": "ble",
  "1074": "Ġnoise",
  "1075": "abbit",
  "1076": "irst",
  "1077": "owl",
  "1078": "Ġwhere",
  "1079": "az",
  "1080": "ock",
  "1081": "Ġsoon",
  "1082": "self",
  "1083": "Ġslide",
  "1084": "Ġrabbit",
  "1085": "Ġhole",
  "1086": "luffy",
  "1087": "Ġbefore",
  "1088": "irrel",
  "1089": "Ġpus",
  "1090": "ired",
  "1091": "Ġsat",
  "1092": "illy",
  "1093": "Ġhear",
  "1094": "Ġuse",
  "1095": "âĢĿ",
  "1096": "Hi",
  "1097": "Ġpa",
  "1098": "Ġkept",
  "1099": "âĢľ",
  "1100": "That",
  "1101": "Ġsquirrel",
  "1102": "ear",
  "1103": "Then",
  "1104": "ma",
  "1105": "Ġnodded",
  "1106": "Ġexpl",
  "1107": "Ġstore",
  "1108": "Ġcook",
  "1109": "Ġhands",
  "1110": "Look",
  "1111": "Ġbirds",
  "1112": "Ġpain",
  "1113": "Ġgoing",
  "1114": "Ġfunny",
  "1115": "Ġhaving",
  "1116": "day",
  "1117": "Ġsing",
  "1118": "aybe",
  "1119": "uch",
  "1120": "Ġey",
  "1121": "aug",
  "1122": "Ġcatch",
  "1123": "aught",
  "1124": "ĠCan",
  "1125": "ĠFluffy",
  "1126": "uit",
  "1127": "Ġyell",
  "1128": "Ġthink",
  "1129": "leep",
  "1130": "Ġcra",
  "1131": "Ġfin",
  "1132": "Ben",
  "1133": "Ġbre",
  "1134": "Ġfix",
  "1135": "Ġtired",
  "1136": "Ġbunny",
  "1137": "Ġused",
  "1138": "Ġlooking",
  "1139": "Ġbus",
  "1140": "ange",
  "1141": "air",
  "1142": "Ġwork",
  "1143": "Ġwr",
  "1144": "Ġour",
  "1145": "Ġpull",
  "1146": "We",
  "1147": "Ġthr",
  "1148": "thing",
  "1149": "ĠNow",
  "1150": "Ġwait",
  "1151": "Ġkit",
  "1152": "Ġsound",
  "1153": "ting",
  "1154": "Ġjo",
  "1155": "Ġhas",
  "1156": "ĠG",
  "1157": "Ġmean",
  "1158": "Ġpond",
  "1159": "ember",
  "1160": "Ġbeh",
  "1161": "Ġdr",
  "1162": "Ġsunny",
  "1163": "led",
  "1164": "Ġothers",
  "1165": "Ġask",
  "1166": "ng",
  "1167": "chen",
  "1168": "Ġkitchen",
  "1169": "Ġtalk",
  "1170": "Ġflo",
  "1171": "Ġdif",
  "1172": "rew",
  "1173": "Ġpie",
  "1174": "ĠJo",
  "1175": "Ġhead",
  "1176": "Ġreal",
  "1177": "Ġfirst",
  "1178": "Ġtri",
  "1179": "Ġmommy",
  "1180": "Ġeyes",
  "1181": "ello",
  "1182": "Ġimport",
  "1183": "Hello",
  "1184": "Ġfav",
  "1185": "ath",
  "1186": "joy",
  "1187": "Ġz",
  "1188": "Ġremember",
  "1189": "Ġright",
  "1190": "Ġflower",
  "1191": "Ġcon",
  "1192": "Ġmess",
  "1193": "Ġparty",
  "1194": "Ġcold",
  "1195": "ĠDo",
  "1196": "Ġvo",
  "1197": "Ġswe",
  "1198": "ious",
  "1199": "Ġsand",
  "1200": "ĠâĢľ",
  "1201": "ac",
  "1202": "orn",
  "1203": "Ġrace",
  "1204": "Ġcuri",
  "1205": "imes",
  "1206": "Ġimportant",
  "1207": "Ġduck",
  "1208": "Ġmoral",
  "1209": "Ġshared",
  "1210": "zy",
  "1211": "ount",
  "1212": "ĠJack",
  "1213": "Ġice",
  "1214": "Ġokay",
  "1215": "Ġadvent",
  "1216": "Ġworked",
  "1217": "llow",
  "1218": "At",
  "1219": "Ġenjoy",
  "1220": "Ġdress",
  "1221": "Ġbright",
  "1222": "Ġmaking",
  "1223": "Ġcurious",
  "1224": "Ġown",
  "1225": "Ġtall",
  "1226": "Ġdir",
  "1227": "Ġhop",
  "1228": "reed",
  "1229": "Ġhid",
  "1230": "Ġfavor",
  "1231": "Ġri",
  "1232": "hn",
  "1233": "Ġsleep",
  "1234": "Ġdis",
  "1235": "Wow",
  "1236": "Ġfavorite",
  "1237": "Ġthing",
  "1238": "Ġbegan",
  "1239": "Ġmon",
  "1240": "Ġbag",
  "1241": "Ġhill",
  "1242": "Don",
  "1243": "Ġcla",
  "1244": "Ġdraw",
  "1245": "Ġrest",
  "1246": "Ġhere",
  "1247": "Ġyard",
  "1248": "Ġtell",
  "1249": "ĠFin",
  "1250": "ster",
  "1251": "Ġwatched",
  "1252": "que",
  "1253": "Ġfollow",
  "1254": "Ġmove",
  "1255": "Ġbel",
  "1256": "ect",
  "1257": "Ġcut",
  "1258": "Ġnight",
  "1259": "Ġagreed",
  "1260": "Ġpick",
  "1261": "co",
  "1262": "Ġblock",
  "1263": "Ġhun",
  "1264": "aper",
  "1265": "lly",
  "1266": "Ġstop",
  "1267": "Ġbehind",
  "1268": "ĠThis",
  "1269": "Ġsurprise",
  "1270": "ied",
  "1271": "Ġsho",
  "1272": "Ġhot",
  "1273": "After",
  "1274": "Ġtable",
  "1275": "Ġgrass",
  "1276": "Ġworry",
  "1277": "Ġdark",
  "1278": "Ġtrees",
  "1279": "Ġvoice",
  "1280": "Ġwalking",
  "1281": "fere",
  "1282": "Ġfloor",
  "1283": "Ġfarm",
  "1284": "Ġlion",
  "1285": "Ġtop",
  "1286": "Ġdiffere",
  "1287": "Ġplease",
  "1288": "Ġru",
  "1289": "Ġsong",
  "1290": "Ġbutter",
  "1291": "Ġtail",
  "1292": "Ġsweet",
  "1293": "Max",
  "1294": "Ġshout",
  "1295": "Ġcolors",
  "1296": "Ġread",
  "1297": "ĠDad",
  "1298": "Ġlady",
  "1299": "Ġforg",
  "1300": "isy",
  "1301": "Ġleaves",
  "1302": "Ġcloser",
  "1303": "ign",
  "1304": "Ġcars",
  "1305": "Ġturned",
  "1306": "Ġneeded",
  "1307": "Ġtast",
  "1308": "Why",
  "1309": "aring",
  "1310": "Ġwood",
  "1311": "Ġcried",
  "1312": "Ġdifferent",
  "1313": "Ġlaugh",
  "1314": "Ġdel",
  "1315": "Ġpiece",
  "1316": "âĢĻ",
  "1317": "ered",
  "1318": "ĠMr",
  "1319": "Ġroll",
  "1320": "Ġadventure",
  "1321": "Ġfire",
  "1322": "Ġdoes",
  "1323": "ike",
  "1324": "Ġcr",
  "1325": "Ġhungry",
  "1326": "Ġhair",
  "1327": "ĠSuddenly",
  "1328": "Ġpaper",
  "1329": "Ġfeeling",
  "1330": "Ġyellow",
  "1331": "Ġfull",
  "1332": "bo",
  "1333": "Ġprin",
  "1334": "Sue",
  "1335": "Ġtouch",
  "1336": "ĠAs",
  "1337": "Anna",
  "1338": "Sam",
  "1339": "Ġwet",
  "1340": "Ġfriendly",
  "1341": "Ġper",
  "1342": "oom",
  "1343": "ken",
  "1344": "cked",
  "1345": "ached",
  "1346": "Ġswing",
  "1347": "Ġfruit",
  "1348": "ient",
  "1349": "Ġbroken",
  "1350": "Ġready",
  "1351": "bye",
  "1352": "ppy",
  "1353": "Ġprom",
  "1354": "ĠThat",
  "1355": "Ġanother",
  "1356": "Ġlight",
  "1357": "Ġpretend",
  "1358": "Ġdance",
  "1359": "ater",
  "1360": "Ġclimbed",
  "1361": "where",
  "1362": "Ġlistened",
  "1363": "ĠBobo",
  "1364": "Ġdanc",
  "1365": "Ġrunning",
  "1366": "Ġonly",
  "1367": "Ġplan",
  "1368": "Ġgone",
  "1369": "Ġswim",
  "1370": "bbed",
  "1371": "Suddenly",
  "1372": "sh",
  "1373": "Ġtrain",
  "1374": "ila",
  "1375": "ndma",
  "1376": "Sara",
  "1377": "ĠJane",
  "1378": "Ġclose",
  "1379": "av",
  "1380": "She",
  "1381": "Ġsmell",
  "1382": "So",
  "1383": "aby",
  "1384": "Ġamaz",
  "1385": "Ġhold",
  "1386": "Ġblocks",
  "1387": "Ġwonder",
  "1388": "ĠTimmy",
  "1389": "Ġrepl",
  "1390": "ĠAll",
  "1391": "Ġbutterf",
  "1392": "Ġsees",
  "1393": "Ġreached",
  "1394": "Ġwall",
  "1395": "Ġpu",
  "1396": "oney",
  "1397": "red",
  "1398": "Ġslow",
  "1399": "Ġhelping",
  "1400": "Ġdri",
  "1401": "Ġcream",
  "1402": "Ġcool",
  "1403": "Ġglad",
  "1404": "af",
  "1405": "Ġant",
  "1406": "Ġless",
  "1407": "Ġbeen",
  "1408": "Ġgoodbye",
  "1409": "Ġac",
  "1410": "Ġfight",
  "1411": "ather",
  "1412": "Mia",
  "1413": "Ġpushed",
  "1414": "iced",
  "1415": "Ġfair",
  "1416": "Ġmust",
  "1417": "Ġhide",
  "1418": "Ġmoment",
  "1419": "Ġwindow",
  "1420": "ĠO",
  "1421": "Ġsit",
  "1422": "Ġballoon",
  "1423": "Ġsnow",
  "1424": "Ġchild",
  "1425": "Ġexplore",
  "1426": "ĠEveryone",
  "1427": "Ġar",
  "1428": "Ġwished",
  "1429": "Ġbaby",
  "1430": "Ġdone",
  "1431": "Ġwag",
  "1432": "Ġste",
  "1433": "Ġbuy",
  "1434": "Ġstuck",
  "1435": "Ġperf",
  "1436": "Ġthank",
  "1437": "Ġmight",
  "1438": "icy",
  "1439": "Ġname",
  "1440": "ized",
  "1441": "Ġtrying",
  "1442": "Ġbit",
  "1443": "Ġcoming",
  "1444": "Ġbar",
  "1445": "Ġquick",
  "1446": "Ġfall",
  "1447": "Ġapple",
  "1448": "ash",
  "1449": "Ġscary",
  "1450": "Ġlooks",
  "1451": "Ġbuild",
  "1452": "Ġdoing",
  "1453": "Ġwin",
  "1454": "Ġunderst",
  "1455": "aisy",
  "1456": "Ġdin",
  "1457": "Ġdream",
  "1458": "Ġdirty",
  "1459": "Ġheld",
  "1460": "ames",
  "1461": "Ġbooks",
  "1462": "Ġmar",
  "1463": "In",
  "1464": "Ġbutterfly",
  "1465": "Ġleft",
  "1466": "Ġshouted",
  "1467": "Ġcount",
  "1468": "Ġreplied",
  "1469": "avy",
  "1470": "Ġreach",
  "1471": "Ġtiny",
  "1472": "Ġthrough",
  "1473": "ott",
  "1474": "Ġdro",
  "1475": "Ġwhy",
  "1476": "Ġair",
  "1477": "Ġbran",
  "1478": "Ġland",
  "1479": "key",
  "1480": "Ġthree",
  "1481": "Ġpulled",
  "1482": "Ġspl",
  "1483": "Ġgrow",
  "1484": "Ġtreat",
  "1485": "Ġbrother",
  "1486": "Ġwise",
  "1487": "Ġwoods",
  "1488": "Ġsure",
  "1489": "'re",
  "1490": "Ġchair",
  "1491": "ix",
  "1492": "Ġmat",
  "1493": "ins",
  "1494": "Ġseen",
  "1495": "Ġpink",
  "1496": "Ġclapped",
  "1497": "Ġplant",
  "1498": "ely",
  "1499": "Ġowl",
  "1500": "Ġcup",
  "1501": "ield",
  "1502": "Ġsometimes",
  "1503": "andy",
  "1504": "Ġfill",
  "1505": "Ġcloud",
  "1506": "ask",
  "1507": "Ġswam",
  "1508": "outh",
  "1509": "Ġjob",
  "1510": "Ġcolorful",
  "1511": "Ġremembered",
  "1512": "Ġbigger",
  "1513": "Ġnest",
  "1514": "Ġmouth",
  "1515": "pe",
  "1516": "Okay",
  "1517": "Ġlesson",
  "1518": "Ġjoin",
  "1519": "Ġcre",
  "1520": "ph",
  "1521": "ĠThere",
  "1522": "oup",
  "1523": "room",
  "1524": "art",
  "1525": "Ġwaved",
  "1526": "uddy",
  "1527": "Ġgrabbed",
  "1528": "Ġstayed",
  "1529": "Oh",
  "1530": "Ġpaint",
  "1531": "This",
  "1532": "Ġclot",
  "1533": "Ġcont",
  "1534": "Ġclothes",
  "1535": "Ġve",
  "1536": "ower",
  "1537": "ĠAfter",
  "1538": "Ġwaited",
  "1539": "Ġquickly",
  "1540": "cle",
  "1541": "Ġword",
  "1542": "Ġbroke",
  "1543": "ucky",
  "1544": "Ġgames",
  "1545": "Ġcast",
  "1546": "Ġblew",
  "1547": "Ġgent",
  "1548": "ĠMommy",
  "1549": "Ġenjoyed",
  "1550": "Ġnoticed",
  "1551": "Jo",
  "1552": "ries",
  "1553": "ation",
  "1554": "Ġset",
  "1555": "Ġlikes",
  "1556": "Ġpictures",
  "1557": "ton",
  "1558": "de",
  "1559": "Ġsea",
  "1560": "Ġheavy",
  "1561": "Ġmus",
  "1562": "Ġalone",
  "1563": "Ġgif",
  "1564": "asure",
  "1565": "Ġanything",
  "1566": "Ġspot",
  "1567": "Ġmiss",
  "1568": "Ġhopped",
  "1569": "Ġworld",
  "1570": "Ġturns",
  "1571": "orm",
  "1572": "Ġyear",
  "1573": "der",
  "1574": "Ġbott",
  "1575": "Ġpat",
  "1576": "Ġpot",
  "1577": "Ġpen",
  "1578": "lc",
  "1579": "Her",
  "1580": "Ġmix",
  "1581": "Ġarm",
  "1582": "Ġbike",
  "1583": "Ġtight",
  "1584": "Ġeverywhere",
  "1585": "Ġwon",
  "1586": "Lucy",
  "1587": "Ġtower",
  "1588": "Ġthrew",
  "1589": "Ġhimself",
  "1590": "Ġfollowed",
  "1591": "ĠBuddy",
  "1592": "Ġride",
  "1593": "man",
  "1594": "less",
  "1595": "Ġju",
  "1596": "Ġje",
  "1597": "amp",
  "1598": "Bob",
  "1599": "ape",
  "1600": "Ġcomp",
  "1601": "Ġkey",
  "1602": "row",
  "1603": "\".",
  "1604": "Ġwhite",
  "1605": "ctor",
  "1606": "Ġwrong",
  "1607": "ĠDaisy",
  "1608": "Ġmakes",
  "1609": "ĠWhat",
  "1610": "Ġbreak",
  "1611": "Ġblack",
  "1612": "arent",
  "1613": "ee",
  "1614": "ner",
  "1615": "Spot",
  "1616": "Do",
  "1617": "Ġdeep",
  "1618": "thy",
  "1619": "Ġmusic",
  "1620": "Ġpol",
  "1621": "Ġdelic",
  "1622": "cess",
  "1623": "ued",
  "1624": "Ġforgot",
  "1625": "Ġbee",
  "1626": "Ġparent",
  "1627": "Ġcastle",
  "1628": "ves",
  "1629": "olly",
  "1630": "Ġem",
  "1631": "iet",
  "1632": "Ġwear",
  "1633": "Ġhit",
  "1634": "ister",
  "1635": "oun",
  "1636": "Ġquiet",
  "1637": "Ġround",
  "1638": "ance",
  "1639": "Ġstu",
  "1640": "Ġdanced",
  "1641": "Ġvis",
  "1642": "ully",
  "1643": "Ġwants",
  "1644": "Ġleaf",
  "1645": "Ġmonster",
  "1646": "Ġnap",
  "1647": "ĠJohn",
  "1648": "Ġunderstand",
  "1649": "ang",
  "1650": "Ġbowl",
  "1651": "os",
  "1652": "rot",
  "1653": "ren",
  "1654": "Ġbor",
  "1655": "Ġtalked",
  "1656": "itten",
  "1657": "Ġdry",
  "1658": "Ġfaster",
  "1659": "Ġcookies",
  "1660": "Ġbrought",
  "1661": "fully",
  "1662": "Ġleg",
  "1663": "ross",
  "1664": "Ġmum",
  "1665": "zz",
  "1666": "Ġside",
  "1667": "ts",
  "1668": "From",
  "1669": "Ġsign",
  "1670": "ĠInside",
  "1671": "Ġsmart",
  "1672": "cy",
  "1673": "Ġrocks",
  "1674": "Ġsomeone",
  "1675": "His",
  "1676": "Ġpoin",
  "1677": "Ġsec",
  "1678": "Ġsharing",
  "1679": "Ġfox",
  "1680": "Ġwell",
  "1681": "Ġres",
  "1682": "Ġrel",
  "1683": "Ġhappen",
  "1684": "Ġbutton",
  "1685": "Ġbranch",
  "1686": "ĠLila",
  "1687": "Ġreally",
  "1688": "Ġfinished",
  "1689": "ence",
  "1690": "ards",
  "1691": "Ġdinner",
  "1692": "Ġsister",
  "1693": "Ġflying",
  "1694": "eddy",
  "1695": "Ġcontin",
  "1696": "Ġworried",
  "1697": "Ġele",
  "1698": "ĠTo",
  "1699": "Ġvisit",
  "1700": "ĠMaybe",
  "1701": "Ġbeach",
  "1702": "Ġque",
  "1703": "Ġsecret",
  "1704": "Ġel",
  "1705": "ĠSarah",
  "1706": "Ġking",
  "1707": "John",
  "1708": "gy",
  "1709": "Ġtoday",
  "1710": "Ġperfect",
  "1711": "Ġriver",
  "1712": "Ġeverything",
  "1713": "Ġsilly",
  "1714": "Ġshin",
  "1715": "ĠJoe",
  "1716": "Ġdanger",
  "1717": "ipp",
  "1718": "Ġchildren",
  "1719": "Ġgu",
  "1720": "ĠSoon",
  "1721": "Ġfield",
  "1722": "Ġfilled",
  "1723": "Ġfur",
  "1724": "Ġelse",
  "1725": "Ġsmiles",
  "1726": "Ġwelc",
  "1727": "ĠAt",
  "1728": "Ġwish",
  "1729": "ĠEm",
  "1730": "While",
  "1731": "Ġsang",
  "1732": "Ġgi",
  "1733": "ze",
  "1734": "Ġpudd",
  "1735": "Ġsnack",
  "1736": "Ġeating",
  "1737": "Ġrealized",
  "1738": "Ġpieces",
  "1739": "Ġpromised",
  "1740": "ord",
  "1741": "Ġspr",
  "1742": "Ġpig",
  "1743": "Ġfree",
  "1744": "Ġcontinued",
  "1745": "Ġbite",
  "1746": "ead",
  "1747": "Ġparents",
  "1748": "Ġcarefully",
  "1749": "ated",
  "1750": "itting",
  "1751": "Ġear",
  "1752": "Just",
  "1753": "Ġjar",
  "1754": "Maybe",
  "1755": "Ġcow",
  "1756": "Amy",
  "1757": "Ġblank",
  "1758": "Ġdrag",
  "1759": "stead",
  "1760": "Ġorange",
  "1761": "Ġmud",
  "1762": "Ġcrying",
  "1763": "Ġblanket",
  "1764": "Ġenough",
  "1765": "Ġrolled",
  "1766": "cket",
  "1767": "Ġsoup",
  "1768": "Ġsail",
  "1769": "Ġpurp",
  "1770": "imi",
  "1771": "Ġyes",
  "1772": "ale",
  "1773": "Ġdrink",
  "1774": "Ġsnake",
  "1775": "ses",
  "1776": "Ġboun",
  "1777": "Ġpet",
  "1778": "Ġcrab",
  "1779": "Ġthrow",
  "1780": "Ġlaughing",
  "1781": "Ġfairy",
  "1782": "Ġwords",
  "1783": "Ġamazing",
  "1784": "Ġbath",
  "1785": "ich",
  "1786": "Ġpurple",
  "1787": "ĠZ",
  "1788": "Ġwithout",
  "1789": "ire",
  "1790": "Ġbottle",
  "1791": "ĠBilly",
  "1792": "Ġgift",
  "1793": "Ġgrandma",
  "1794": "Fin",
  "1795": "used",
  "1796": "ons",
  "1797": "Ġpast",
  "1798": "Ġmoney",
  "1799": "iver",
  "1800": "fort",
  "1801": "Ġmail",
  "1802": "ĠGra",
  "1803": "Ġbarked",
  "1804": "Ġwagged",
  "1805": "Ġatt",
  "1806": "chool",
  "1807": "Ġmonkey",
  "1808": "Ġdoctor",
  "1809": "unch",
  "1810": "Ġbrown",
  "1811": "Ġmoved",
  "1812": "ises",
  "1813": "Ġasks",
  "1814": "Ġgetting",
  "1815": "Ġclosed",
  "1816": "Ġwhe",
  "1817": "Ġwelcome",
  "1818": "Ġsu",
  "1819": "Ġcandy",
  "1820": "Ġschool",
  "1821": "Ġmorning",
  "1822": "Ġowner",
  "1823": "gg",
  "1824": "Ġlon",
  "1825": "Ġmother",
  "1826": "Ġhigher",
  "1827": "Ġsitting",
  "1828": "Ġtreasure",
  "1829": ".âĢĿ",
  "1830": "Ġsmo",
  "1831": "!âĢĿ",
  "1832": "Ġdangerous",
  "1833": "Ġlonely",
  "1834": "ĠCh",
  "1835": "Ġliving",
  "1836": "Ġapples",
  "1837": "ush",
  "1838": "Ġshop",
  "1839": "ased",
  "1840": "Ġstrange",
  "1841": "vel",
  "1842": "Ġshining",
  "1843": "Ġroad",
  "1844": "ere",
  "1845": "ĠTommy",
  "1846": "Ġcreat",
  "1847": "una",
  "1848": "Ġpaw",
  "1849": "Ġra",
  "1850": "ey",
  "1851": "Ġshoes",
  "1852": "Ġpre",
  "1853": "ible",
  "1854": "Ġ-",
  "1855": "Ġstre",
  "1856": "Ġtalking",
  "1857": "althy",
  "1858": "Ġcaught",
  "1859": "Ġegg",
  "1860": "ol",
  "1861": "Ġpass",
  "1862": "me",
  "1863": "Ġlake",
  "1864": "Ġruns",
  "1865": "Ġbuck",
  "1866": "Ġletter",
  "1867": "Ġwings",
  "1868": "Ġchee",
  "1869": "fish",
  "1870": "Ġmad",
  "1871": "Ġfan",
  "1872": "asket",
  "1873": "Ġbasket",
  "1874": "ass",
  "1875": "Ġdragon",
  "1876": "app",
  "1877": "Mommy",
  "1878": "set",
  "1879": "cks",
  "1880": "Ġstone",
  "1881": "Ġthinks",
  "1882": "Ġstand",
  "1883": "Ġdelicious",
  "1884": "Ġnose",
  "1885": "Ġpuddle",
  "1886": "Ġtom",
  "1887": "ĠBl",
  "1888": "ĠMimi",
  "1889": "Ġbelie",
  "1890": "Ġfarmer",
  "1891": "Ġsame",
  "1892": "Ġyears",
  "1893": "board",
  "1894": "Ġteddy",
  "1895": "Ġbat",
  "1896": "isk",
  "1897": "itch",
  "1898": "Ġmine",
  "1899": "Ġsear",
  "1900": "Ġcoat",
  "1901": "ches",
  "1902": "igh",
  "1903": "Ġdays",
  "1904": "Ġbring",
  "1905": "Ġgentle",
  "1906": "Ġfit",
  "1907": "Ġstart",
  "1908": "Ġfinally",
  "1909": "Ġwhist",
  "1910": "Ġcray",
  "1911": "igg",
  "1912": "Ġscream",
  "1913": "Ġkite",
  "1914": "Ġpill",
  "1915": "phant",
  "1916": "arm",
  "1917": "Ġvill",
  "1918": "Ġcho",
  "1919": "Ġsinging",
  "1920": "ella",
  "1921": "sw",
  "1922": "ined",
  "1923": "Ġtasty",
  "1924": "Ġph",
  "1925": "Ġben",
  "1926": "Ġtrou",
  "1927": "Ġshell",
  "1928": "Ġherself",
  "1929": "Ġhoped",
  "1930": "Ġansw",
  "1931": "Ġwore",
  "1932": "Ġswings",
  "1933": "sy",
  "1934": "Ġhor",
  "1935": "Ġbelong",
  "1936": "Please",
  "1937": "Ġpush",
  "1938": "Ġbush",
  "1939": "iskers",
  "1940": "Ġcarrot",
  "1941": "Ġarri",
  "1942": "aughty",
  "1943": "Ġteach",
  "1944": "bow",
  "1945": "ract",
  "1946": "Ġnaughty",
  "1947": "Ġelephant",
  "1948": "Ġdropped",
  "1949": "Ġshap",
  "1950": "ier",
  "1951": "Ġcoll",
  "1952": "sc",
  "1953": "Ġteac",
  "1954": "emy",
  "1955": "Ġwoke",
  "1956": "ball",
  "1957": "Ġpile",
  "1958": "Ġhiding",
  "1959": "Ġcour",
  "1960": "isa",
  "1961": "erry",
  "1962": "Ġtouc",
  "1963": "Ġmin",
  "1964": "Ġpuppy",
  "1965": "'ll",
  "1966": "Ġseem",
  "1967": "llie",
  "1968": "Ġtwins",
  "1969": "ama",
  "1970": "Ġlunch",
  "1971": "Ġbow",
  "1972": "Ġsack",
  "1973": "Ġpers",
  "1974": "Ġcourse",
  "1975": "Ġcheered",
  "1976": "Ġshapes",
  "1977": "ĠJen",
  "1978": "Ġgrew",
  "1979": "fused",
  "1980": "Ġrope",
  "1981": "Ġvillage",
  "1982": "irth",
  "1983": "irthday",
  "1984": "Ġjuice",
  "1985": "ipped",
  "1986": "Ġrainbow",
  "1987": "Ġspin",
  "1988": "OK",
  "1989": "Ġshook",
  "1990": "Jack",
  "1991": "Ġspoon",
  "1992": "Ġbench",
  "1993": "Ġstreet",
  "1994": "Ġfence",
  "1995": "Ġcute",
  "1996": "ĠFred",
  "1997": "Ġrob",
  "1998": "Ġnut",
  "1999": "Ġcheese",
  "2000": "Ġprob",
  "2001": "Ġtouched",
  "2002": "idge",
  "2003": "col",
  "2004": "Ġjoy",
  "2005": "ĠWhiskers",
  "2006": "Ġarrived",
  "2007": "Ġseed",
  "2008": "Ġwar",
  "2009": "Ġteacher",
  "2010": "Ġcorn",
  "2011": "Good",
  "2012": "Ġforever",
  "2013": "Ġable",
  "2014": "Ġbell",
  "2015": "Ġfew",
  "2016": "Ġcarry",
  "2017": "Ġmost",
  "2018": "Ġplane",
  "2019": "ĠBlue",
  "2020": "lem",
  "2021": "Ġeas",
  "2022": "Ġsounds",
  "2023": "lla",
  "2024": "Ġdes",
  "2025": "Ġspo",
  "2026": "Ġproblem",
  "2027": "Ġbirthday",
  "2028": "Ġpower",
  "2029": "Ġinc",
  "2030": "umb",
  "2031": "br",
  "2032": "ĊĠ",
  "2033": "Ġbugs",
  "2034": "ilk",
  "2035": "Ġwonderful",
  "2036": "Ġdolls",
  "2037": "Ġbusy",
  "2038": "ato",
  "2039": "irp",
  "2040": "eb",
  "2041": "Ġwra",
  "2042": "Ġpromise",
  "2043": "ĠThank",
  "2044": "Ġfeels",
  "2045": "ian",
  "2046": "ĠEmma",
  "2047": "eter",
  "2048": "Ġbread",
  "2049": "Ġneck",
  "2050": "Finally",
  "2051": "Ġmilk",
  "2052": "Ġrobot",
  "2053": "Ġrec",
  "2054": "Ġshy",
  "2055": "ountain",
  "2056": "Ġkiss",
  "2057": "irt",
  "2058": "Ġheart",
  "2059": "Ġband",
  "2060": "Ġcave",
  "2061": "Ġpocket",
  "2062": "ub",
  "2063": "Ġhelpful",
  "2064": "gly",
  "2065": "Ġslowly",
  "2066": "Ġbelieve",
  "2067": "Ġshake",
  "2068": "umpy",
  "2069": "eared",
  "2070": "Ġpatient",
  "2071": "Ġpop",
  "2072": "Ġob",
  "2073": "arp",
  "2074": "Ġlive",
  "2075": "Ġstorm",
  "2076": "Ġholding",
  "2077": "Ġugly",
  "2078": "Ġtowards",
  "2079": "Ġupset",
  "2080": "Ġturt",
  "2081": "Ġshr",
  "2082": "adow",
  "2083": "Ġcover",
  "2084": "Ġkitten",
  "2085": "ost",
  "2086": "ĠRemy",
  "2087": "Ġsharp",
  "2088": "Ġdisapp",
  "2089": "Ġstories",
  "2090": "Ġsuc",
  "2091": "Ġhoney",
  "2092": "ove",
  "2093": "ĠBella",
  "2094": "read",
  "2095": "Ġnoises",
  "2096": "ĠLe",
  "2097": "Ġcir",
  "2098": "Ġballs",
  "2099": "Ġspark",
  "2100": "Ġgray",
  "2101": "Ġdist",
  "2102": "Ġdirt",
  "2103": "oggy",
  "2104": "Ġlate",
  "2105": "Ġdriver",
  "2106": "Ġseat",
  "2107": "Ġbucket",
  "2108": "Ġmeet",
  "2109": "Ġyoung",
  "2110": "Ġamazed",
  "2111": "Ġturtle",
  "2112": "alm",
  "2113": "Ġspid",
  "2114": "Ġtreats",
  "2115": "Ġmagical",
  "2116": "unt",
  "2117": "ator",
  "2118": "Ġglow",
  "2119": "Ġseek",
  "2120": "Ġzoom",
  "2121": "Ġlem",
  "2122": "Ġsandw",
  "2123": "fortable",
  "2124": "umber",
  "2125": "Ġtrip",
  "2126": "Ġmist",
  "2127": "ourn",
  "2128": "Ġsplas",
  "2129": "Ġmark",
  "2130": "Ġjourn",
  "2131": "Ġfold",
  "2132": "Ġmach",
  "2133": "Ġpuzz",
  "2134": "Ġpart",
  "2135": "ling",
  "2136": "Ġhorse",
  "2137": "Ġorgan",
  "2138": "Ġwild",
  "2139": "Ġprincess",
  "2140": "pping",
  "2141": "oose",
  "2142": "Ġcookie",
  "2143": "Sure",
  "2144": "ens",
  "2145": "Ġhugs",
  "2146": "ĠMark",
  "2147": "Ġtaking",
  "2148": "ung",
  "2149": "Ġwheel",
  "2150": "epend",
  "2151": "Ġcloth",
  "2152": "ĠLisa",
  "2153": "Ġsug",
  "2154": "Ġinstead",
  "2155": "Ġbubb",
  "2156": "Ġstring",
  "2157": "Ġnet",
  "2158": "Ġdrove",
  "2159": "iling",
  "2160": "Ġrude",
  "2161": "Ġhuge",
  "2162": "ĠJim",
  "2163": "Ġcoin",
  "2164": "Ġstars",
  "2165": "Ġfighting",
  "2166": "Be",
  "2167": "Ġspicy",
  "2168": "Ġlucky",
  "2169": "Of",
  "2170": "Ġcraw",
  "2171": "Hey",
  "2172": "Ġbone",
  "2173": "Ġinv",
  "2174": "ĠGrandma",
  "2175": "ors",
  "2176": "not",
  "2177": "Ġca",
  "2178": "pper",
  "2179": "Ġforget",
  "2180": "up",
  "2181": "Ġdi",
  "2182": "aur",
  "2183": "Ġsal",
  "2184": "ĠFinally",
  "2185": "Ġcannot",
  "2186": "Ġwhistle",
  "2187": "Ġcard",
  "2188": "Ġsick",
  "2189": "Ġpath",
  "2190": "Ġcou",
  "2191": "Ġspider",
  "2192": "Ġwide",
  "2193": "Lila",
  "2194": "Ġfoot",
  "2195": "Ġsnowman",
  "2196": "Ġsongs",
  "2197": "Ġlife",
  "2198": "Ġpillow",
  "2199": "ize",
  "2200": "ular",
  "2201": "ĠJust",
  "2202": "Later",
  "2203": "est",
  "2204": "ĠAnn",
  "2205": "ert",
  "2206": "Ġfixed",
  "2207": "Ġgiant",
  "2208": "oph",
  "2209": "rill",
  "2210": "Ġnod",
  "2211": "Ġboss",
  "2212": "Ġlast",
  "2213": "Ġcomes",
  "2214": "Ġjoke",
  "2215": "Ġmoon",
  "2216": "Ġtaste",
  "2217": "den",
  "2218": "Ġmachine",
  "2219": "Ġgrumpy",
  "2220": "Ġwave",
  "2221": "Ġthin",
  "2222": "Ġdrive",
  "2223": "Ġcart",
  "2224": "Ġash",
  "2225": "Ġser",
  "2226": "Ġgrab",
  "2227": "Ġpeace",
  "2228": "lower",
  "2229": "Ġdaddy",
  "2230": "ĠOn",
  "2231": "ĠLeo",
  "2232": "ery",
  "2233": "Ġsel",
  "2234": "Ġshelf",
  "2235": "Ġhidden",
  "2236": "erest",
  "2237": "Ġsuddenly",
  "2238": "Ġwasn",
  "2239": "Ġwrite",
  "2240": "Ġlanded",
  "2241": "Ġconfused",
  "2242": "Ġring",
  "2243": "Ġchange",
  "2244": "Ġworm",
  "2245": "Ġinterest",
  "2246": "Ġchased",
  "2247": "oop",
  "2248": "Ġfruits",
  "2249": "Ġsour",
  "2250": "ity",
  "2251": "Ġmyster",
  "2252": "Ġbark",
  "2253": "Ġrad",
  "2254": "Ġsmooth",
  "2255": "ĠCome",
  "2256": "Ġadventures",
  "2257": "Ġval",
  "2258": "Ġstepped",
  "2259": "Ġfle",
  "2260": "ope",
  "2261": "Ġoven",
  "2262": "Ġtakes",
  "2263": "Ġmissed",
  "2264": "Ġselfish",
  "2265": "kin",
  "2266": "Ġsheep",
  "2267": "Ġmessy",
  "2268": "To",
  "2269": "Ġacross",
  "2270": "Ġent",
  "2271": "Ġexp",
  "2272": "to",
  "2273": "Ġce",
  "2274": "Ġlater",
  "2275": "elly",
  "2276": "ĠN",
  "2277": "ife",
  "2278": "Ġsticks",
  "2279": "Ġtie",
  "2280": "St",
  "2281": "ever",
  "2282": "ĠLuna",
  "2283": "Ġstep",
  "2284": "Ġbought",
  "2285": "Ġdrew",
  "2286": "Ġtea",
  "2287": "pect",
  "2288": "Ġban",
  "2289": "irpy",
  "2290": "box",
  "2291": "?âĢĿ",
  "2292": "Ġwash",
  "2293": "Ġlay",
  "2294": "Ġpour",
  "2295": "Ġbeak",
  "2296": "ose",
  "2297": "Ġjog",
  "2298": "Ġgrate",
  "2299": "Ġducks",
  "2300": "Ġspe",
  "2301": "Ġlegs",
  "2302": "ugg",
  "2303": "Ġfil",
  "2304": "ĠBu",
  "2305": "Ġemp",
  "2306": "mer",
  "2307": "Ġhope",
  "2308": "Ġempty",
  "2309": "Ġslid",
  "2310": "Ġfeather",
  "2311": "Ġsleepy",
  "2312": "Ġdrum",
  "2313": "amed",
  "2314": "ars",
  "2315": "eth",
  "2316": "Ġzoo",
  "2317": "Ġpan",
  "2318": "Ġphone",
  "2319": "Ġgrateful",
  "2320": "Ġfing",
  "2321": "ions",
  "2322": "Ġlemon",
  "2323": "let",
  "2324": "ĠCat",
  "2325": "Ġclever",
  "2326": "ĠMolly",
  "2327": "Ġsmelly",
  "2328": "Ġimag",
  "2329": "Ġsplash",
  "2330": "Ġinteresting",
  "2331": "ĠJill",
  "2332": "Ġsave",
  "2333": "Ġchick",
  "2334": "Ġcalm",
  "2335": "Ġmed",
  "2336": "Ġwatching",
  "2337": "Soon",
  "2338": "izzy",
  "2339": "izz",
  "2340": "Ġplate",
  "2341": "Ġign",
  "2342": "yard",
  "2343": "Ġclouds",
  "2344": "Ġbanan",
  "2345": "Ġline",
  "2346": "Ġfaces",
  "2347": "Ġba",
  "2348": "Ġact",
  "2349": "Ġlift",
  "2350": "Ġthough",
  "2351": "Ġwolf",
  "2352": "Ġbackyard",
  "2353": "wel",
  "2354": "Ġseemed",
  "2355": "Ġdogs",
  "2356": "Ġspray",
  "2357": "Come",
  "2358": "Ġprot",
  "2359": "Ġwhole",
  "2360": "Ġmot",
  "2361": "Ġfancy",
  "2362": "ĠDaddy",
  "2363": "Ġquest",
  "2364": "Ġarms",
  "2365": "Ġpuzzle",
  "2366": "Ġhealthy",
  "2367": "Ġsupp",
  "2368": "ward",
  "2369": "Ġfinish",
  "2370": "erly",
  "2371": "Ġalong",
  "2372": "llo",
  "2373": "Ġrocket",
  "2374": "Ġexplain",
  "2375": "dge",
  "2376": "Ġeasy",
  "2377": "Ġjewel",
  "2378": "ont",
  "2379": "Ġpract",
  "2380": "Ġjelly",
  "2381": "ĠChirpy",
  "2382": "Ġtid",
  "2383": "Ġfake",
  "2384": "Ġcrayons",
  "2385": "Ġwondered",
  "2386": "Ġmaybe",
  "2387": "Ġscar",
  "2388": "Ġship",
  "2389": "Ġnothing",
  "2390": "onest",
  "2391": "Ġemb",
  "2392": "iger",
  "2393": "Ġpool",
  "2394": "Ġlonger",
  "2395": "Ġanyone",
  "2396": "ĠBe",
  "2397": "ĠJerry",
  "2398": "ually",
  "2399": "Ġfront",
  "2400": "Ġworking",
  "2401": "Ġgives",
  "2402": "irr",
  "2403": "Ġpack",
  "2404": "Ġsuch",
  "2405": "ĠBunny",
  "2406": "ocked",
  "2407": "ment",
  "2408": "Ġbossy",
  "2409": "ĠDoggy",
  "2410": "Ġtrouble",
  "2411": "Ġsmelled",
  "2412": "Ġsaved",
  "2413": "Ġpin",
  "2414": "rass",
  "2415": "Ġneigh",
  "2416": "arrass",
  "2417": "iting",
  "2418": "Ġhonest",
  "2419": "Ġav",
  "2420": "arge",
  "2421": "Ġembarrass",
  "2422": "Ġvan",
  "2423": "Ġforgive",
  "2424": "Ġtidy",
  "2425": "Ġweak",
  "2426": "urse",
  "2427": "Ġputs",
  "2428": "unk",
  "2429": "Ġkick",
  "2430": "Ġshirt",
  "2431": "ĠWith",
  "2432": "Ġmind",
  "2433": "ĠOllie",
  "2434": "Ġneighb",
  "2435": "Ġplants",
  "2436": "Ġsol",
  "2437": "ĠMomo",
  "2438": "Ġgently",
  "2439": "Ġcozy",
  "2440": "orrow",
  "2441": "ming",
  "2442": "Ġexplor",
  "2443": "sp",
  "2444": "Ġmistake",
  "2445": "Ġyog",
  "2446": "oc",
  "2447": "oomy",
  "2448": "Ġpointed",
  "2449": "Ġlad",
  "2450": "Ġaf",
  "2451": "Ġstood",
  "2452": "ork",
  "2453": "Ġonto",
  "2454": "Ġwaiting",
  "2455": "Ġjumping",
  "2456": "Ġprince",
  "2457": "Ġcross",
  "2458": "Ġlock",
  "2459": "Ġcheer",
  "2460": "Ġqueen",
  "2461": "ĠWhy",
  "2462": "ĠMary",
  "2463": "Ġwing",
  "2464": "ones",
  "2465": "we",
  "2466": "Ġlarge",
  "2467": "Ġlovely",
  "2468": "ult",
  "2469": "Ġsur",
  "2470": "Ġret",
  "2471": "And",
  "2472": "Ġdeer",
  "2473": "Ġchew",
  "2474": "Ġcouch",
  "2475": "Ġbal",
  "2476": "aughter",
  "2477": "Ġstret",
  "2478": "era",
  "2479": "ĠTheir",
  "2480": "Ġplaces",
  "2481": "ĠMy",
  "2482": "Ġladder",
  "2483": "oof",
  "2484": "Ġreturn",
  "2485": "raid",
  "2486": "Ġants",
  "2487": "Ġdish",
  "2488": "Ġafraid",
  "2489": "Ġcleaned",
  "2490": "Ġtomorrow",
  "2491": "Ġbuilding",
  "2492": "Ġsandwich",
  "2493": "Ġperson",
  "2494": "Sally",
  "2495": "ned",
  "2496": "Ġpretended",
  "2497": "Ġbounce",
  "2498": "Ġwip",
  "2499": "gest",
  "2500": "Ġmatch",
  "2501": "Ġrich",
  "2502": "uce",
  "2503": "Ġpizz",
  "2504": "Ġgather",
  "2505": "Ġsearch",
  "2506": "Ġboring",
  "2507": "oman",
  "2508": "ĠSomet",
  "2509": "Ġteeth",
  "2510": "Ġhum",
  "2511": "Kitty",
  "2512": "My",
  "2513": "aced",
  "2514": "Ġdaughter",
  "2515": "Ġwoman",
  "2516": "Ġscarf",
  "2517": "Ġgoes",
  "2518": "ĠTogether",
  "2519": "Ġlaw",
  "2520": "Ġstra",
  "2521": "Ġswimming",
  "2522": "Ġfurry",
  "2523": "Ġsplashed",
  "2524": "Ġpri",
  "2525": "Ġloves",
  "2526": "Ġtrue",
  "2527": "Ġscreamed",
  "2528": "Ġlazy",
  "2529": "Ġgen",
  "2530": "Ġanswer",
  "2531": "Ġnumber",
  "2532": "Ġeag",
  "2533": "Ġashamed",
  "2534": "Ġpizza",
  "2535": "aw",
  "2536": "Ġappeared",
  "2537": "Ġfear",
  "2538": "Ġnearby",
  "2539": "Ġpowerful",
  "2540": "Ġflag",
  "2541": "ĠSt",
  "2542": "Ġhang",
  "2543": "vous",
  "2544": "Ġclown",
  "2545": "ek",
  "2546": "Ġchase",
  "2547": "Ġmotor",
  "2548": "Ġwand",
  "2549": "ĠTV",
  "2550": "Ġrub",
  "2551": "Ġsuccess",
  "2552": "Ġchocol",
  "2553": "ĠIf",
  "2554": "Ġcreative",
  "2555": "Ġtrust",
  "2556": "Ġwearing",
  "2557": "Ġnoisy",
  "2558": "Ġmatter",
  "2559": "pa",
  "2560": "Ġdig",
  "2561": "Ġhello",
  "2562": "Ġner",
  "2563": "Ġtool",
  "2564": "Ġsaf",
  "2565": "ĠBird",
  "2566": "ado",
  "2567": "Ġnervous",
  "2568": "elp",
  "2569": "Ġtest",
  "2570": "Ġsmiling",
  "2571": "Ġsold",
  "2572": "icked",
  "2573": "oppy",
  "2574": "osaur",
  "2575": "Ġcircle",
  "2576": "mb",
  "2577": "Ġmap",
  "2578": "Ġdrank",
  "2579": "Ġclass",
  "2580": "Ġtries",
  "2581": "Ġchocolate",
  "2582": "ĠPlease",
  "2583": "Ġimpress",
  "2584": "Ġknee",
  "2585": "Ġgener",
  "2586": "Ġdinosaur",
  "2587": "Ġpolite",
  "2588": "Ġmirr",
  "2589": "ĠBobby",
  "2590": "ĠTiny",
  "2591": "Ġballoons",
  "2592": "Ġgold",
  "2593": "Ġrare",
  "2594": "Ġprotect",
  "2595": "Ġcand",
  "2596": "Stop",
  "2597": "Ġcarried",
  "2598": "ĠGo",
  "2599": "ensive",
  "2600": "Ġap",
  "2601": "Ġshadow",
  "2602": "Ġmirror",
  "2603": "ĠDon",
  "2604": "Ġbald",
  "2605": "Ġgun",
  "2606": "ina",
  "2607": "Ġexpensive",
  "2608": "Ġreg",
  "2609": "iff",
  "2610": "Ġmysterious",
  "2611": "ĠSp",
  "2612": "Ġpump",
  "2613": "Ġnote",
  "2614": "Ġhero",
  "2615": "Ġmarch",
  "2616": "Ġhar",
  "2617": "arl",
  "2618": "Ġicy",
  "2619": "Ġrespect",
  "2620": "Ġweird",
  "2621": "Ġsnee",
  "2622": "Ġcri",
  "2623": "Ġgate",
  "2624": "Ġsoap",
  "2625": "rag",
  "2626": "ute",
  "2627": "issors",
  "2628": "Ġthese",
  "2629": "Ġpoor",
  "2630": "Ġtowel",
  "2631": "Ġwhale",
  "2632": "Ġfeet",
  "2633": "Ġtape",
  "2634": "Ġdizzy",
  "2635": "itter",
  "2636": "Ġgenerous",
  "2637": "ndpa",
  "2638": "Ġpres",
  "2639": "ĠBenny",
  "2640": "nic",
  "2641": "Ġdisco",
  "2642": "Help",
  "2643": "ventually",
  "2644": "Ġpicnic",
  "2645": "Ġmic",
  "2646": "Ġlead",
  "2647": "Ġsque",
  "2648": "Ġembarrassed",
  "2649": "Ġjourney",
  "2650": "Ġsugar",
  "2651": "isp",
  "2652": "scape",
  "2653": "Ġboot",
  "2654": "Ġtent",
  "2655": "Ġpeaceful",
  "2656": "Ġfat",
  "2657": "ĠBear",
  "2658": "Ġscissors",
  "2659": "Ġtasted",
  "2660": "Ġyelled",
  "2661": "Tommy",
  "2662": "Ġtick",
  "2663": "Ġmel",
  "2664": "Ġbrush",
  "2665": "Ġdancing",
  "2666": "ness",
  "2667": "Ġglue",
  "2668": "Ġhur",
  "2669": "Ġrough",
  "2670": "Ġclap",
  "2671": "Ġbridge",
  "2672": "ote",
  "2673": "Ġdecor",
  "2674": "Ġcloset",
  "2675": "Ġcrown",
  "2676": "Ġstir",
  "2677": "ual",
  "2678": "imp",
  "2679": "Ġprint",
  "2680": "ĠSometimes",
  "2681": "owed",
  "2682": "airs",
  "2683": "ĠHow",
  "2684": "ume",
  "2685": "Ġcap",
  "2686": "Ġlamp",
  "2687": "Ġvase",
  "2688": "Ġscare",
  "2689": "lebr",
  "2690": "Ġrelie",
  "2691": "lves",
  "2692": "any",
  "2693": "Ġeld",
  "2694": "Ġtele",
  "2695": "Ġcelebr",
  "2696": "Ġgigg",
  "2697": "Ġwhisp",
  "2698": "Ġlog",
  "2699": "Ġsco",
  "2700": "Ġblow",
  "2701": "Ġpainted",
  "2702": "ĠDucky",
  "2703": "Ġpay",
  "2704": "erries",
  "2705": "Ġwis",
  "2706": "Ġberries",
  "2707": "Ġmixed",
  "2708": "Ġspread",
  "2709": "Ġwouldn",
  "2710": "Ġcage",
  "2711": "Ġbake",
  "2712": "rob",
  "2713": "getable",
  "2714": "Ġmountain",
  "2715": "Ġadm",
  "2716": "Ġdrawing",
  "2717": "Ġbecome",
  "2718": "Ġfamous",
  "2719": "Ġknocked",
  "2720": "Ġbean",
  "2721": "Ġnorm",
  "2722": "Ġvegetable",
  "2723": "asp",
  "2724": "Ġkicked",
  "2725": "ustr",
  "2726": "Ġshark",
  "2727": "ser",
  "2728": "Ġincred",
  "2729": "Ġlose",
  "2730": "Ġnormal",
  "2731": "Ġwrap",
  "2732": "ced",
  "2733": "Ġgroup",
  "2734": "Ġthick",
  "2735": "Ġ3",
  "2736": "Ġfine",
  "2737": "Ġglass",
  "2738": "Ġignor",
  "2739": "Ġclock",
  "2740": "Ġteam",
  "2741": "Ġelderly",
  "2742": "Ġclear",
  "2743": "Ġcorner",
  "2744": "Ġfrustr",
  "2745": "Ġmighty",
  "2746": "robe",
  "2747": "Ġcone",
  "2748": "Ġincredible",
  "2749": "ĠBr",
  "2750": "ighed",
  "2751": "Dad",
  "2752": "Ġmoms",
  "2753": "Ġbalance",
  "2754": "Ġsock",
  "2755": "Ġspace",
  "2756": "Ġjam",
  "2757": "ragile",
  "2758": "Ġfright",
  "2759": "Ġorganized",
  "2760": "Ġbranches",
  "2761": "Ġroar",
  "2762": "port",
  "2763": "Ġsword",
  "2764": "alous",
  "2765": "ĠMama",
  "2766": "Ġguess",
  "2767": "Ġfool",
  "2768": "Ġsell",
  "2769": "Ġfeed",
  "2770": "ĠSome",
  "2771": "Ġwhich",
  "2772": "Ġhorn",
  "2773": "Ġpresent",
  "2774": "Ġjealous",
  "2775": "Ġyarn",
  "2776": "ony",
  "2777": "Ġfragile",
  "2778": "Ġburn",
  "2779": "Ġunderstood",
  "2780": "Ġmis",
  "2781": "Ġstubb",
  "2782": "Ġter",
  "2783": "Ġfrustrated",
  "2784": "Where",
  "2785": "ray",
  "2786": "Ġhose",
  "2787": "cient",
  "2788": "Ġspent",
  "2789": "Ġshoe",
  "2790": "Ġtaught",
  "2791": "Ġstubborn",
  "2792": "Ġtwist",
  "2793": "Ġcreature",
  "2794": "Ġchest",
  "2795": "Ġspoiled",
  "2796": "Ġrelieved",
  "2797": "Ġancient",
  "2798": "ique",
  "2799": "Ġwake",
  "2800": "Ġfier",
  "2801": "Ġpray",
  "2802": "Ġfierce",
  "2803": "Ġeggs",
  "2804": "Ġcab",
  "2805": "Ġterri",
  "2806": "Ġbarn",
  "2807": "Ġpumpkin",
  "2808": "Ġcomfortable",
  "2809": "Ġord",
  "2810": "ym",
  "2811": "Ġfrightened",
  "2812": "orry",
  "2813": "Ġtoug",
  "2814": "Ġunique",
  "2815": "Ġmeasure",
  "2816": "Ġgoat",
  "2817": "Ġwagon",
  "2818": "Ġunus",
  "2819": "Ġbreath",
  "2820": "Ġfoolish",
  "2821": "Ġuseful",
  "2822": "Ġexploring",
  "2823": "dle",
  "2824": "Ġstraw",
  "2825": "Ġunusual",
  "2826": "Ġdug",
  "2827": "Ġclay",
  "2828": "Ġdiscover",
  "2829": "Ġtomato",
  "2830": "ĠPe",
  "2831": "Ġdead",
  "2832": "Ġfinding",
  "2833": "Ġpolice",
  "2834": "Ġwrote",
  "2835": "Ġclum",
  "2836": "Ġexam",
  "2837": "lace",
  "2838": "Ġwaves",
  "2839": "Ġsquare",
  "2840": "Ġhears",
  "2841": "Ġcabin",
  "2842": "Ġtells",
  "2843": "Ġnecklace",
  "2844": "Ġdull",
  "2845": "Ġclumsy",
  "2846": "Ġtough",
  "2847": "Ġbubbles",
  "2848": "Ġnosy",
  "2849": "kn",
  "2850": "Ġsearched",
  "2851": "Together",
  "2852": "Ġwashed",
  "2853": "Ġbathroom",
  "2854": "Ġpaws",
  "2855": "bby",
  "2856": "ond",
  "2857": "unn",
  "2858": "anged",
  "2859": "Ġboard",
  "2860": "fic",
  "2861": "known",
  "2862": "Ġasking",
  "2863": "Ġcrazy",
  "2864": "Ġthankful",
  "2865": "Ġsunf",
  "2866": "Ġbitter",
  "2867": "yal",
  "2868": "Ġpir",
  "2869": "berry",
  "2870": "alk",
  "2871": "Ġind",
  "2872": "Ġdiffic",
  "2873": "Ġrose",
  "2874": "cil",
  "2875": "Ġswan",
  "2876": "Ġbloom",
  "2877": "Ġunknown",
  "2878": "ĠElla",
  "2879": "Ġcovered",
  "2880": "Ġdifficult",
  "2881": "Ġadd",
  "2882": "Ġpencil",
  "2883": "Ġfinger",
  "2884": "Ġham",
  "2885": "Ġhoop",
  "2886": "Ġjet",
  "2887": "Ġwitch",
  "2888": "Ġdrop",
  "2889": "Me",
  "2890": "Ġ'",
  "2891": "Ġchicken",
  "2892": "Ġgloomy",
  "2893": "apped",
  "2894": "Ġloyal",
  "2895": "als",
  "2896": "Here",
  "2897": "Ġwealthy",
  "2898": "com",
  "2899": "light",
  "2900": "Ġunl",
  "2901": "Ġcats",
  "2902": "Ġending",
  "2903": "Ġguit",
  "2904": "bled",
  "2905": "shine",
  "2906": "Ġdove",
  "2907": "Ġjoined",
  "2908": "Ġcher",
  "2909": "anut",
  "2910": "Ġmov",
  "2911": "Ġterrible",
  "2912": "Ġyours",
  "2913": "iant",
  "2914": "ĠU",
  "2915": "ĠRex",
  "2916": "Ġsalad",
  "2917": "ĠAndy",
  "2918": "Ġnuts",
  "2919": "Ġrat",
  "2920": "ground",
  "2921": "Ġtiger",
  "2922": "Ġpotato",
  "2923": "Ġmask",
  "2924": "xible",
  "2925": "selves",
  "2926": "Ġvalue",
  "2927": "Ġchanged",
  "2928": "Ġmoving",
  "2929": "Ġexciting",
  "2930": "ormous",
  "2931": "ĠMany",
  "2932": "Ġbody",
  "2933": "ĠTr",
  "2934": "Ġtoast",
  "2935": "Ġrecord",
  "2936": "erp",
  "2937": "Ġzip",
  "2938": "Ġdisg",
  "2939": "Ġcheap",
  "2940": "Ġguitar",
  "2941": "irsty",
  "2942": "Ġknowing",
  "2943": "Ġadventur",
  "2944": "Ġyourself",
  "2945": "Ġenormous",
  "2946": "Ġhairy",
  "2947": "Every",
  "2948": "Ġshoot",
  "2949": "ĠBrown",
  "2950": "Ġbored",
  "2951": "Ġpepper",
  "2952": "Ġremind",
  "2953": "ory",
  "2954": "land",
  "2955": "Ġacorn",
  "2956": "Ġadventurous",
  "2957": "Ġsunshine",
  "2958": "Ġsmaller",
  "2959": "Ġstuff",
  "2960": "Ġhats",
  "2961": "Ġsolve",
  "2962": "ĠJimmy",
  "2963": "Ġflexible",
  "2964": "Ġcost",
  "2965": "rilliant",
  "2966": "Ġknife",
  "2967": "Ġperform",
  "2968": "Ġsnacks",
  "2969": "Ġnods",
  "2970": "Ġshore",
  "2971": "Ġbrilliant",
  "2972": "Ġthirsty",
  "2973": "Ġdelicate",
  "2974": "Ġfrown",
  "2975": "Ġdisgust",
  "2976": "Ġcollect",
  "2977": "Ġstri",
  "2978": "Ġseeds",
  "2979": "Ġcounted",
  "2980": "Ġasleep",
  "2981": "Ġbanana",
  "2982": "reen",
  "2983": "Ġmailbox",
  "2984": "iness",
  "2985": "Ġdough",
  "2986": "Ġtrick",
  "2987": "Ġneighbor",
  "2988": "ungle",
  "2989": "Ġheal",
  "2990": "live",
  "2991": "Who",
  "2992": "Ġstage",
  "2993": "ident",
  "2994": "Ġmarket",
  "2995": "Ġcube",
  "2996": "Ġstat",
  "2997": "Ġjungle",
  "2998": "Ġsquee",
  "2999": "mbre",
  "3000": "Ġexplained",
  "3001": "ates",
  "3002": "Ġumbre",
  "3003": "Ġdisgusting",
  "3004": "Jim",
  "3005": "fted",
  "3006": "Ġlab",
  "3007": "Ġjolly",
  "3008": "Ġflash",
  "3009": "und",
  "3010": "Ġfridge",
  "3011": "inal",
  "3012": "pid",
  "3013": "ilt",
  "3014": "Ġcrane",
  "3015": "corn",
  "3016": "Ġsuit",
  "3017": "Ġrh",
  "3018": "iddle",
  "3019": "Ġsunflower",
  "3020": "Ġtimes",
  "3021": "ĠAl",
  "3022": "erpill",
  "3023": "Ġcaterpill",
  "3024": "Ġrelax",
  "3025": "Ġshiver",
  "3026": "Ġfour",
  "3027": "Ġisland",
  "3028": "iginal",
  "3029": "Ġharm",
  "3030": "ict",
  "3031": "ĠWhile",
  "3032": "ying",
  "3033": "Ġstupid",
  "3034": "Ġmedic",
  "3035": "ĠInstead",
  "3036": "Ġcomb",
  "3037": "Ġgoose",
  "3038": "Ġcro",
  "3039": "edient",
  "3040": "ĠWill",
  "3041": "Ġstove",
  "3042": "If",
  "3043": "Are",
  "3044": "Ġindepend",
  "3045": "Mum",
  "3046": "most",
  "3047": "Ġspring",
  "3048": "Ġgem",
  "3049": "Ġbatter",
  "3050": "Ġsighed",
  "3051": "Ġvegetables",
  "3052": "Ġstones",
  "3053": "pes",
  "3054": "Ġshine",
  "3055": "How",
  "3056": "Ġmedicine",
  "3057": "Ġdepend",
  "3058": "Ġrug",
  "3059": "ĠYour",
  "3060": "Ġcareless",
  "3061": "Ġoriginal",
  "3062": "Ġstamp",
  "3063": "Ġgar",
  "3064": "Ġcries",
  "3065": "Inside",
  "3066": "gu",
  "3067": "Ġcarrots",
  "3068": "Ġscr",
  "3069": "Ġsuccessful",
  "3070": "Ġsauce",
  "3071": "Ġjeep",
  "3072": "Ġpopcorn",
  "3073": "Ġmeal",
  "3074": "Ġobedient",
  "3075": "Ġalmost",
  "3076": "Ġmiddle",
  "3077": "Ġmagn",
  "3078": "Ġstudy",
  "3079": "Ġindependent",
  "3080": "Ġfearful",
  "3081": "Ġjack",
  "3082": "met",
  "3083": "inky",
  "3084": "Sorry",
  "3085": "ĠSammy",
  "3086": "Ġescape",
  "3087": "Ġcaterpillar",
  "3088": "Ġserious",
  "3089": "Ġpeanut",
  "3090": "Ġbedroom",
  "3091": "Ġeager",
  "3092": "aken",
  "3093": "Ġgets",
  "3094": "Ġparrot",
  "3095": "Ġstatue",
  "3096": "Ġhelmet",
  "3097": "Ġpebb",
  "3098": "ĠNo",
  "3099": "Ġfountain",
  "3100": "Ġraven",
  "3101": "Ġang",
  "3102": "Ġpasta",
  "3103": "Ġumbrella",
  "3104": "Ġcompet",
  "3105": "There",
  "3106": "Ġjacket",
  "3107": "Ġbelonged",
  "3108": "Ġdest",
  "3109": "Ġfilthy",
  "3110": "Ġdesign",
  "3111": "Ġborrow",
  "3112": "Ġcam",
  "3113": "erable",
  "3114": "Ġhouses",
  "3115": "Ġprize",
  "3116": "Ġhay",
  "3117": "Ġbrace",
  "3118": "Ġstanding",
  "3119": "Ġmiserable",
  "3120": "Ġraced",
  "3121": "Ġtaken",
  "3122": "ages",
  "3123": "Ġfork",
  "3124": "Ġcrayon",
  "3125": "Ġpainting",
  "3126": "io",
  "3127": "Ġtriang",
  "3128": "Ġimpressive",
  "3129": "Ġchoose",
  "3130": "Ġfig",
  "3131": "Ġtied",
  "3132": "iable",
  "3133": "Ġspotted",
  "3134": "Ġlifted",
  "3135": "Ġslipped",
  "3136": "ours",
  "3137": "Ġtank",
  "3138": "Ġthoughtful",
  "3139": "Ġdependable",
  "3140": "Ġsteal",
  "3141": "Ġgarage",
  "3142": "enny",
  "3143": "Ġbuilt",
  "3144": "Ġmush",
  "3145": "Ġer",
  "3146": "ipe",
  "3147": "Ġmole",
  "3148": "Ġcrawled",
  "3149": "Ġscale",
  "3150": "Ġboats",
  "3151": "Ġpian",
  "3152": "Ġpant",
  "3153": "Ġhammer",
  "3154": "Ġbottom",
  "3155": "lph",
  "3156": "Ġcheerful",
  "3157": "Ġusing",
  "3158": "Ġsmoke",
  "3159": "Ġpicks",
  "3160": "Ġmoder",
  "3161": "berries",
  "3162": "Ġshows",
  "3163": "rn",
  "3164": "Ġpiano",
  "3165": "Ġmagnet",
  "3166": "dile",
  "3167": "codile",
  "3168": "Ġhurts",
  "3169": "inary",
  "3170": "Ġref",
  "3171": "Ġcrack",
  "3172": "Ġeng",
  "3173": "Ġaunt",
  "3174": "Ġmelon",
  "3175": "Ġwaff",
  "3176": "Ġmodern",
  "3177": "Ġdolph",
  "3178": "unnel",
  "3179": "cream",
  "3180": "pack",
  "3181": "Ġtunnel",
  "3182": "oin",
  "3183": "Ġarrow",
  "3184": "Ġreliable",
  "3185": "Ġhopping",
  "3186": "Ġmushroom",
  "3187": "Ġjug",
  "3188": "Timmy",
  "3189": "Ġsquash",
  "3190": "Ġgum",
  "3191": "Ġsink",
  "3192": "Ġmovie",
  "3193": "Ġtax",
  "3194": "Ġflute",
  "3195": "Ġbeet",
  "3196": "Ġlean",
  "3197": "Their",
  "3198": "iv",
  "3199": "Ġpopular",
  "3200": "opter",
  "3201": "icopter",
  "3202": "Ġcryst",
  "3203": "Ġones",
  "3204": "Ġsil",
  "3205": "Ġcompetit",
  "3206": "Ġhelicopter",
  "3207": "aser",
  "3208": "Ġneeds",
  "3209": "ipop",
  "3210": "llipop",
  "3211": "Ġcrocodile",
  "3212": "Ġliz",
  "3213": "Molly",
  "3214": "Ġpress",
  "3215": "Ġtroubled",
  "3216": "Ġpige",
  "3217": "Ġlocked",
  "3218": "Ġtricks",
  "3219": "Ġlollipop",
  "3220": "Ġplayful",
  "3221": "Ġhumble",
  "3222": "Ġtaxi",
  "3223": "Ġkissed",
  "3224": "Ġlow",
  "3225": "appy",
  "3226": "comfortable",
  "3227": "amond",
  "3228": "Ġuncomfortable",
  "3229": "Ġrid",
  "3230": "host",
  "3231": "Ġwander",
  "3232": "atch",
  "3233": "Ġangel",
  "3234": "edy",
  "3235": "cles",
  "3236": "Ġtorn",
  "3237": "Ġgrace",
  "3238": "Ġanx",
  "3239": "Ġwrapped",
  "3240": "Ġmuff",
  "3241": "Ġtwig",
  "3242": "Ġpants",
  "3243": "Ġdisappoin",
  "3244": "ĠSn",
  "3245": "Ġhelps",
  "3246": "Ġdiamond",
  "3247": "Ġcamera",
  "3248": "atter",
  "3249": "oto",
  "3250": "Ġanxious",
  "3251": "Ġghost",
  "3252": "Ġtears",
  "3253": "Ġruined",
  "3254": "cident",
  "3255": "ĠJenny",
  "3256": "ilty",
  "3257": "Ġquar",
  "3258": "aff",
  "3259": "ĠEven",
  "3260": "Ġfis",
  "3261": "opl",
  "3262": "Ġbelt",
  "3263": "eropl",
  "3264": "Ġenv",
  "3265": "Ġguilty",
  "3266": "Ġbull",
  "3267": "Ġaeropl",
  "3268": "Ġhelpless",
  "3269": "Ġhappiness",
  "3270": "Ġlizard",
  "3271": "Ġboys",
  "3272": "cut",
  "3273": "ext",
  "3274": "Ġcere",
  "3275": "Ġwalks",
  "3276": "cean",
  "3277": "Ġpassed",
  "3278": "Ġmeant",
  "3279": "Ġocean",
  "3280": "Ġfluffy",
  "3281": "Ġwire",
  "3282": "Ġnail",
  "3283": "Ġbracelet",
  "3284": "Ġdeaf",
  "3285": "zed",
  "3286": "Ġstretch",
  "3287": "Ġcandle",
  "3288": "Ġcact",
  "3289": "tt",
  "3290": "Ġbeetle",
  "3291": "Ġmop",
  "3292": "Ġharmless",
  "3293": "umpet",
  "3294": "Ġordinary",
  "3295": "Ġanswered",
  "3296": "Ġcollar",
  "3297": "Ġcop",
  "3298": "Ġbees",
  "3299": "Ġtire",
  "3300": "Ġshape",
  "3301": "Ġquarrel",
  "3302": "Ġradio",
  "3303": "Ġflashlight",
  "3304": "Ġcrystal",
  "3305": "Ġharder",
  "3306": "Ġpoured",
  "3307": "Ġtrumpet",
  "3308": "Ġengine",
  "3309": "Mama",
  "3310": "Ġpersist",
  "3311": "Ġhunt",
  "3312": "Ġtooth",
  "3313": "Ġcereal",
  "3314": "Ġinvited",
  "3315": "Ġcomput",
  "3316": "Ġtag",
  "3317": "Ġoffice",
  "3318": "Ġmelt",
  "3319": "Ġspill",
  "3320": "Ġcharm",
  "3321": "coa",
  "3322": "Ġlit",
  "3323": "Ġscoot",
  "3324": "Ġcomet",
  "3325": "Ġtriangle",
  "3326": "ief",
  "3327": "Ġmug",
  "3328": "Ġrep",
  "3329": "ube",
  "3330": "Ġyogurt",
  "3331": "Ġspend",
  "3332": "Ġcompass",
  "3333": "Ġaccident",
  "3334": "Ġshade",
  "3335": "hett",
  "3336": "aghett",
  "3337": "aghetti",
  "3338": "Ġdisappointed",
  "3339": "Ġlicked",
  "3340": "Ġcactus",
  "3341": "Ġpale",
  "3342": "Ġcush",
  "3343": "Ġfigure",
  "3344": "Ġregular",
  "3345": "Ġgiving",
  "3346": "Ġavoc",
  "3347": "Ġpro",
  "3348": "Ġsheet",
  "3349": "Ġwhispered",
  "3350": "aze",
  "3351": "uth",
  "3352": "ellig",
  "3353": "Ġcreate",
  "3354": "Ġbarber",
  "3355": "Ġintellig",
  "3356": "Ġpipe",
  "3357": "Ġrode",
  "3358": "Ġroof",
  "3359": "Jane",
  "3360": "Ġthread",
  "3361": "ither",
  "3362": "Ġvi",
  "3363": "Ġload",
  "3364": "Ġlibr",
  "3365": "Ġgifted",
  "3366": "ccol",
  "3367": "Ġpracticed",
  "3368": "Ġdelight",
  "3369": "ccoli",
  "3370": "Ġharsh",
  "3371": "asses",
  "3372": "Ġpow",
  "3373": "Ġdust",
  "3374": "ĠTrue",
  "3375": "Ġbicy",
  "3376": "azz",
  "3377": "Ġspaghetti",
  "3378": "Ġcompassion",
  "3379": "Ġsailed",
  "3380": "urkey",
  "3381": "ubby",
  "3382": "Ġforward",
  "3383": "Ġpersistent",
  "3384": "Ġspeed",
  "3385": "Ġmitten",
  "3386": "Ġcocoa",
  "3387": "Ġenvel",
  "3388": "Ġquestions",
  "3389": "Ġcomputer",
  "3390": "Ġcoo",
  "3391": "Ġfeathers",
  "3392": "hip",
  "3393": "Ġglove",
  "3394": "ging",
  "3395": "Bobo",
  "3396": "Ġrice",
  "3397": "Ġshrimp",
  "3398": "Ġdesk",
  "3399": "Ġstream",
  "3400": "Ġinse",
  "3401": "Ġpigeon",
  "3402": "Ġcharming",
  "3403": "Ġears",
  "3404": "Ġcarp",
  "3405": "lcan",
  "3406": "Ġraft",
  "3407": "Ġenvious",
  "3408": "Ġknot",
  "3409": "Ġturkey",
  "3410": "Ġstronger",
  "3411": "omes",
  "3412": "Ġcoins",
  "3413": "Ġtap",
  "3414": "lcano",
  "3415": "weet",
  "3416": "Ġtrap",
  "3417": "umbers",
  "3418": "Ġaeroplane",
  "3419": "Ġtrunk",
  "3420": "Ġwheat",
  "3421": "Ġboxes",
  "3422": "Ġchubby",
  "3423": "Ġcarpet",
  "3424": "Ġrestless",
  "3425": "Ġintelligent",
  "3426": "Ġtube",
  "3427": "Ġspun",
  "3428": "Ġdreams",
  "3429": "Ġfriendship",
  "3430": "ulif",
  "3431": "olin",
  "3432": "Ġhalf",
  "3433": "Ġloop",
  "3434": "Ġcrawl",
  "3435": "Ġbroccoli",
  "3436": "Ġonion",
  "3437": "Ġdeliver",
  "3438": "anger",
  "3439": "Ġacce",
  "3440": "Ġvide",
  "3441": "Ġvolcano",
  "3442": "ĠJake",
  "3443": "Ġsle",
  "3444": "Ġtrack",
  "3445": "Ġbri",
  "3446": "Ġcaulif",
  "3447": "Ġvine",
  "3448": "ye",
  "3449": "Ġticket",
  "3450": "Ġthief",
  "3451": "essie",
  "3452": "cycle",
  "3453": "Ġlouder",
  "3454": "Ġinsect",
  "3455": "Ġnumbers",
  "3456": "asing",
  "3457": "Ġyaw",
  "3458": "Ġhaircut",
  "3459": "ital",
  "3460": "Ġsleeping",
  "3461": "Ġmill",
  "3462": "Ġeventually",
  "3463": "Ġalert",
  "3464": "Ġexcite",
  "3465": "Ġpebble",
  "3466": "Ġhosp",
  "3467": "Ġattract",
  "3468": "Ġplanet",
  "3469": "ĠToday",
  "3470": "Ġuniver",
  "3471": "isted",
  "3472": "ulu",
  "3473": "Ġhospital",
  "3474": "Ġeraser",
  "3475": "Ġreturned",
  "3476": "Ġdestro",
  "3477": "Ġgraceful",
  "3478": "Ġhappening",
  "3479": "ache",
  "3480": "ĠOK",
  "3481": "ĠEmily",
  "3482": "Ġdecide",
  "3483": "Ġlearning",
  "3484": "Ġscreen",
  "3485": "rework",
  "3486": "Ġnicely",
  "3487": "Ġleop",
  "3488": "Ġcauliflower",
  "3489": "Ġcompetitive",
  "3490": "Ġpoem",
  "3491": "Ġcelebrate",
  "3492": "Ġcurt",
  "3493": "Ġpeach",
  "3494": "Ġsoldier",
  "3495": "Ġsaus",
  "3496": "Ġparade",
  "3497": "atient",
  "3498": "Ġattractive",
  "3499": "Ġcurtain",
  "3500": "Ġdolphin",
  "3501": "Ġbase",
  "3502": "Ġviolin",
  "3503": "Ġways",
  "3504": "Go",
  "3505": "ats",
  "3506": "Ġtravel",
  "3507": "ten",
  "3508": "Ġrod",
  "3509": "Ġignorant",
  "3510": "ulb",
  "3511": "Ġwheels",
  "3512": "Ġyach",
  "3513": "Ġscatter",
  "3514": "Ġdeter",
  "3515": "Ġcompassionate",
  "3516": "Ġbarrel",
  "3517": "Ġenvelope",
  "3518": "Ġbubble",
  "3519": "Ġlying",
  "3520": "Ġfirework",
  "3521": "Ġsort",
  "3522": "Ġquestion",
  "3523": "zzy",
  "3524": "ĠPipp",
  "3525": "Ġscooter",
  "3526": "Ġdeterm",
  "3527": "Ġrag",
  "3528": "Ġthu",
  "3529": "Ġbicycle",
  "3530": "elery",
  "3531": "Ġneedle",
  "3532": "ĠFr",
  "3533": "Ġjudge",
  "3534": "Ġbulb",
  "3535": "Ġleopard",
  "3536": "Ġtem",
  "3537": "Ġyacht",
  "3538": "Ġpony",
  "3539": "Ġcricket",
  "3540": "Ġorder",
  "3541": "Ġhomes",
  "3542": "Ġador",
  "3543": "tern",
  "3544": "Ġtruth",
  "3545": "Ġhook",
  "3546": "dom",
  "3547": "Ġrubbed",
  "3548": "ete",
  "3549": "igator",
  "3550": "Ġbushes",
  "3551": "Sarah",
  "3552": "Ġuncle",
  "3553": "Ġcushion",
  "3554": "Ġspell",
  "3555": "Ġgrown",
  "3556": "Ġcooked",
  "3557": "Ġadorable",
  "3558": "Ġchalk",
  "3559": "Ġsoar",
  "3560": "Ġpurse",
  "3561": "Ġskin",
  "3562": "Ġthemselves",
  "3563": "Ġimpatient",
  "3564": "Ġcelery",
  "3565": "Ġtray",
  "3566": "Ġshells",
  "3567": "Ġpengu",
  "3568": "Ġsniff",
  "3569": "Ġprun",
  "3570": "Ġwalls",
  "3571": "Ġseal",
  "3572": "Ġlively",
  "3573": "Ġcase",
  "3574": "Ġalligator",
  "3575": "Ġdistant",
  "3576": "Ġradish",
  "3577": "Ġsaying",
  "3578": "Ġspeak",
  "3579": "Ġmotorcycle",
  "3580": "Ġmeat",
  "3581": "Ġsend",
  "3582": "illa",
  "3583": "Ġspinning",
  "3584": "Ġforth",
  "3585": "Ġcounting",
  "3586": "Ġenth",
  "3587": "Ġbounced",
  "3588": "Ġchain",
  "3589": "Ġed",
  "3590": "Ġcleaning",
  "3591": "ebra",
  "3592": "Ġfilm",
  "3593": "Ġslept",
  "3594": "Ġpit",
  "3595": "Ġsurf",
  "3596": "Ġmarry",
  "3597": "usia",
  "3598": "Ġwallet",
  "3599": "Ġenthusia",
  "3600": "Ġmetal",
  "3601": "urb",
  "3602": "ebook",
  "3603": "Ġbin",
  "3604": "Ġweek",
  "3605": "Ġnotebook",
  "3606": "Ġwiped",
  "3607": "Ġskip",
  "3608": "ision",
  "3609": "chair",
  "3610": "Ġbiggest",
  "3611": "Ġimpro",
  "3612": "Ġavocado",
  "3613": "Ġbehave",
  "3614": "Ġdestroy",
  "3615": "vator",
  "3616": "Ġbandage",
  "3617": "Ġlaughs",
  "3618": "Ġsteak",
  "3619": "Ġpattern",
  "3620": "ĠSh",
  "3621": "Ġpost",
  "3622": "Ġelevator",
  "3623": "ĠBuzz",
  "3624": "usie",
  "3625": "Ġdive",
  "3626": "Ġshut",
  "3627": "Ġskipped",
  "3628": "Ġunlock",
  "3629": "Ġdiary",
  "3630": "dest",
  "3631": "ject",
  "3632": "Ġzebra",
  "3633": "Ġbags",
  "3634": "ating",
  "3635": "Ġarmchair",
  "3636": "rage",
  "3637": "aged",
  "3638": "Ġdisturb",
  "3639": "Ġoy",
  "3640": "Ġpole",
  "3641": "Ġshowing",
  "3642": "Ġgathered",
  "3643": "Ġclub",
  "3644": "Ġnurse",
  "3645": "bul",
  "3646": "Ġearth",
  "3647": "Ġenc",
  "3648": "Ġstranger",
  "3649": "Ġsweater",
  "3650": "Ġjellyfish",
  "3651": "Ġscrew",
  "3652": "Ġtemp",
  "3653": "ĠPoppy",
  "3654": "Ġcompl",
  "3655": "Ġmixer",
  "3656": "Give",
  "3657": "Ġskull",
  "3658": "Ġlime",
  "3659": "Ġbump",
  "3660": "bulance",
  "3661": "Ġambulance",
  "3662": "nam",
  "3663": "Ġfather",
  "3664": "Ġjournal",
  "3665": "Gra",
  "3666": "Ġloudly",
  "3667": "ito",
  "3668": "Ġfolder",
  "3669": "Ġshield",
  "3670": "ĠBet",
  "3671": "ĠLulu",
  "3672": "Ġlibrary",
  "3673": "ĠPeter",
  "3674": "Ġbuttons",
  "3675": "Ġplayground",
  "3676": "Ġtrucks",
  "3677": "Ġink",
  "3678": "Ġlights",
  "3679": "Ġtummy",
  "3680": "Ġpointing",
  "3681": "Ġcity",
  "3682": "Ġdecorate",
  "3683": "Ġstation",
  "3684": "irit",
  "3685": "Ġprep",
  "3686": "Ġfalls",
  "3687": "quito",
  "3688": "ĠPolly",
  "3689": "Billy",
  "3690": "Ġfu",
  "3691": "ĠFo",
  "3692": "ention",
  "3693": "nger",
  "3694": "ĠBirdy",
  "3695": "lies",
  "3696": "Ġherb",
  "3697": "nament",
  "3698": "Ġornament",
  "3699": "Ġmodest",
  "3700": "Ġguard",
  "3701": "Ġmos",
  "3702": "Ġknows",
  "3703": "Ġcord",
  "3704": "Ġpolish",
  "3705": "Ġmarble",
  "3706": "oby",
  "3707": "Ġmosquito",
  "3708": "umbled",
  "3709": "Ġsalt",
  "3710": "Ġattic",
  "3711": "Ġwhenever",
  "3712": "Ġvest",
  "3713": "ctop",
  "3714": "Ġresc",
  "3715": "Ġyet",
  "3716": "Ġple",
  "3717": "Ġdisappeared",
  "3718": "ceed",
  "3719": "Ġstrawberry",
  "3720": "Ġonce",
  "3721": "ĠMum",
  "3722": "Ġkay",
  "3723": "Ġbrothers",
  "3724": "Ġitch",
  "3725": "Ġpirate",
  "3726": "Ġfootball",
  "3727": "Ġsplit",
  "3728": "kele",
  "3729": "keleton",
  "3730": "Ġhipp",
  "3731": "Ġaut",
  "3732": "Ġled",
  "3733": "uring",
  "3734": "ctopus",
  "3735": "Ġdriving",
  "3736": "Ġcable",
  "3737": "Ġsupport",
  "3738": "Ġcalling",
  "3739": "Ġcupboard",
  "3740": "aky",
  "3741": "ushed",
  "3742": "Ġwishes",
  "3743": "Ġcomplet",
  "3744": "Ġtripped",
  "3745": "Ġroot",
  "3746": "Ġkayak",
  "3747": "Ġoctopus",
  "3748": "obile",
  "3749": "Ġadded",
  "3750": "Ġedge",
  "3751": "Ġmild",
  "3752": "stic",
  "3753": "Ġdetermined",
  "3754": "Ġsucceed",
  "3755": "?\".",
  "3756": "Ġreading",
  "3757": "omobile",
  "3758": "Ġcoal",
  "3759": "Well",
  "3760": "gl",
  "3761": "utes",
  "3762": "par",
  "3763": "Ġsuggest",
  "3764": "Ġstack",
  "3765": "Ġthunder",
  "3766": "Ġkindness",
  "3767": "Ġautomobile",
  "3768": "Ġcomplain",
  "3769": "Ġenthusiastic",
  "3770": "Ġsneeze",
  "3771": "Ġcartoon",
  "3772": "Ġyoga",
  "3773": "ĠLittle",
  "3774": "Ġgrowl",
  "3775": "htub",
  "3776": "Ġflea",
  "3777": "la",
  "3778": "Ġmeadow",
  "3779": "Ġdrawer",
  "3780": "Ġbathtub",
  "3781": "Ġribb",
  "3782": "ophone",
  "3783": "Ġmeans",
  "3784": "Ġhall",
  "3785": "Ġgolf",
  "3786": "Ġskeleton",
  "3787": "Ġmath",
  "3788": "Ġveil",
  "3789": "Ġhunter",
  "3790": "Ġgor",
  "3791": "Ġflame",
  "3792": "Ġpoke",
  "3793": "Ġvideo",
  "3794": "Ġchess",
  "3795": "Ġtroph",
  "3796": "Ġcups",
  "3797": "Ġglowing",
  "3798": "Ġmatt",
  "3799": "Ġoyster",
  "3800": "work",
  "3801": "Ġpenny",
  "3802": "Ġspear",
  "3803": "Ġitself",
  "3804": "Ġdrawings",
  "3805": "Ġhippo",
  "3806": "Ġrepair",
  "3807": "Ġswitch",
  "3808": "glasses",
  "3809": "Ġsunglasses",
  "3810": "Ġteleph",
  "3811": "Ġcostume",
  "3812": "Ġdess",
  "3813": "Ġzipp",
  "3814": ",âĢĿ",
  "3815": "Ġrepe",
  "3816": "Ġmuffin",
  "3817": "Ġarg",
  "3818": "Ġpastry",
  "3819": "Ġpun",
  "3820": "Ġrolling",
  "3821": "Ġminutes",
  "3822": "Ġpacked",
  "3823": "Ġmakeup",
  "3824": "iron",
  "3825": "ric",
  "3826": "ĠPeople",
  "3827": "Ġwaffle",
  "3828": "case",
  "3829": "Ġhandle",
  "3830": "Ġpear",
  "3831": "Ġmaze",
  "3832": "Ġtelephone",
  "3833": "Ġpine",
  "3834": "ait",
  "3835": "Ġgear",
  "3836": "Ġhedge",
  "3837": "Ġmattress",
  "3838": "Ġpackage",
  "3839": "aving",
  "3840": "ĠMiss",
  "3841": "Ġshocked",
  "3842": "ines",
  "3843": "Ġtrophy",
  "3844": "Ġpowder",
  "3845": "Ġknight",
  "3846": "Ġcob",
  "3847": "Ġmissile",
  "3848": "Ġmanaged",
  "3849": "Ġframe",
  "3850": "Ġencou",
  "3851": "Ġwife",
  "3852": "Ġok",
  "3853": "Ġsepar",
  "3854": "web",
  "3855": "Ġstairs",
  "3856": "Ġrot",
  "3857": "Ġcamp",
  "3858": "urch",
  "3859": "rophone",
  "3860": "Ġmagaz",
  "3861": "Ġstrugg",
  "3862": "Ġcolour",
  "3863": "Ġgrapes",
  "3864": "time",
  "3865": "Ġfile",
  "3866": "head",
  "3867": "ĠTina",
  "3868": "Ġbasketball",
  "3869": "Bye",
  "3870": "old",
  "3871": "per",
  "3872": "Ġcobweb",
  "3873": "Re",
  "3874": "Jimmy",
  "3875": "ĠTweet",
  "3876": "See",
  "3877": "Ġperm",
  "3878": "Ġwool",
  "3879": "ĠDan",
  "3880": "Ġmicrophone",
  "3881": "esday",
  "3882": "Ġeye",
  "3883": "Ġleash",
  "3884": "Ġgasp",
  "3885": "iew",
  "3886": "keep",
  "3887": "Ġweep",
  "3888": "Ġbarking",
  "3889": "ature",
  "3890": "Ġsafely",
  "3891": "Ġtear",
  "3892": "Ġview",
  "3893": "ffe",
  "3894": "Ġslides",
  "3895": "Ġsteps",
  "3896": "istol",
  "3897": "ffee",
  "3898": "Ġbananas",
  "3899": "Ġstaff",
  "3900": "Ġspirit",
  "3901": "Ġtask",
  "3902": "Ġgiggled",
  "3903": "Ġhoc",
  "3904": "Ġhockey",
  "3905": "Ġvend",
  "3906": "Ġthose",
  "3907": "Ġgorilla",
  "3908": "Jill",
  "3909": "Ġcooler",
  "3910": "ĠRose",
  "3911": "was",
  "3912": "cing",
  "3913": "Ġearly",
  "3914": "Ġmarched",
  "3915": "rosc",
  "3916": "Ġmint",
  "3917": "ĠLook",
  "3918": "washer",
  "3919": "Ġflour",
  "3920": "Ġhotel",
  "3921": "hic",
  "3922": "Ġsailor",
  "3923": "Ġdessert",
  "3924": "Ġphoto",
  "3925": "roscope",
  "3926": "Ġvehic",
  "3927": "ilot",
  "3928": "Ġoften",
  "3929": "Ġchurch",
  "3930": "ĠPete",
  "3931": "Ġcooking",
  "3932": "Ġremain",
  "3933": "Ġfive",
  "3934": "Ġsausage",
  "3935": "otter",
  "3936": "Ġten",
  "3937": "Ġtools",
  "3938": "Ġmedal",
  "3939": "Ġeither",
  "3940": "Ġfireman",
  "3941": "chor",
  "3942": "Ġgrandpa",
  "3943": "Ġotter",
  "3944": "Ġbaseball",
  "3945": "Ġpretending",
  "3946": "Ġpistol",
  "3947": "Ġdishwasher",
  "3948": "Ġrever",
  "3949": "Ġorganize",
  "3950": "Ġpee",
  "3951": "Ġvendor",
  "3952": "Ġknock",
  "3953": "Ġsight",
  "3954": "Ġgrill",
  "3955": "Ġtemple",
  "3956": "Ġbattery",
  "3957": "Ġthinking",
  "3958": "Ġopens",
  "3959": "Ġow",
  "3960": "Ġrealised",
  "3961": "Ġiron",
  "3962": "Ġlaser",
  "3963": "Ġsne",
  "3964": "Ġsandbox",
  "3965": "Ġoil",
  "3966": "Ġpatch",
  "3967": "Ġhours",
  "3968": "Ġrise",
  "3969": "Ġwhip",
  "3970": "'d",
  "3971": "ctory",
  "3972": "ĠGive",
  "3973": "Ġanchor",
  "3974": "Ġtrash",
  "3975": "ense",
  "3976": "Ġshort",
  "3977": "ney",
  "3978": "ĠBetty",
  "3979": "Ġrhin",
  "3980": "Ġfactory",
  "3981": "seum",
  "3982": "Ġmay",
  "3983": "Ġward",
  "3984": "ately",
  "3985": "Ġcardboard",
  "3986": "ugged",
  "3987": "Ġlotion",
  "3988": "Al",
  "3989": "Ġmessage",
  "3990": "Ġvalu",
  "3991": "Ġwardrobe",
  "3992": "Ġcell",
  "3993": "Ġmuseum",
  "3994": "apers",
  "3995": "Ġur",
  "3996": "ination",
  "3997": "Ġhanging",
  "3998": "ucet",
  "3999": "ailable",
  "4000": "ĠSunny",
  "4001": "ĠZoom",
  "4002": "Ġhive",
  "4003": "eer",
  "4004": "Ġtowers",
  "4005": "keeper",
  "4006": "Ġblackboard",
  "4007": "Ġmem",
  "4008": "Ġexcitement",
  "4009": "Ġcoffee",
  "4010": "Ġpilot",
  "4011": "ready",
  "4012": "Fluffy",
  "4013": "Ġnapkin",
  "4014": "Ġpenguin",
  "4015": "ron",
  "4016": "Ġcheck",
  "4017": "Ġreward",
  "4018": "loo",
  "4019": "Ġquit",
  "4020": "ĠPippin",
  "4021": "Ġcane",
  "4022": "Ġpicking",
  "4023": "place",
  "4024": "ĠSnow",
  "4025": "azor",
  "4026": "Ġfaucet",
  "4027": "Ġig",
  "4028": "Ġpassport",
  "4029": "ĠRob",
  "4030": "Ġstumbled",
  "4031": "Ġdreamed",
  "4032": "Ġigloo",
  "4033": "ĠBessie",
  "4034": "aroo",
  "4035": "angaroo",
  "4036": "Ġfreez",
  "4037": "Ġjuicy",
  "4038": "Ġallowed",
  "4039": "play",
  "4040": "Ġholds",
  "4041": "Ġalready",
  "4042": "Ġavailable",
  "4043": "Ġsett",
  "4044": "Ġbathe",
  "4045": "Ġtornado",
  "4046": "imney",
  "4047": "Ġfingers",
  "4048": "htray",
  "4049": "Ġhanger",
  "4050": "Ġnewsp",
  "4051": "Ġsize",
  "4052": "Ġlaund",
  "4053": "Ġlend",
  "4054": "Ġchimney",
  "4055": "Ġlaundry",
  "4056": "Ġoak",
  "4057": "Ġfisher",
  "4058": "Ġkangaroo",
  "4059": "Ġmen",
  "4060": "ĠEverywhere",
  "4061": "Ġtelling",
  "4062": "Em",
  "4063": "Ġnovel",
  "4064": "body",
  "4065": "Ġmummy",
  "4066": "Ġpal",
  "4067": "Ġmule",
  "4068": "Ġcherries",
  "4069": "Ġnotice",
  "4070": "Ġpractice",
  "4071": "Ġspilled",
  "4072": "Ġreind",
  "4073": "Ġcomplete",
  "4074": "Ġenjoying",
  "4075": "Ġmicroscope",
  "4076": "arian",
  "4077": "ampoo",
  "4078": "Ġgain",
  "4079": "Ġsub",
  "4080": "Ġfireplace",
  "4081": "Ġimagine",
  "4082": "anda",
  "4083": "Ġdisplay",
  "4084": "ocer",
  "4085": "ĠZip",
  "4086": "Ġfastest",
  "4087": "Ġmagazine",
  "4088": "Ġhurry",
  "4089": "Ġcabinet",
  "4090": "Ġshrink",
  "4091": "Ġashtray",
  "4092": "Wait",
  "4093": "Ġcows",
  "4094": "ĠSpike",
  "4095": "Joe",
  "4096": "gen",
  "4097": "Ġpalace",
  "4098": "Ġimprove",
  "4099": "aches",
  "4100": "Ġrake",
  "4101": "Ġreindeer",
  "4102": "Ġfalling",
  "4103": "oceros",
  "4104": "Ġskirt",
  "4105": "ured",
  "4106": "Ġdiscovered",
  "4107": "Ġstared",
  "4108": "Ġroared",
  "4109": "aid",
  "4110": "Ġsilver",
  "4111": "Ġtub",
  "4112": "Ġtrail",
  "4113": "Is",
  "4114": "Ġminer",
  "4115": "come",
  "4116": "Ġbill",
  "4117": "iction",
  "4118": "Ġfog",
  "4119": "Ġax",
  "4120": "stairs",
  "4121": "ilet",
  "4122": "Ġhut",
  "4123": "Ġhappier",
  "4124": "Ġtaller",
  "4125": "ictionary",
  "4126": "Ġoats",
  "4127": "Ġfisherman",
  "4128": "Ġobject",
  "4129": "Ġpor",
  "4130": "vision",
  "4131": "Ġvaluable",
  "4132": "Ġshampoo",
  "4133": "Ġholes",
  "4134": "Ġoffered",
  "4135": "Ġboots",
  "4136": "Ġrhinoceros",
  "4137": "Ġnames",
  "4138": "Ġtoilet",
  "4139": "Ġclimbing",
  "4140": "Ġblin",
  "4141": "vice",
  "4142": "Ow",
  "4143": "Ġstretched",
  "4144": "iest",
  "4145": "Ġzipper",
  "4146": "Ġlistening",
  "4147": "Ġsym",
  "4148": "Ġbathrobe",
  "4149": "alend",
  "4150": "Ġjewelry",
  "4151": "ĠHere",
  "4152": "Ġjokes",
  "4153": "Ġtelevision",
  "4154": "Ġprov",
  "4155": "Ġcalend",
  "4156": "Ġstops",
  "4157": "Ġaxe",
  "4158": "Ġjumps",
  "4159": "Ġfuel",
  "4160": "cu",
  "4161": "Ġsparkly",
  "4162": "Ġperfume",
  "4163": "ĠSusie",
  "4164": "Ġbury",
  "4165": "bol",
  "4166": "Mummy",
  "4167": "lu",
  "4168": "Ġpressed",
  "4169": "ĠKim",
  "4170": "reek",
  "4171": "Ġrece",
  "4172": "fa",
  "4173": "ĠToby",
  "4174": "Ġneat",
  "4175": "Ġcreek",
  "4176": "Ġpopped",
  "4177": "Ġopera",
  "4178": "Ġcalendar",
  "4179": "Ġsnap",
  "4180": "Ġgasped",
  "4181": "Ġattach",
  "4182": "Ġsymbol",
  "4183": "Ġtuna",
  "4184": "ĠMar",
  "4185": "Ġpapers",
  "4186": "Mr",
  "4187": "Ġunpack",
  "4188": "Ġresist",
  "4189": "Ġdictionary",
  "4190": "Ġsubway",
  "4191": "Ġletters",
  "4192": "Ġfreezer",
  "4193": "Ġchose",
  "4194": "Ġpinch",
  "4195": "zag",
  "4196": "Ġspoke",
  "4197": "Ġanyway",
  "4198": "Ġsuper",
  "4199": "Ġporch",
  "4200": "Ġhelper",
  "4201": "affe",
  "4202": "Ġbikes",
  "4203": "Ġlie",
  "4204": "arry",
  "4205": "iches",
  "4206": "Ġtightly",
  "4207": "Ġcomfort",
  "4208": "Ġshaking",
  "4209": "Ġbookcase",
  "4210": "Ġson",
  "4211": "Ġrazor",
  "4212": "aurant",
  "4213": "Ġsandwiches",
  "4214": "ĠAre",
  "4215": "igzag",
  "4216": "Ġweigh",
  "4217": "Ġagainst",
  "4218": "Ġstickers",
  "4219": "Ġrestaurant",
  "4220": "Ġnewspaper",
  "4221": "Ġblouse",
  "4222": "Ġvehicle",
  "4223": "Ġswinging",
  "4224": "Ġped",
  "4225": "Ġdisag",
  "4226": "Ġnature",
  "4227": "Ġsquirrels",
  "4228": "ival",
  "4229": "Ġbelongs",
  "4230": "Ġswamp",
  "4231": "Ġbutterflies",
  "4232": "Ġgym",
  "4233": "del",
  "4234": "Ġinclu",
  "4235": "Ġgrowing",
  "4236": "Ġbuckle",
  "4237": "omed",
  "4238": "Ġstirred",
  "4239": "Ġmustache",
  "4240": "Ġbillboard",
  "4241": "xy",
  "4242": "Ġbeep",
  "4243": "te",
  "4244": "Ġalarm",
  "4245": "Ġlightning",
  "4246": "Ġlip",
  "4247": "Ġfest",
  "4248": "Ġhung",
  "4249": "utor",
  "4250": "Ġdistance",
  "4251": "ogn",
  "4252": "Ġcards",
  "4253": "Ġobser",
  "4254": "Ġagree",
  "4255": "Little",
  "4256": "Ġext",
  "4257": "Ġtease",
  "4258": "Ġrecogn",
  "4259": "Ġrubber",
  "4260": "ik",
  "4261": "Ġhate",
  "4262": "fast",
  "4263": "ef",
  "4264": "Ouch",
  "4265": "Ġdoesn",
  "4266": "Ġmusician",
  "4267": "Ġadvice",
  "4268": "Ġbeef",
  "4269": "Ġserve",
  "4270": "aspoon",
  "4271": "Ġsweetie",
  "4272": "Ġmodel",
  "4273": "lter",
  "4274": "Ġcrib",
  "4275": "Ġblueberries",
  "4276": "Ġsofa",
  "4277": "Ġcircles",
  "4278": "Ġbreakfast",
  "4279": "Ġtutor",
  "4280": "asis",
  "4281": "Ġbookshe",
  "4282": "Ġgiraffe",
  "4283": "stri",
  "4284": "Ġfestival",
  "4285": "Ġseparate",
  "4286": "Ġshelter",
  "4287": "Ġgas",
  "4288": "Ġairport",
  "4289": "Ġolive",
  "4290": "Ġrail",
  "4291": "Ġbookshelf",
  "4292": "Ġfrogs",
  "4293": "Ġteaspoon",
  "4294": "Ġreverse",
  "4295": "Ġjunk",
  "4296": "Ġriding",
  "4297": "Ġpleased",
  "4298": "Ġdrain",
  "4299": "ĠMrs",
  "4300": "Ġwipe",
  "4301": "Ġoasis",
  "4302": "Ġsoil",
  "4303": "Ġahead",
  "4304": "Ġrescue",
  "4305": "Ġleaving",
  "4306": "ummer",
  "4307": "Ġpainter",
  "4308": "Ġsqueeze",
  "4309": "Ġchance",
  "4310": "Ġpoked",
  "4311": "Ġknob",
  "4312": "ĠTeddy",
  "4313": "Ġpeeked",
  "4314": "Ġlumber",
  "4315": "Ġtrains",
  "4316": "Ġextra",
  "4317": "Ġslipp",
  "4318": "Ġquiz",
  "4319": "Ġrefused",
  "4320": "res",
  "4321": "rmomet",
  "4322": "Ġpage",
  "4323": "Ġrules",
  "4324": "Ġhappens",
  "4325": "Ġsounded",
  "4326": "Ġins",
  "4327": "Ġpoint",
  "4328": "Ġwinter",
  "4329": "Ġdancer",
  "4330": "ĠGrandpa",
  "4331": "Ġbirdc",
  "4332": "Ġdisappear",
  "4333": "rmometer",
  "4334": "ĠDolly",
  "4335": "Ġweather",
  "4336": "Ġwaste",
  "4337": "Ġlic",
  "4338": "Ġbirdcage",
  "4339": "Ġtheater",
  "4340": "Ġreef",
  "4341": "Ġcarrying",
  "4342": "Daisy",
  "4343": "Ġinvite",
  "4344": "iform",
  "4345": "Ġgoal",
  "4346": "Ġostri",
  "4347": "Ġuniform",
  "4348": "Ġswung",
  "4349": "Ġtrade",
  "4350": "Ġcliff",
  "4351": "ience",
  "4352": "Ġlawn",
  "4353": "ola",
  "4354": "Ġleaned",
  "4355": "ĠPandy",
  "4356": "angu",
  "4357": "Ġaccept",
  "4358": "Ġadmire",
  "4359": "Ġfort",
  "4360": "Ġaccidentally",
  "4361": "Ġpastel",
  "4362": "bbles",
  "4363": "Ġstom",
  "4364": "Ġlangu",
  "4365": "Ġtwir",
  "4366": "Ġsuff",
  "4367": "Ġpanda",
  "4368": "riger",
  "4369": "Ġbet",
  "4370": "rigerator",
  "4371": "Ġpeek",
  "4372": "render",
  "4373": "Ġblinked",
  "4374": "Ġstarts",
  "4375": "na",
  "4376": "Ġrefrigerator",
  "4377": "Ġanywhere",
  "4378": "!\".",
  "4379": "Ġimagined",
  "4380": "Ġdreaming",
  "4381": "Ġremove",
  "4382": "night",
  "4383": "Ġshower",
  "4384": "ĠLee",
  "4385": "ĠCo",
  "4386": "Ġclassroom",
  "4387": "Ġceiling",
  "4388": "Ġcaring",
  "4389": "ium",
  "4390": "Ġgrand",
  "4391": "Ġmissing",
  "4392": "aked",
  "4393": "Ġlicense",
  "4394": "Ġstable",
  "4395": "Ġthermometer",
  "4396": "Ġmonkeys",
  "4397": "astic",
  "4398": "Ġwarned",
  "4399": "Ġsummer",
  "4400": "ĠWhere",
  "4401": "Ġabove",
  "4402": "Ġbrick",
  "4403": "ected",
  "4404": "Ġcudd",
  "4405": "Ġproblems",
  "4406": "amber",
  "4407": "Ġchasing",
  "4408": "Ġlabel",
  "4409": "Ġapron",
  "4410": "Ġsent",
  "4411": "urnit",
  "4412": "urniture",
  "4413": "Ġlawy",
  "4414": "Ġlid",
  "4415": "uggage",
  "4416": "med",
  "4417": "Ġrespectful",
  "4418": "Ġfurniture",
  "4419": "Ġfrowned",
  "4420": "Ġzoomed",
  "4421": "Ġpages",
  "4422": "Ġprevent",
  "4423": "Ġbent",
  "4424": "Ġluggage",
  "4425": "Ġmistakes",
  "4426": "Ġsunset",
  "4427": "Ġostrich",
  "4428": "ison",
  "4429": "Ġsuggested",
  "4430": "Ġwindows",
  "4431": "ations",
  "4432": "Ġjail",
  "4433": "low",
  "4434": "Ġwine",
  "4435": "Ġribbon",
  "4436": "Ġolder",
  "4437": "Ġshouts",
  "4438": "Ġgrape",
  "4439": "ĠCl",
  "4440": "Ġwigg",
  "4441": "ucture",
  "4442": "Ġstructure",
  "4443": "Ġspoil",
  "4444": "eor",
  "4445": "Ġfixing",
  "4446": "Ġchamber",
  "4447": "Ġlions",
  "4448": "Ġdelay",
  "4449": "Ġfinds",
  "4450": "Ġhanded",
  "4451": "Ġsearching",
  "4452": "Ġunite",
  "4453": "Did",
  "4454": "Ġfought",
  "4455": "Ġlawyer",
  "4456": "Ġbrightly",
  "4457": "Ġpair",
  "4458": "Ġmeeting",
  "4459": "Ġchoice",
  "4460": "Ġsurprises",
  "4461": "ĠEllie",
  "4462": "Ġart",
  "4463": "ĠUn",
  "4464": "Ch",
  "4465": "Ġfavour",
  "4466": "eterin",
  "4467": "eterinarian",
  "4468": "adium",
  "4469": "Ġstadium",
  "4470": "Ġproudly",
  "4471": "iki",
  "4472": "Ġveterinarian",
  "4473": "vet",
  "4474": "rod",
  "4475": "Ġchairs",
  "4476": "Ġslip",
  "4477": "ĠSpe",
  "4478": "Ġsadly",
  "4479": "ĠBow",
  "4480": "Ġincre",
  "4481": "ĠCarl",
  "4482": "Ġpuddles",
  "4483": "Ġberry",
  "4484": "Ġintrod",
  "4485": "Ġranch",
  "4486": "veal",
  "4487": "ĠBoun",
  "4488": "Ġargue",
  "4489": "ĠV",
  "4490": "Ġadmired",
  "4491": "Ġcur",
  "4492": "Ġfavourite",
  "4493": "Your",
  "4494": "Ġinf",
  "4495": "Ġexcitedly",
  "4496": "Ġrac",
  "4497": "Ġgrabs",
  "4498": "mend",
  "4499": "Ġsteam",
  "4500": "thank",
  "4501": "Ġhuman",
  "4502": "eorge",
  "4503": "sity",
  "4504": "ĠHel",
  "4505": "Ġpushing",
  "4506": "Ġsaving",
  "4507": "ĠRed",
  "4508": "Ġreveal",
  "4509": "ommend",
  "4510": "alley",
  "4511": "Ġyield",
  "4512": "olog",
  "4513": "Ġmall",
  "4514": "Ġreminded",
  "4515": "Ġrecommend",
  "4516": "Ġleak",
  "4517": "Ġsurrender",
  "4518": "Ġharb",
  "4519": "Ġappl",
  "4520": "cuss",
  "4521": "aul",
  "4522": "Ġweap",
  "4523": "Ġregret",
  "4524": "Ġputting",
  "4525": "Ġvalley",
  "4526": "Ġmineral",
  "4527": "Ġevening",
  "4528": "elcome",
  "4529": "Ġmatches",
  "4530": "Ġforgave",
  "4531": "Ġsneezed",
  "4532": "Ġpup",
  "4533": "Ġaw",
  "4534": "Ġrushed",
  "4535": "ecause",
  "4536": "Ġspade",
  "4537": "Ġapolog",
  "4538": "Ġplates",
  "4539": "Ġdiscuss",
  "4540": "Ġprepare",
  "4541": "Ġharbor",
  "4542": "Ġignore",
  "4543": "ĠBig",
  "4544": "Ġcountry",
  "4545": "Ġlanguage",
  "4546": "ĠBuzzy",
  "4547": "Ġpulls",
  "4548": "Ġplastic",
  "4549": "Ġsupply",
  "4550": "Ġfloat",
  "4551": "Ġsniffed",
  "4552": "ĠJazz",
  "4553": "Ġreplace",
  "4554": "Ġmeas",
  "4555": "Ġshovel",
  "4556": "ĠBill",
  "4557": "Ġraise",
  "4558": "ĠNext",
  "4559": "Ġfre",
  "4560": "Ġcared",
  "4561": "Ġsocks",
  "4562": "Ġstrip",
  "4563": "Ġdoors",
  "4564": "Ġmystery",
  "4565": "Ġlives",
  "4566": "Ġrestore",
  "4567": "Ġsticker",
  "4568": "Ġsudden",
  "4569": "ari",
  "4570": "Ġkinds",
  "4571": "Ġslippery",
  "4572": "ero",
  "4573": "ĠOw",
  "4574": "Ġplayer",
  "4575": "Ġpanic",
  "4576": "ricane",
  "4577": "Ġhoping",
  "4578": "iday",
  "4579": "Ġshone",
  "4580": "lex",
  "4581": "hero",
  "4582": "Ġbeg",
  "4583": "ĠMike",
  "4584": "ĠBinky",
  "4585": "Ġsuperhero",
  "4586": "Ġdelighted",
  "4587": "Ġgro",
  "4588": "Yay",
  "4589": "aud",
  "4590": "chan",
  "4591": "Ġchickens",
  "4592": "Ġshoulder",
  "4593": "Ġrained",
  "4594": "Ġcolourful",
  "4595": "Ġbreat",
  "4596": "ĠAlice",
  "4597": "Ġclaw",
  "4598": "ĠBubbles",
  "4599": "Yuck",
  "4600": "Ġsoftly",
  "4601": "rise",
  "4602": "Ġport",
  "4603": "Grandma",
  "4604": "Ġhol",
  "4605": "icer",
  "4606": "Ġholiday",
  "4607": "ĠâĢ",
  "4608": "Ġbarks",
  "4609": "ason",
  "4610": "Ġthrowing",
  "4611": "Ġplanes",
  "4612": "Mary",
  "4613": "Ġbend",
  "4614": "ĠFreddy",
  "4615": "Ġshakes",
  "4616": "Ġinfant",
  "4617": "Ġended",
  "4618": "Ġshivering",
  "4619": "Ġkneel",
  "4620": "Ġsunrise",
  "4621": "Ġpushes",
  "4622": "ĠOlive",
  "4623": "Ġthanks",
  "4624": "Ġfresh",
  "4625": "Ġsuffer",
  "4626": "Ġpoints",
  "4627": "imed",
  "4628": "wards",
  "4629": "ĠPat",
  "4630": "Ġtip",
  "4631": "ĠSpeedy",
  "4632": "Ġfreeze",
  "4633": "Ġkeeping",
  "4634": "ĠWould",
  "4635": "Ġgiggle",
  "4636": "Ġcopper",
  "4637": "Ġsmells",
  "4638": "Ġdear",
  "4639": "Ġenter",
  "4640": "Ġprovide",
  "4641": "cast",
  "4642": "chanic",
  "4643": "Ġdishes",
  "4644": "ĠEnd",
  "4645": "cond",
  "4646": "Ġunh",
  "4647": "Next",
  "4648": "Ġapplaud",
  "4649": "Ġheads",
  "4650": "Ġhurricane",
  "4651": "Ġcherry",
  "4652": "Ġthumb",
  "4653": "Ġmenu",
  "4654": "Ġmeowed",
  "4655": "Ġmass",
  "4656": "Ġsecond",
  "4657": "Ġbrighter",
  "4658": "ince",
  "4659": "Ġsandcast",
  "4660": "Ġmechanic",
  "4661": "Ġwre",
  "4662": "Ġsprayed",
  "4663": "Ġletting",
  "4664": "Ġevent",
  "4665": "Ġweapon",
  "4666": "Ġlaught",
  "4667": "Ġx",
  "4668": "Ġlaughter",
  "4669": "Ġclapping",
  "4670": "Ġfeelings",
  "4671": "Will",
  "4672": "icky",
  "4673": "Ġsplashing",
  "4674": "ement",
  "4675": "ĠOr",
  "4676": "acked",
  "4677": "Ġcastles",
  "4678": "ĠFl",
  "4679": "cer",
  "4680": "Ġscore",
  "4681": "apping",
  "4682": "Ġuniverse",
  "4683": "Ġnavy",
  "4684": "Ġdem",
  "4685": "Ġsticky",
  "4686": "ophie",
  "4687": "Ġrooms",
  "4688": "Ġrow",
  "4689": "Ġflies",
  "4690": "igi",
  "4691": "ĠDave",
  "4692": "Ġunhappy",
  "4693": "Ġgreedy",
  "4694": "Ġdare",
  "4695": "Ġalive",
  "4696": "Ġbreaks",
  "4697": "Ġener",
  "4698": "Ġcourage",
  "4699": "Ġinvit",
  "4700": "Ready",
  "4701": "Ġrepeat",
  "4702": "Ġdemand",
  "4703": "Ġtrusted",
  "4704": "Lisa",
  "4705": "Ġsomewhere",
  "4706": "arlie",
  "4707": "Ġprune",
  "4708": "bles",
  "4709": "Ġwreck",
  "4710": "ĠY",
  "4711": "Ġskill",
  "4712": "Ġexamine",
  "4713": "Ġparts",
  "4714": "year",
  "4715": "Ġeaten",
  "4716": "oe",
  "4717": "All",
  "4718": "erc",
  "4719": "enry",
  "4720": "Ġmention",
  "4721": "Ġraining",
  "4722": "ĠHelp",
  "4723": "Buddy",
  "4724": "Ġthrows",
  "4725": "Ġjogged",
  "4726": "quest",
  "4727": "Ġstarting",
  "4728": "Ġrush",
  "4729": "Ġpoison",
  "4730": "Ġpirates",
  "4731": "heart",
  "4732": "Ġvac",
  "4733": "Ġcontent",
  "4734": "Emma",
  "4735": "ĠKiki",
  "4736": "Ġsigh",
  "4737": "Ġflapped",
  "4738": "Ġdrops",
  "4739": "Ġchirp",
  "4740": "Ġsport",
  "4741": "Qu",
  "4742": "Ġsparkled",
  "4743": "ĠZoomy",
  "4744": "Ġgiven",
  "4745": "Ġstreng",
  "4746": "Ġsteel",
  "4747": "Ann",
  "4748": "Ġbumped",
  "4749": "Ġyawned",
  "4750": "Ġstud",
  "4751": "Ġrequest",
  "4752": "Ġscold",
  "4753": "Ġmyself",
  "4754": "Ġstrength",
  "4755": "Ġshrugged",
  "4756": "Mark",
  "4757": "Ġcoats",
  "4758": "Ġpunish",
  "4759": "Ġequ",
  "4760": "Ġsnugg",
  "4761": "Ġuniversity",
  "4762": "Ġpaid",
  "4763": "ĠJohnny",
  "4764": "Ġpigs",
  "4765": "Ġscratch",
  "4766": "Ġtoe",
  "4767": "Ġexerc",
  "4768": "Ġtracks",
  "4769": "Ġupstairs",
  "4770": "Ġprayed",
  "4771": "Ġcrossed",
  "4772": "Ġsqueezed",
  "4773": "Ġimpressed",
  "4774": "Ġflood",
  "4775": "Ġbouncing",
  "4776": "ĠRu",
  "4777": "Alice",
  "4778": "Ġrabbits",
  "4779": "ges",
  "4780": "Ġbadly",
  "4781": "..",
  "4782": "Ġwarn",
  "4783": "Ġleather",
  "4784": "Ġexpect",
  "4785": "Ġnews",
  "4786": "Ġtide",
  "4787": "ĠTed",
  "4788": "Ġminute",
  "4789": "Ġbears",
  "4790": "Ġclaws",
  "4791": "Ġbuzz",
  "4792": "Ġsweetheart",
  "4793": "ĠSm",
  "4794": "yth",
  "4795": "Ġnation",
  "4796": "Sh",
  "4797": "ythm",
  "4798": "Ġvacation",
  "4799": "Ġhist",
  "4800": "Ġheat",
  "4801": "Ġstrawberries",
  "4802": "Ġobserve",
  "4803": "Ġexplored",
  "4804": "Ġsettle",
  "4805": "Ġsandcastle",
  "4806": "Ġyawn",
  "4807": "Ġhistory",
  "4808": "ĠLilly",
  "4809": "ĠLola",
  "4810": "mare",
  "4811": "ĠMummy",
  "4812": "ĠSque",
  "4813": "ially",
  "4814": "inking",
  "4815": "Ġbelieved",
  "4816": "Ġhorses",
  "4817": "Daddy",
  "4818": "ĠHoppy",
  "4819": "Ġchecked",
  "4820": "ĠMandy",
  "4821": "Ġtour",
  "4822": "Ġnetwork",
  "4823": "Ġcheek",
  "4824": "ĠUnder",
  "4825": "Ġoffer",
  "4826": "Ġeasily",
  "4827": "Ġplaced",
  "4828": "spec",
  "4829": "Ġspots",
  "4830": "Ġsnowball",
  "4831": "ween",
  "4832": "men",
  "4833": "Ġenergy",
  "4834": "ĠBee",
  "4835": "Ġimagination",
  "4836": "Ġblueberry",
  "4837": "otten",
  "4838": "Ġbetween",
  "4839": "specially",
  "4840": "ĠGigi",
  "4841": "izes",
  "4842": "Ġdaisy",
  "4843": "Ġwaving",
  "4844": "reeze",
  "4845": "reat",
  "4846": "Ġvroom",
  "4847": "Ġsoak",
  "4848": "Ġsafari",
  "4849": "Ġrhythm",
  "4850": "Ġmassage",
  "4851": "Ġstomach",
  "4852": "Ġbaking",
  "4853": "quake",
  "4854": "Ġnightmare",
  "4855": "Ġinsisted",
  "4856": "Ġblowing",
  "4857": "Ġentered",
  "4858": "Before",
  "4859": "Ġstair",
  "4860": "Ġpalm",
  "4861": "Ġbeauty",
  "4862": "Ġtwisted",
  "4863": "Ġbother",
  "4864": "Ġwriting",
  "4865": "Ġscoop",
  "4866": "Ġprunes",
  "4867": "Ġbrain",
  "4868": "Ġing",
  "4869": "ipment",
  "4870": "Ġpoppy",
  "4871": "Ġhills",
  "4872": "noon",
  "4873": "Ġafternoon",
  "4874": "Ġequipment",
  "4875": "Ġespecially",
  "4876": "hest",
  "4877": "Ġsir",
  "4878": "Ġpad",
  "4879": "ĠSee",
  "4880": "Ġingred",
  "4881": "Ġcalls",
  "4882": "Ġingredient",
  "4883": "ĠFox",
  "4884": "Ġearthquake",
  "4885": "Ġignored",
  "4886": "ĠSnowy",
  "4887": "Ġburned",
  "4888": "Ġnobody",
  "4889": "mble",
  "4890": "Ġsty",
  "4891": "apa",
  "4892": "Ġsew",
  "4893": "Ġtug",
  "4894": "isty",
  "4895": "xygen",
  "4896": "Ġhearts",
  "4897": "Ġlear",
  "4898": "Ġlearnt",
  "4899": "Ġlemonade",
  "4900": "Ġincrease",
  "4901": "illie",
  "4902": "Jenny",
  "4903": "Ġgaz",
  "4904": "Ġbackpack",
  "4905": "Ġmailman",
  "4906": "Ġwhistled",
  "4907": "Ġpedal",
  "4908": "ĠSk",
  "4909": "Fred",
  "4910": "Ġshopkeeper",
  "4911": "ffic",
  "4912": "Ġpermit",
  "4913": "Ġtremble",
  "4914": "Ġyucky",
  "4915": "anges",
  "4916": "Ġmoves",
  "4917": "Ġintroduce",
  "4918": "Ġlemons",
  "4919": "Ġcrash",
  "4920": "Ġbeans",
  "4921": "Ġfloated",
  "4922": "edn",
  "4923": "ednesday",
  "4924": "ittens",
  "4925": "Welcome",
  "4926": "Ġplanned",
  "4927": "Ġstrike",
  "4928": "Ġtraffic",
  "4929": "Ġinclude",
  "4930": "Ġslap",
  "4931": "Ġracing",
  "4932": "ĠLucky",
  "4933": "resses",
  "4934": "Ġwisdom",
  "4935": "Ġpur",
  "4936": "Ġwags",
  "4937": "ĠFinny",
  "4938": "laimed",
  "4939": "ĠGeorge",
  "4940": "Ġluck",
  "4941": "Ġfollowing",
  "4942": "Ġprice",
  "4943": "ecting",
  "4944": "Ġmama",
  "4945": "Ġpitch",
  "4946": "Ġbelow",
  "4947": "ĠElly",
  "4948": "ĠHave",
  "4949": "Le",
  "4950": "Ġweight",
  "4951": "Ġexclaimed",
  "4952": "house",
  "4953": "Ġburied",
  "4954": "Ġfollows",
  "4955": "Ġcomf",
  "4956": "Ġrecognize",
  "4957": "Ġingredients",
  "4958": "Ġfurt",
  "4959": "tain",
  "4960": "Ġcandles",
  "4961": "Mimi",
  "4962": "Ġmarbles",
  "4963": "riage",
  "4964": "unday",
  "4965": "emember",
  "4966": "eration",
  "4967": "ĠAlex",
  "4968": "Ġapart",
  "4969": "ĠWednesday",
  "4970": "Ġgrowled",
  "4971": "uct",
  "4972": "ĠSu",
  "4973": "ores",
  "4974": "Ġconf",
  "4975": "Ġteaching",
  "4976": "Ġhopes",
  "4977": "Ġfolded",
  "4978": "Ġclosely",
  "4979": "ĠFinn",
  "4980": "ĠWho",
  "4981": "Ġheel",
  "4982": "ĠSunday",
  "4983": "Ġencourage",
  "4984": "ĠPaul",
  "4985": "ĠOwl",
  "4986": "Ġzigzag",
  "4987": "Ġpulling",
  "4988": "Ġdigg",
  "4989": "Ġbouncy",
  "4990": "Ġfurther",
  "4991": "Ġchewed",
  "4992": "Ġdigging",
  "4993": "Ġwinning",
  "4994": "Woof",
  "4995": "With",
  "4996": "Ġdresses",
  "4997": "Ġimage",
  "4998": "rec",
  "4999": "cery",
  "5000": "Ġshouting",
  "5001": "Ġgrocery",
  "5002": "Ġtwisty",
  "5003": "Ġpeanuts",
  "5004": "Ġpuzzles",
  "5005": "bbing",
  "5006": "ĠDog",
  "5007": "look",
  "5008": "Ġscrat",
  "5009": "Ġchores",
  "5010": "Ġwhisper",
  "5011": "ĠIs",
  "5012": "Ġspike",
  "5013": "ĠFroggy",
  "5014": "Ġcape",
  "5015": "Ġsnail",
  "5016": "Ġacorns",
  "5017": "Ġworms",
  "5018": "hood",
  "5019": "Ġdeeper",
  "5020": "Ġurge",
  "5021": "ifi",
  "5022": "Ġexper",
  "5023": "ĠWhenever",
  "5024": "ĠTilly",
  "5025": "ĠSqueaky",
  "5026": "ĠGrace",
  "5027": "Ġplanted",
  "5028": "Ġattention",
  "5029": "ecture",
  "5030": "Ġexercise",
  "5031": "ĠDanny",
  "5032": "Ġcub",
  "5033": "Ġoperation",
  "5034": "Ġunderground",
  "5035": "Ġhon",
  "5036": "Ġagre",
  "5037": "Ġquite",
  "5038": "Ġcreatures",
  "5039": "Ġsimp",
  "5040": "Everyone",
  "5041": "Ġstruggle",
  "5042": "oral",
  "5043": "ĠMittens",
  "5044": "ddy",
  "5045": "Ġblood",
  "5046": "Ġlecture",
  "5047": "Ġwashing",
  "5048": "Ġhurting",
  "5049": "Ġvanished",
  "5050": "Ġgifts",
  "5051": "Ġdressed",
  "5052": "Ġinvitation",
  "5053": "Ġsolved",
  "5054": "Ġlicks",
  "5055": "Ġsnuggled",
  "5056": "ĠSharing",
  "5057": "ippy",
  "5058": "Ġble",
  "5059": "Ġmarriage",
  "5060": "Ġquietly",
  "5061": "gie",
  "5062": "Ġwarning",
  "5063": "Ġjazz",
  "5064": "Ġbreathe",
  "5065": "reci",
  "5066": "Ġelephants",
  "5067": "Ġsizes",
  "5068": "Ġdried",
  "5069": "Ġfallen",
  "5070": "Ġlandscape",
  "5071": "ories",
  "5072": "Ġsprink",
  "5073": "Ġneighbour",
  "5074": "Ġmice",
  "5075": "uesday",
  "5076": "Ġappreci",
  "5077": "ĠSophie",
  "5078": "ĠJoey",
  "5079": "ĠâĢĵ",
  "5080": "Ġeagerly",
  "5081": "Ġsailing",
  "5082": "ĠCoco",
  "5083": "Ġpaused",
  "5084": "ips",
  "5085": "Ġcounter",
  "5086": "ĠGood",
  "5087": "ĠBounce",
  "5088": "ĠPenny",
  "5089": "Ġworth",
  "5090": "looking",
  "5091": "ĠRock",
  "5092": "Ġoxygen",
  "5093": "Because",
  "5094": "Ġrelease",
  "5095": "Ġshined",
  "5096": "Not",
  "5097": "pted",
  "5098": "Ġreaches",
  "5099": "Ġbalan",
  "5100": "ĠZara",
  "5101": "isses",
  "5102": "Ġoh",
  "5103": "Ġkisses",
  "5104": "Ġstyle",
  "5105": "Ġbricks",
  "5106": "Ġplays",
  "5107": "Ġglo",
  "5108": "ĠTuesday",
  "5109": "Ġideas",
  "5110": "sed",
  "5111": "Ġinst",
  "5112": "Ġwob",
  "5113": "Ġfireworks",
  "5114": "Bella",
  "5115": "iggly",
  "5116": "ucked",
  "5117": "Ġseeing",
  "5118": "Ġflap",
  "5119": "ops",
  "5120": "Ġaccepted",
  "5121": "right",
  "5122": "ĠPip",
  "5123": "Today",
  "5124": "Ġblink",
  "5125": "mm",
  "5126": "ĠRos",
  "5127": "Ġtremb",
  "5128": "These",
  "5129": "Ġmuddy",
  "5130": "Ġmemory",
  "5131": "Ġmarried",
  "5132": "Ġtomatoes",
  "5133": "Ġexit",
  "5134": "ĠAnnie",
  "5135": "Ġwagging",
  "5136": "Ġfash",
  "5137": "Remy",
  "5138": "ĠCharlie",
  "5139": "Ġwandered",
  "5140": "unately",
  "5141": "ipping",
  "5142": "Ġgloves",
  "5143": "Ġcaptain",
  "5144": "Ġpillows",
  "5145": "Ġreceive",
  "5146": "Ġresp",
  "5147": "ĠPinky",
  "5148": "raged",
  "5149": "Ġduring",
  "5150": "ĠEverything",
  "5151": "etch",
  "5152": "Ġweb",
  "5153": "Ġpetals",
  "5154": "Ġwatered",
  "5155": "ĠEventually",
  "5156": "Ġsi",
  "5157": "ived",
  "5158": "Ġmanage",
  "5159": "Ġpinched",
  "5160": "Ġbrings",
  "5161": "Ġvanish",
  "5162": "Ġcakes",
  "5163": "Ġfashion",
  "5164": "ĠBluey",
  "5165": "Ġprinter",
  "5166": "Ġdestroyed",
  "5167": "Ġtreasures",
  "5168": "nce",
  "5169": "Ġallow",
  "5170": "ups",
  "5171": "Ġhadn",
  "5172": "Ġworse",
  "5173": "ĠFifi",
  "5174": "Surpr",
  "5175": "Ġvel",
  "5176": "Ġhits",
  "5177": "Ġbur",
  "5178": "xu",
  "5179": "Ġvelvet",
  "5180": "Ġappear",
  "5181": "Ġdisagree",
  "5182": "do",
  "5183": "Ġcatching",
  "5184": "Ġscattered",
  "5185": "ĠRo",
  "5186": "Ġmemories",
  "5187": "Ġsorts",
  "5188": "ĠPapa",
  "5189": "Ġhers",
  "5190": "Ġscolded",
  "5191": "Ġsigns",
  "5192": "Ġpears",
  "5193": "Ġoranges",
  "5194": "Ġbones",
  "5195": "Ġrang",
  "5196": "Ġsnapped",
  "5197": "Ġsits",
  "5198": "Ġseats",
  "5199": "uxu",
  "5200": "Ġgazed",
  "5201": "Ġraised",
  "5202": "Bl",
  "5203": "ĠMaria",
  "5204": "Ġzipped",
  "5205": "Ġpies",
  "5206": "Ġprints",
  "5207": "Ġshot",
  "5208": "Ġsliding",
  "5209": "ĠGod",
  "5210": "Ġfro",
  "5211": "Ġeasier",
  "5212": "ssible",
  "5213": "Ġskills",
  "5214": "Ġclimbs",
  "5215": "Ġtwirled",
  "5216": "ccer",
  "5217": "Ġblankets",
  "5218": "Ġforgotten",
  "5219": "Ġbaked",
  "5220": "ester",
  "5221": "Yum",
  "5222": "esterday",
  "5223": "Ġdifference",
  "5224": "orted",
  "5225": "Ġluxu",
  "5226": "Ġgolden",
  "5227": "ising",
  "5228": "Ġkitty",
  "5229": "ĠTw",
  "5230": "Ġcutting",
  "5231": "Ġseason",
  "5232": "aggie",
  "5233": "Ġnowhere",
  "5234": "Ġcrow",
  "5235": "ah",
  "5236": "Ġsoccer",
  "5237": "Ġdared",
  "5238": "Ġbites",
  "5239": "ĠHenry",
  "5240": "ĠHarry",
  "5241": "anny",
  "5242": "Ġlung",
  "5243": "Ġcelebrated",
  "5244": "choo",
  "5245": "chie",
  "5246": "Ġstraight",
  "5247": "Ġunlocked",
  "5248": "sters",
  "5249": "Ġsorting",
  "5250": "Ġcollected",
  "5251": "Ġbleed",
  "5252": "aped",
  "5253": "ding",
  "5254": "Ġwelcomed",
  "5255": "Ġvisited",
  "5256": "Ġspoons",
  "5257": "Ġours",
  "5258": "Ġstitch",
  "5259": "Ġjogging",
  "5260": "Surprise",
  "5261": "medi",
  "5262": "Ġemer",
  "5263": "ĠSpark",
  "5264": "mediately",
  "5265": "Ġisn",
  "5266": "Ġtong",
  "5267": "Ġtrave",
  "5268": "Ġwinner",
  "5269": "umble",
  "5270": "Ġsince",
  "5271": "Ġruin",
  "5272": "Ġprett",
  "5273": "Ok",
  "5274": "Moral",
  "5275": "ĠTony",
  "5276": "Ġattached",
  "5277": "Ġweeping",
  "5278": "Ġmarching",
  "5279": "Ġluxury",
  "5280": "Ġsimple",
  "5281": "ĠEach",
  "5282": "Ġshouldn",
  "5283": "Ġguessed",
  "5284": "Ġzero",
  "5285": "Ġcreated",
  "5286": "Ġstuffed",
  "5287": "Ġpets",
  "5288": "ction",
  "5289": "Ġwaist",
  "5290": "Ġfamil",
  "5291": "Ġurged",
  "5292": "Ġbowed",
  "5293": "Ġselling",
  "5294": "Ġfloating",
  "5295": "rr",
  "5296": "ĠSmith",
  "5297": "Ġbye",
  "5298": "ĠKing",
  "5299": "Ġvict",
  "5300": "Ġkingdom",
  "5301": "Ġolives",
  "5302": "Ġkicking",
  "5303": "ĠWiggly",
  "5304": "Ġpunished",
  "5305": "ĠLiz",
  "5306": "ĠBaby",
  "5307": "sit",
  "5308": "Ġtoes",
  "5309": "Ġgrant",
  "5310": "Ġmuscles",
  "5311": "Ġjewels",
  "5312": "ĠRosie",
  "5313": "Ġbeds",
  "5314": "Ġmelted",
  "5315": "Goodbye",
  "5316": "Ġslice",
  "5317": "Ġgrin",
  "5318": "Ġunderstanding",
  "5319": "Ġcollection",
  "5320": "Ġtore",
  "5321": "Ġmeasured",
  "5322": "aker",
  "5323": "Ġcras",
  "5324": "omeday",
  "5325": "iers",
  "5326": "Ġtrapped",
  "5327": "Ġlined",
  "5328": "'ve",
  "5329": "Ġacted",
  "5330": "fortunately",
  "5331": "Ġencouraged",
  "5332": "va",
  "5333": "ĠSandy",
  "5334": "Ġreceived",
  "5335": "Ġwaffles",
  "5336": "ĠBefore",
  "5337": "ĠWally",
  "5338": "Ġwest",
  "5339": "Ġmeow",
  "5340": "ents",
  "5341": "Ġpatterns",
  "5342": "rin",
  "5343": "ino",
  "5344": "Ġbrus",
  "5345": "eath",
  "5346": "Ġmouths",
  "5347": "kins",
  "5348": "Ġbang",
  "5349": "ring",
  "5350": "ĠKate",
  "5351": "Meow",
  "5352": "Ġpeaches",
  "5353": "Ġbreeze",
  "5354": "aded",
  "5355": "une",
  "5356": "Ġprinted",
  "5357": "Ġsoldiers",
  "5358": "Ġsomeday",
  "5359": "Ġpotatoes",
  "5360": "Ġpupil",
  "5361": "umes",
  "5362": "ĠMillie",
  "5363": "Ġdrinks",
  "5364": "Ġshed",
  "5365": "Ġexperience",
  "5366": "ĠTuna",
  "5367": "Ġpresents",
  "5368": "Ġfiref",
  "5369": "ĠRuby",
  "5370": "Ġsurround",
  "5371": "Ġnone",
  "5372": "osed",
  "5373": "Ġvoices",
  "5374": "eep",
  "5375": "Ġdrinking",
  "5376": "ĠUncle",
  "5377": "ishing",
  "5378": "Ġrelaxed",
  "5379": "Ġvictory",
  "5380": "cus",
  "5381": "Ġpaints",
  "5382": "Ġbreaking",
  "5383": "eve",
  "5384": "Ġhurried",
  "5385": "ission",
  "5386": "Ġtwink",
  "5387": "Ġtongue",
  "5388": "Ġcostumes",
  "5389": "Ġflat",
  "5390": "Ġmentioned",
  "5391": "Ġbegged",
  "5392": "Ġteasing",
  "5393": "Ġwhistling",
  "5394": "Ġfetch",
  "5395": "Ġpermission",
  "5396": "Ġsip",
  "5397": "Ġdisagreed",
  "5398": "Ġpearl",
  "5399": "akes",
  "5400": "Ġstro",
  "5401": "vest",
  "5402": "ĠThese",
  "5403": "Ġesc",
  "5404": "Ġappro",
  "5405": "Ġskipping",
  "5406": "Ġfishing",
  "5407": "ĠMay",
  "5408": "Leo",
  "5409": "Ġhighest",
  "5410": "Ġpra",
  "5411": "Ġwatches",
  "5412": "Ġsorted",
  "5413": "Ġringing",
  "5414": "ship",
  "5415": "Ġtonight",
  "5416": "ĠBo",
  "5417": "Ġopin",
  "5418": "Ġlets",
  "5419": "icing",
  "5420": "ĠQu",
  "5421": "Ġperfectly",
  "5422": "Ġshadows",
  "5423": "Ġimmediately",
  "5424": "Ġherbs",
  "5425": "Ġwarmth",
  "5426": "Ġspit",
  "5427": "Ġremained",
  "5428": "ther",
  "5429": "ĠIts",
  "5430": "walk",
  "5431": "Bobby",
  "5432": "irring",
  "5433": "Jen",
  "5434": "Ġsneak",
  "5435": "Ġsix",
  "5436": "Ġlips",
  "5437": "Ġkneeled",
  "5438": "Blue",
  "5439": "Ġcontest",
  "5440": "ĠChe",
  "5441": "utter",
  "5442": "Ġcartoons",
  "5443": "Ġsidewalk",
  "5444": "Ġcolours",
  "5445": "Ġstamps",
  "5446": "Ġago",
  "5447": "Ha",
  "5448": "ĠToto",
  "5449": "ĠBoo",
  "5450": "ĠFollow",
  "5451": "Ġeast",
  "5452": "Ġheaded",
  "5453": "oved",
  "5454": "\",",
  "5455": "Ġstrang",
  "5456": "Ġladyb",
  "5457": "Ġfed",
  "5458": "Ġsupposed",
  "5459": "Ġroots",
  "5460": "Ġlick",
  "5461": "Ġcrunch",
  "5462": "Ġmixing",
  "5463": "Ġworks",
  "5464": "Ġdecorations",
  "5465": "Ġmelting",
  "5466": "Ġknown",
  "5467": "Ġemergen",
  "5468": "Mandy",
  "5469": "Ġrested",
  "5470": "ĠAb",
  "5471": "Ġlines",
  "5472": "ĠSuzy",
  "5473": "Ġlily",
  "5474": "ĠJul",
  "5475": "Ġinstr",
  "5476": "Ġlaid",
  "5477": "ĠGr",
  "5478": "Ġsucceeded",
  "5479": "Ġcones",
  "5480": "Ġwiggle",
  "5481": "ety",
  "5482": "sing",
  "5483": "Ġshock",
  "5484": "Ġsetting",
  "5485": "ĠSlow",
  "5486": "Ġstudied",
  "5487": "Ġstrangers",
  "5488": "ĠRocky",
  "5489": "Really",
  "5490": "Ġtwigs",
  "5491": "Ġbrid",
  "5492": "Ġtheirs",
  "5493": "ĠDr",
  "5494": "Ġgirls",
  "5495": "boo",
  "5496": "!\",",
  "5497": "Ġscreams",
  "5498": "Ġlands",
  "5499": "Ġordered",
  "5500": "Ġstirring",
  "5501": "Ġmoments",
  "5502": "Ġfields",
  "5503": "Ġalright",
  "5504": "Ġstealing",
  "5505": "ded",
  "5506": "Andy",
  "5507": "Ġrul",
  "5508": "Ġbravely",
  "5509": "avid",
  "5510": "ĠBoth",
  "5511": "Ġmister",
  "5512": "!'",
  "5513": "Ġinvest",
  "5514": "Ġscratched",
  "5515": "Ġplaytime",
  "5516": "Ġripped",
  "5517": "Ġinvestig",
  "5518": "Ġtucked",
  "5519": "Ġresting",
  "5520": "Ġburning",
  "5521": "ishes",
  "5522": "ĠClara",
  "5523": "ĠChicky",
  "5524": "Ġbridges",
  "5525": "Ġofficer",
  "5526": "please",
  "5527": "Sammy",
  "5528": "Bird",
  "5529": "abies",
  "5530": "Ġsettled",
  "5531": "Ġmatched",
  "5532": "Ġachie",
  "5533": "Ġtex",
  "5534": "Ġtexture",
  "5535": "Happy",
  "5536": "Ġwaits",
  "5537": "Ġturning",
  "5538": "ĠSky",
  "5539": "Peter",
  "5540": "ored",
  "5541": "Ġtrembling",
  "5542": "isten",
  "5543": "Ġnails",
  "5544": "atie",
  "5545": "Ġmuffins",
  "5546": "ĠSomeone",
  "5547": "ids",
  "5548": "Ġescaped",
  "5549": "ĠJames",
  "5550": "Ġpiles",
  "5551": "Ġinvestigate",
  "5552": "osity",
  "5553": "Ġbroom",
  "5554": "Ġladybug",
  "5555": "Ġsore",
  "5556": "ĠPepper",
  "5557": "Ġappreciate",
  "5558": "Ġadmir",
  "5559": "Ġthreat",
  "5560": "Ġbabies",
  "5561": "Ġsilence",
  "5562": "Ġsisters",
  "5563": "Ġemergency",
  "5564": "Ġarea",
  "5565": "ides",
  "5566": "Ġdads",
  "5567": "Ġanswers",
  "5568": "Ġpupp",
  "5569": "Ġkeys",
  "5570": "Ġchewing",
  "5571": "Ġslapped",
  "5572": "Ġwiz",
  "5573": "Ġimportance",
  "5574": "Boo",
  "5575": "Ġserved",
  "5576": "ĠHop",
  "5577": "Ġsafety",
  "5578": "izing",
  "5579": "Bu",
  "5580": "Would",
  "5581": "Ġsparkle",
  "5582": "Ġtouching",
  "5583": "ĠLater",
  "5584": "Ġsoared",
  "5585": "igail",
  "5586": "Ġsings",
  "5587": "Ġhen",
  "5588": "allen",
  "5589": "Ella",
  "5590": "bers",
  "5591": "antly",
  "5592": "Momo",
  "5593": "ĠDino",
  "5594": "Ġkeeps",
  "5595": "Ġamazement",
  "5596": "Ġchallen",
  "5597": "Ġtwin",
  "5598": "Ġhesit",
  "5599": "Ġrevealed",
  "5600": "anna",
  "5601": "achel",
  "5602": "Ġitem",
  "5603": "Ġdire",
  "5604": "Ġsoaked",
  "5605": "zing",
  "5606": "Ġwrit",
  "5607": "Ġfoods",
  "5608": "Ġrides",
  "5609": "Ġdinosaurs",
  "5610": "Ġrecorded",
  "5611": "Ġtickle",
  "5612": "Ġinch",
  "5613": "ĠZigzag",
  "5614": "ĠMe",
  "5615": "Ġwizard",
  "5616": "Ġvet",
  "5617": "Ġtrips",
  "5618": "Ġglowed",
  "5619": "ĠAn",
  "5620": "ĠFrog",
  "5621": "Mmm",
  "5622": "Ġhi",
  "5623": "Ġbeamed",
  "5624": "Ġquack",
  "5625": "Ġcurled",
  "5626": "Ġhated",
  "5627": "Ġwink",
  "5628": "Ġshopping",
  "5629": "Ġeats",
  "5630": "Eventually",
  "5631": "ĠBug",
  "5632": "Ġpraised",
  "5633": "Ġwooden",
  "5634": "Ġbringing",
  "5635": "Ġmittens",
  "5636": "Ġstudying",
  "5637": "Ġguy",
  "5638": "Ġbrushes",
  "5639": "Ġspaceship",
  "5640": "Ġgust",
  "5641": "Ġcrawling",
  "5642": "ĠSomething",
  "5643": "Cat",
  "5644": "Ġruler",
  "5645": "Ġflav",
  "5646": "Ġdownstairs",
  "5647": "Ġshooting",
  "5648": "Ġtastes",
  "5649": "Ġnapping",
  "5650": "Ġsprinkles",
  "5651": "Ġmarks",
  "5652": "Ġcuddled",
  "5653": "Ġdot",
  "5654": "hello",
  "5655": "plash",
  "5656": "Ġfut",
  "5657": "ales",
  "5658": "aved",
  "5659": "Ġfuture",
  "5660": "Ġmonsters",
  "5661": "Ġcollecting",
  "5662": "Ġmeasuring",
  "5663": "ĠHappy",
  "5664": "'.",
  "5665": "Ġfamilies",
  "5666": "ĠOut",
  "5667": "ĠFirst",
  "5668": "ĠMo",
  "5669": "Ġthrill",
  "5670": "Ġoat",
  "5671": "irts",
  "5672": "Ġresult",
  "5673": "Jake",
  "5674": "Ġapproached",
  "5675": "ĠRabbit",
  "5676": "Ġcrunchy",
  "5677": "act",
  "5678": "Un",
  "5679": "Ġremem",
  "5680": "Ġbleeding",
  "5681": "Ġremembers",
  "5682": "Ġnicer",
  "5683": "Ġbeat",
  "5684": "Ġsneaky",
  "5685": "Ġdisturbed",
  "5686": "Ġleader",
  "5687": "Ġscaring",
  "5688": "Or",
  "5689": "hind",
  "5690": "Ġpeel",
  "5691": "ĠHope",
  "5692": "Ġfiremen",
  "5693": "Ġneighborhood",
  "5694": "ĠStar",
  "5695": "Ġgrey",
  "5696": "ĠNot",
  "5697": "Ġmotion",
  "5698": "Ġnoon",
  "5699": "Ġpossible",
  "5700": "Emily",
  "5701": "Somet",
  "5702": "Ġapologized",
  "5703": "Ġweighed",
  "5704": "ues",
  "5705": "ĠDid",
  "5706": "Ġtickets",
  "5707": "Cl",
  "5708": "Ġnaps",
  "5709": "Ġloose",
  "5710": "Ġpride",
  "5711": "Ġyouth",
  "5712": "Ġswims",
  "5713": "ped",
  "5714": "Ġstrings",
  "5715": "Ġrecognized",
  "5716": "Ġsiren",
  "5717": "Ġpoking",
  "5718": "fied",
  "5719": "ĠHo",
  "5720": "cious",
  "5721": "ha",
  "5722": "elvet",
  "5723": "Ġtricked",
  "5724": "Ġwonders",
  "5725": "Ġgained",
  "5726": "Ġwanting",
  "5727": "Ġcrashed",
  "5728": "Ġobe",
  "5729": "Ġseesaw",
  "5730": "Ġworker",
  "5731": "unnies",
  "5732": "ls",
  "5733": "oming",
  "5734": "Ġdraws",
  "5735": "Ġscooped",
  "5736": ".'",
  "5737": "Ġzooming",
  "5738": "Ġopinion",
  "5739": "Ġyelling",
  "5740": "Ġprepared",
  "5741": "Ġgrinned",
  "5742": "ĠSlowly",
  "5743": "Ġawe",
  "5744": "Ġpoems",
  "5745": "Ġdoggy",
  "5746": "Ġacting",
  "5747": "ĠBeep",
  "5748": "Ġhappiest",
  "5749": "Ġchef",
  "5750": "Ġsneaked",
  "5751": "Ġrespons",
  "5752": "Ġeff",
  "5753": "ĠAlways",
  "5754": "ĠLizzy",
  "5755": "Ġowned",
  "5756": "Ġbunnies",
  "5757": "Ġanytime",
  "5758": "Ġstruck",
  "5759": "Ġpedals",
  "5760": "oys",
  "5761": "Ġknelt",
  "5762": "ena",
  "5763": "Ollie",
  "5764": "Ġsecrets",
  "5765": "Ġpause",
  "5766": "Ġdecorated",
  "5767": "Ġhorns",
  "5768": "Ġagreement",
  "5769": "ĠSqu",
  "5770": "ided",
  "5771": "Ġfrost",
  "5772": "Ġtallest",
  "5773": "Ġobey",
  "5774": "Remember",
  "5775": "riends",
  "5776": "ogo",
  "5777": "ĠStop",
  "5778": "Have",
  "5779": "Ġdecides",
  "5780": "ĠOnce",
  "5781": "Ġbehaved",
  "5782": "Ġtugged",
  "5783": "Ġsides",
  "5784": "Ġwoof",
  "5785": "Ġslim",
  "5786": "zen",
  "5787": "Ġgoodnight",
  "5788": "Ġkeeper",
  "5789": "Ġsparkling",
  "5790": "Ġchirped",
  "5791": "Ġprecious",
  "5792": "mother",
  "5793": "lier",
  "5794": "ien",
  "5795": "Tr",
  "5796": "Ġrepeated",
  "5797": "Ġclaps",
  "5798": "indy",
  "5799": "affes",
  "5800": "Ġsnowballs",
  "5801": "Ġcontain",
  "5802": "ud",
  "5803": "rs",
  "5804": "ĠRay",
  "5805": "Ġourselves",
  "5806": "allow",
  "5807": "Ġgiraffes",
  "5808": "Ġbalancing",
  "5809": "Ġkindly",
  "5810": "Ġspending",
  "5811": "Ġwrites",
  "5812": "ays",
  "5813": "ppers",
  "5814": "ĠLike",
  "5815": "omas",
  "5816": "Ġprop",
  "5817": "Ġhissed",
  "5818": "First",
  "5819": "Ġfrozen",
  "5820": "Ġfrosting",
  "5821": "Ġeffort",
  "5822": "Ġbuzzing",
  "5823": "Ġstruggled",
  "5824": "oh",
  "5825": "ĠSteve",
  "5826": "Ġadmiring",
  "5827": "Ġrele",
  "5828": "iggy",
  "5829": "Ġsweeties",
  "5830": "ĠVelvet",
  "5831": "Ġslimy",
  "5832": "Ġbrushed",
  "5833": "Ġbloomed",
  "5834": "Susie",
  "5835": "ĠAm",
  "5836": "Ġpolished",
  "5837": "ĠZoe",
  "5838": "arth",
  "5839": "anted",
  "5840": "Ġcomfy",
  "5841": "Ġboo",
  "5842": "Ġstaying",
  "5843": "Ġrubbing",
  "5844": "Ducky",
  "5845": "Ġrocking",
  "5846": "Ġpockets",
  "5847": "Ġthrilled",
  "5848": "Ġbeside",
  "5849": "Ġcomple",
  "5850": "ĠAunt",
  "5851": "ĠMaggie",
  "5852": "Ah",
  "5853": "Ġeight",
  "5854": "urry",
  "5855": "isdom",
  "5856": "Ġmachines",
  "5857": "Ġearlier",
  "5858": "Ġyesterday",
  "5859": "Ġseems",
  "5860": "Ġrust",
  "5861": "ĠKeep",
  "5862": "Sp",
  "5863": "Ġtraveled",
  "5864": "Ġfolding",
  "5865": "Ġboom",
  "5866": "Ġcracked",
  "5867": "ities",
  "5868": "Ġhugging",
  "5869": "Ġradishes",
  "5870": "ĠStitch",
  "5871": "Ġopening",
  "5872": "Ġloving",
  "5873": "Ġcircus",
  "5874": "Ġsurrounded",
  "5875": "Ġcuriosity",
  "5876": "ĠRachel",
  "5877": "Ġspraying",
  "5878": "Ġdemanded",
  "5879": "Ġpaintings",
  "5880": "amie",
  "5881": "ĠGreen",
  "5882": "Ġremoved",
  "5883": "Ġgaze",
  "5884": "Ġhonk",
  "5885": "Ġpebbles",
  "5886": "Ġzookeeper",
  "5887": "Ġhardly",
  "5888": "Ġcatches",
  "5889": "edding",
  "5890": "Ġsting",
  "5891": "Ġstripes",
  "5892": "Ġpowers",
  "5893": "Ġloaded",
  "5894": "ĠPippa",
  "5895": "Sometimes",
  "5896": "Ġsplashes",
  "5897": "Ġpots",
  "5898": "Ġpetted",
  "5899": "Ġmatching",
  "5900": "ĠDavid",
  "5901": "Thanks",
  "5902": "Ġtoss",
  "5903": "Ġstare",
  "5904": "Ġbelly",
  "5905": "Yummy",
  "5906": "ibb",
  "5907": "Ġwhatever",
  "5908": "Ġapologize",
  "5909": "Ġrocked",
  "5910": "Ġcomforted",
  "5911": "ĠBree",
  "5912": "Ġdecision",
  "5913": "Ġribbons",
  "5914": "ĠJoy",
  "5915": "ĠBirdie",
  "5916": "ern",
  "5917": "Ġstruggling",
  "5918": "Ġexpected",
  "5919": "Ġdeser",
  "5920": "Ġsteep",
  "5921": "wh",
  "5922": "Ġprotected",
  "5923": "Ġneighbors",
  "5924": "Ġsmiley",
  "5925": "Ġchases",
  "5926": "During",
  "5927": "Ġgranted",
  "5928": "Ġcrumb",
  "5929": "ĠMat",
  "5930": "Ġpurred",
  "5931": "Ġdiving",
  "5932": "Ġsadness",
  "5933": "Whiskers",
  "5934": "Ġorganizing",
  "5935": "lowers",
  "5936": "Ġeagle",
  "5937": "Ġheroes",
  "5938": "Ġdipped",
  "5939": "Ġsunlight",
  "5940": "Ġlied",
  "5941": "Ġpastels",
  "5942": "ĠFrank",
  "5943": "Ex",
  "5944": "Ġsafer",
  "5945": "Ġroads",
  "5946": "Ġscru",
  "5947": "Ġargued",
  "5948": "ĠMilly",
  "5949": "Ġgoals",
  "5950": "ĠWater",
  "5951": "Ġdiscovery",
  "5952": "ĠAbigail",
  "5953": "Ġvillag",
  "5954": "Ġpeered",
  "5955": "Ro",
  "5956": "ĠBouncy",
  "5957": "use",
  "5958": "ana",
  "5959": "loe",
  "5960": "Ġtim",
  "5961": "Ġdragons",
  "5962": "Ġbuildings",
  "5963": "Ġbuckets",
  "5964": "Ġparties",
  "5965": "Ġbeard",
  "5966": "Ġwedding",
  "5967": "Rex",
  "5968": "Ġflutter",
  "5969": "Ġplanets",
  "5970": "Ġann",
  "5971": "ĠRobby",
  "5972": "Ġpolishing",
  "5973": "Ġfasc",
  "5974": "ira",
  "5975": "Ġreleased",
  "5976": "ĠChr",
  "5977": "Ġcrabs",
  "5978": "ĠGogo",
  "5979": "Ġtails",
  "5980": "ĠWatch",
  "5981": "Ġsausages",
  "5982": "ĠJu",
  "5983": "Ġargu",
  "5984": "Ġcontro",
  "5985": "Ġbottles",
  "5986": "Ġwiggled",
  "5987": "Ġteased",
  "5988": "uke",
  "5989": "Ġarguing",
  "5990": "Ġsled",
  "5991": "Ġdragged",
  "5992": "Ġpadd",
  "5993": "ĠCar",
  "5994": "Ġroaring",
  "5995": "Ġclearing",
  "5996": "Ġshirts",
  "5997": "Ġmovies",
  "5998": "Ġgathering",
  "5999": "Ġairpl",
  "6000": "Ġwid",
  "6001": "joyed",
  "6002": "Ġteaches",
  "6003": "Ġspiders",
  "6004": "Ġlimes",
  "6005": "ĠRemember",
  "6006": "ĠDare",
  "6007": "Ġoverjoyed",
  "6008": "Ġactually",
  "6009": "Ġsighs",
  "6010": "Ġcontinue",
  "6011": "Ġcuddle",
  "6012": "Ġsoaring",
  "6013": "Ġsmallest",
  "6014": "ĠJess",
  "6015": "Ġdrives",
  "6016": "Ġsparkles",
  "6017": "Ġrip",
  "6018": "Ġsitu",
  "6019": "Ġcubes",
  "6020": "Ġrefres",
  "6021": "Ġtalent",
  "6022": "Ġchallenge",
  "6023": "ĠOlly",
  "6024": "Ġgrandmother",
  "6025": "ĠSplash",
  "6026": "Ġpouring",
  "6027": "umm",
  "6028": "Ġpretends",
  "6029": "Ġfascin",
  "6030": "Ġcuts",
  "6031": "Ġquarreling",
  "6032": "Ġpeppers",
  "6033": "Ġbank",
  "6034": "Ġshivered",
  "6035": "Ġmane",
  "6036": "Ġdusty",
  "6037": "ley",
  "6038": "Ġwondering",
  "6039": "Ġvillagers",
  "6040": "Ġstretching",
  "6041": "njoy",
  "6042": "ib",
  "6043": "Ġweeks",
  "6044": "Ġwherever",
  "6045": "Ġdarker",
  "6046": "jam",
  "6047": "Tiny",
  "6048": "sses",
  "6049": "ĠX",
  "6050": "Ġrings",
  "6051": "Ġonwards",
  "6052": "ĠKatie",
  "6053": "Ġunited",
  "6054": "Achoo",
  "6055": "Ġbead",
  "6056": "ĠEveryday",
  "6057": "ĠBeing",
  "6058": "Ġprettiest",
  "6059": "Johnny",
  "6060": "Ġcaut",
  "6061": "Ġrealize",
  "6062": "Ġcompany",
  "6063": "Ġpenguins",
  "6064": "annah",
  "6065": "Luna",
  "6066": "Fr",
  "6067": "ĠSpring",
  "6068": "Ġbedtime",
  "6069": "Ġcompleted",
  "6070": "ĠWisdom",
  "6071": "ĠLeave",
  "6072": "âĢĿ.",
  "6073": "Ġknights",
  "6074": "Ġflags",
  "6075": "ĠJe",
  "6076": "ĠBecause",
  "6077": "Ġplayroom",
  "6078": "ĠPrin",
  "6079": "Ġactions",
  "6080": "ĠZero",
  "6081": "Ġlearns",
  "6082": "Ġgotten",
  "6083": "Ġpatience",
  "6084": "inda",
  "6085": "dam",
  "6086": "Ġshrug",
  "6087": "Ġkites",
  "6088": "Ġresponsible",
  "6089": "Ġfears",
  "6090": "Ġdestination",
  "6091": "Ġwires",
  "6092": "Ġreply",
  "6093": "Ġwrist",
  "6094": "Ġdam",
  "6095": "aws",
  "6096": "Ġpacking",
  "6097": "Ġmountains",
  "6098": "Ġfault",
  "6099": "Ġapplauded",
  "6100": "Ġscrubbed",
  "6101": "Ġma",
  "6102": "Ġcrept",
  "6103": "ĠAva",
  "6104": "Uh",
  "6105": "ĠEarth",
  "6106": "Ġsatis",
  "6107": "Ġthird",
  "6108": "Ġphot",
  "6109": "Ġpencils",
  "6110": "Ġwins",
  "6111": "Ġsticking",
  "6112": "Ġbaker",
  "6113": "Ġvisiting",
  "6114": "Ġwound",
  "6115": "Ġuses",
  "6116": "Ġpeas",
  "6117": "Ġreminder",
  "6118": "Ġcontrol",
  "6119": "ashed",
  "6120": "Grandpa",
  "6121": "Ġjoking",
  "6122": "Ġawake",
  "6123": "Ġinstruct",
  "6124": "Ġstaring",
  "6125": "Ġhealed",
  "6126": "ĠPut",
  "6127": "Ġhitting",
  "6128": "ĠFish",
  "6129": "Ġscreaming",
  "6130": "Ġbegin",
  "6131": "Rob",
  "6132": "uckily",
  "6133": "ĠFriends",
  "6134": "ĠMoo",
  "6135": "icorn",
  "6136": "Ġhelmets",
  "6137": "enty",
  "6138": "Ġunicorn",
  "6139": "ler",
  "6140": "seek",
  "6141": "Ġtowels",
  "6142": "Silly",
  "6143": "ĠLou",
  "6144": "Ġchips",
  "6145": "ica",
  "6146": "Ġcreation",
  "6147": "Ġwasted",
  "6148": "bie",
  "6149": "Mar",
  "6150": "ĠBehind",
  "6151": "laire",
  "6152": "Ġmasks",
  "6153": "Ġitems",
  "6154": "Ġforgi",
  "6155": "Ġfirefight",
  "6156": "Ġoutdo",
  "6157": "Ġlollipops",
  "6158": "Watch",
  "6159": "Ġheav",
  "6160": "Ġguns",
  "6161": "Ġdied",
  "6162": "ĠHippy",
  "6163": "Ġseas",
  "6164": "Ġglitter",
  "6165": "uddles",
  "6166": "Ġarrive",
  "6167": "Ġweren",
  "6168": "Ġstole",
  "6169": "Ġscales",
  "6170": "Ġperched",
  "6171": "Ġaccom",
  "6172": "Ġlogs",
  "6173": "Ġachieve",
  "6174": "die",
  "6175": "Ġpracticing",
  "6176": "ining",
  "6177": "Ġwhose",
  "6178": "Stay",
  "6179": "Ġpumpkins",
  "6180": "Ġinstructions",
  "6181": "Ġswoop",
  "6182": "Ġbatteries",
  "6183": "Ġcandies",
  "6184": "Ġagrees",
  "6185": "Ġproject",
  "6186": "Ġsnakes",
  "6187": "Ġchirping",
  "6188": "Benny",
  "6189": "Ġshelves",
  "6190": "Ġprotecting",
  "6191": "Ġparked",
  "6192": "Ġexact",
  "6193": "ĠCra",
  "6194": "Ġpatiently",
  "6195": "Ġactiv",
  "6196": "Ġvideos",
  "6197": "Ġshoulders",
  "6198": "Ġblows",
  "6199": "hee",
  "6200": "Fo",
  "6201": "Ġpromises",
  "6202": "go",
  "6203": "Ġdent",
  "6204": "usan",
  "6205": "uest",
  "6206": "ners",
  "6207": "jamas",
  "6208": "Ġexamined",
  "6209": "Ġairplane",
  "6210": "Doggy",
  "6211": "Ġroses",
  "6212": "Ġaccompl",
  "6213": "Ġtasks",
  "6214": "Dave",
  "6215": "ĠHoot",
  "6216": "Poppy",
  "6217": "ĠBop",
  "6218": "Bunny",
  "6219": "Ġbeads",
  "6220": "Ġbowls",
  "6221": "Ġcrumbs",
  "6222": "zes",
  "6223": "Ġlistens",
  "6224": "ĠLove",
  "6225": "ĠCatty",
  "6226": "ĠBrownie",
  "6227": "Pete",
  "6228": "ĠOl",
  "6229": "Ġdolphins",
  "6230": "Ġcough",
  "6231": "Ġbunch",
  "6232": "Ġguest",
  "6233": "cakes",
  "6234": "Ġrequested",
  "6235": "Ġremote",
  "6236": "Ġimproved",
  "6237": "anta",
  "6238": "Ġreaching",
  "6239": "Ġbrand",
  "6240": "ĠJan",
  "6241": "ayla",
  "6242": "Ġalien",
  "6243": "ĠBye",
  "6244": "irm",
  "6245": "Ġcopy",
  "6246": "ĠSun",
  "6247": "Ġcheering",
  "6248": "Ġphotos",
  "6249": "ĠJulie",
  "6250": "ĠChew",
  "6251": "Bad",
  "6252": "ĠBlink",
  "6253": "Time",
  "6254": "Ġcans",
  "6255": "ĠCuddles",
  "6256": "Ġtimer",
  "6257": "ĠBy",
  "6258": "Ġreplaced",
  "6259": "athy",
  "6260": "Ġworkers",
  "6261": "Ġstern",
  "6262": "ĠEnjoy",
  "6263": "aster",
  "6264": "Ġneither",
  "6265": "Mike",
  "6266": "Ġpassing",
  "6267": "Ġmisses",
  "6268": "Ġcurtains",
  "6269": "Ġconfl",
  "6270": "Chirpy",
  "6271": "Ġrainbows",
  "6272": "Ġrubs",
  "6273": "George",
  "6274": "uctantly",
  "6275": "Ġrolls",
  "6276": "Ġpatted",
  "6277": "ilo",
  "6278": "Ġpajamas",
  "6279": "Ġoutdoors",
  "6280": "esome",
  "6281": "dies",
  "6282": "Ġcomplaining",
  "6283": "ĠSquirrel",
  "6284": "ĠĠ",
  "6285": "Lola",
  "6286": "Run",
  "6287": "Ġpuppet",
  "6288": "ĠPrincess",
  "6289": "Ġcloses",
  "6290": "Ġbeneath",
  "6291": "Ġlap",
  "6292": "Ġdrums",
  "6293": "Ġtune",
  "6294": "ĠBeth",
  "6295": "ĠMouse",
  "6296": "Ġfilling",
  "6297": "Miss",
  "6298": "angled",
  "6299": "Ġrefuse",
  "6300": "ĠSorry",
  "6301": "Ġsweat",
  "6302": "Ġfaced",
  "6303": "...",
  "6304": "Ġseven",
  "6305": "Ġbalanced",
  "6306": "Ġrescued",
  "6307": "neath",
  "6308": "bl",
  "6309": "Ġquacked",
  "6310": "ĠAbby",
  "6311": "Paul",
  "6312": "istle",
  "6313": "Ġawesome",
  "6314": "Ġ1",
  "6315": "Ġmission",
  "6316": "ĠHowever",
  "6317": "Ġguys",
  "6318": "Ġconflict",
  "6319": "Ġcautious",
  "6320": "Ġvent",
  "6321": "Ġobserved",
  "6322": "Ġcause",
  "6323": "Ġintroduc",
  "6324": "ĠThomas",
  "6325": "Ġpastries",
  "6326": "nie",
  "6327": "ĠOur",
  "6328": "Ġexactly",
  "6329": "Ġdoctors",
  "6330": "Ġrule",
  "6331": "Ġbecoming",
  "6332": "Ġpoliceman",
  "6333": "Ġmes",
  "6334": "uly",
  "6335": "Ġrockets",
  "6336": "you",
  "6337": "ĠYes",
  "6338": "ĠDot",
  "6339": "Ġfairies",
  "6340": "lay",
  "6341": "Ġpout",
  "6342": "An",
  "6343": "Ġinsist",
  "6344": "Ġblooming",
  "6345": "Ġtractor",
  "6346": "Ġfarther",
  "6347": "ĠSad",
  "6348": "avi",
  "6349": "Oops",
  "6350": "Great",
  "6351": "Ġremembering",
  "6352": "Ġincluded",
  "6353": "Ġcurly",
  "6354": "Zoom",
  "6355": "Fine",
  "6356": "Ġteamwork",
  "6357": "zie",
  "6358": "Ġfascinated",
  "6359": "Ġwobbled",
  "6360": "Ġslam",
  "6361": "Ġtruly",
  "6362": "Ġhelpers",
  "6363": "Ġsights",
  "6364": "Ġpaddle",
  "6365": "Ġstumble",
  "6366": "Ġfirm",
  "6367": "Henry",
  "6368": "ĠJilly",
  "6369": "acob",
  "6370": "Ġcaused",
  "6371": "Ġprayer",
  "6372": "Ġspong",
  "6373": "Ġrecording",
  "6374": "kelly",
  "6375": "ais",
  "6376": "Ġtraded",
  "6377": "Ġstarfish",
  "6378": "Ġsupplies",
  "6379": "Ġthro",
  "6380": "Ġpointy",
  "6381": "Ġsituation",
  "6382": "Ġinviting",
  "6383": "eah",
  "6384": "gers",
  "6385": "Ġneighbourhood",
  "6386": "Ġeveryday",
  "6387": "Ġornaments",
  "6388": "ĠAlly",
  "6389": "inkle",
  "6390": "Ġvalued",
  "6391": "Ġadding",
  "6392": "Some",
  "6393": "Ġreluctantly",
  "6394": "Ġdots",
  "6395": "Ġstays",
  "6396": "Ġtables",
  "6397": "Ġprettier",
  "6398": "Ġbare",
  "6399": "Ġdesert",
  "6400": "Ġsnowmen",
  "6401": "Ġsteady",
  "6402": "Ġminerals",
  "6403": "araway",
  "6404": "Ġthorn",
  "6405": "ody",
  "6406": "Ġast",
  "6407": "Ġglasses",
  "6408": "Ġfaraway",
  "6409": "ĠGet",
  "6410": "ĠFoxy",
  "6411": "Ġswooped",
  "6412": "ĠWelcome",
  "6413": "ĠTwo",
  "6414": "ĠSure",
  "6415": "Ġunf",
  "6416": "Ġforks",
  "6417": "Ġusually",
  "6418": "Ġusual",
  "6419": "Polly",
  "6420": "Ġdar",
  "6421": "ĠJamie",
  "6422": "Ġwinked",
  "6423": "Ġsneezing",
  "6424": "Ġsolut",
  "6425": "Ġloading",
  "6426": "Ġsponge",
  "6427": "ĠQuick",
  "6428": "Ġinsects",
  "6429": "Ġpans",
  "6430": "Dog",
  "6431": "Ġsobbed",
  "6432": "ĠSanta",
  "6433": "James",
  "6434": "Ġgrowling",
  "6435": "sm",
  "6436": "arter",
  "6437": "Ġthroat",
  "6438": "ĠChloe",
  "6439": "Ġnoses",
  "6440": "ĠJosh",
  "6441": "ĠDizzy",
  "6442": "Ġscarves",
  "6443": "Ġconfident",
  "6444": "Ġyourselves",
  "6445": "ĠWant",
  "6446": "agull",
  "6447": "Ġhomework",
  "6448": "Ġsuperheroes",
  "6449": "ĠStay",
  "6450": "Joey",
  "6451": "Ġsmarter",
  "6452": "Ġwindy",
  "6453": "Ġlibrarian",
  "6454": "Tina",
  "6455": "ĠKids",
  "6456": "Ġgems",
  "6457": "Days",
  "6458": "ora",
  "6459": "Ġunderneath",
  "6460": "Ġkicks",
  "6461": "Ġknowled",
  "6462": "Ġitchy",
  "6463": "Ġknowledge",
  "6464": "Ġjackets",
  "6465": "ĠSkelly",
  "6466": "ĠFor",
  "6467": "Ġsurface",
  "6468": "Ġuntie",
  "6469": "Ġcomm",
  "6470": "ĠDuck",
  "6471": "Ġprincesses",
  "6472": "...\"",
  "6473": "Those",
  "6474": "ido",
  "6475": "eed",
  "6476": "Hold",
  "6477": "Yeah",
  "6478": "coon",
  "6479": "Ġsquares",
  "6480": "ĠHenny",
  "6481": "Ġwarnings",
  "6482": "Ġgiggling",
  "6483": "iar",
  "6484": "Ġreads",
  "6485": "vin",
  "6486": "Our",
  "6487": "Ġchoo",
  "6488": "son",
  "6489": "Ġyounger",
  "6490": "Ġclowns",
  "6491": "ĠMix",
  "6492": "Toby",
  "6493": "Ġropes",
  "6494": "Ġbiting",
  "6495": "Ġcrowd",
  "6496": "ĠUnfortunately",
  "6497": "pite",
  "6498": "Danny",
  "6499": "True",
  "6500": "Ġseagull",
  "6501": "Ġpaddled",
  "6502": "Ġwears",
  "6503": "Ġdelivered",
  "6504": "ĠMon",
  "6505": "Ġtwirl",
  "6506": "Ġonions",
  "6507": "Ġbuzzed",
  "6508": "Ġcomplained",
  "6509": "Ġbumpy",
  "6510": "Ġstem",
  "6511": "Ew",
  "6512": "Ġpiggy",
  "6513": "Mrs",
  "6514": "ĠAnne",
  "6515": "Ġdirection",
  "6516": "ouch",
  "6517": "Ġdived",
  "6518": "Roar",
  "6519": "Ġtangled",
  "6520": "Ġstartled",
  "6521": "ults",
  "6522": "Ġleaning",
  "6523": "bbie",
  "6524": "ĠAnt",
  "6525": "ĠJones",
  "6526": "Ġbadge",
  "6527": "ĠPo",
  "6528": "Grace",
  "6529": "Ġunp",
  "6530": "Ġdeal",
  "6531": "though",
  "6532": "Annie",
  "6533": "Ġvowed",
  "6534": "Ġnapkins",
  "6535": "anes",
  "6536": "Ġtickled",
  "6537": "Ġrisk",
  "6538": "Ġcovers",
  "6539": "Ġpec",
  "6540": "Shh",
  "6541": "Ġyells",
  "6542": "Ġsatisfied",
  "6543": "int",
  "6544": "Ġknocks",
  "6545": "Ġrefreshed",
  "6546": "tuce",
  "6547": "ĠSc",
  "6548": "cuse",
  "6549": "Ġcous",
  "6550": "Ġarrows",
  "6551": "Maggie",
  "6552": "ĠWhistle",
  "6553": "Pe",
  "6554": "Ġwipes",
  "6555": "Ġspeaking",
  "6556": "Ġlettuce",
  "6557": "Ġguessing",
  "6558": "Unfortunately",
  "6559": "ĠQuack",
  "6560": "Ġripe",
  "6561": "ĠSusan",
  "6562": "Ġhides",
  "6563": "Ġchoices",
  "6564": "ĠDodo",
  "6565": "ĠRover",
  "6566": "Buzz",
  "6567": "Ġsigned",
  "6568": "Ġslower",
  "6569": "Ġseeker",
  "6570": "Ġintroduced",
  "6571": "Ġsinger",
  "6572": "Ġcreating",
  "6573": "ĠMatt",
  "6574": "Ġfroze",
  "6575": "Ġcent",
  "6576": "uggles",
  "6577": "Ġjoked",
  "6578": "Ġsqueal",
  "6579": "Ġtoaster",
  "6580": "Ġexplorers",
  "6581": "fit",
  "6582": "Ġavo",
  "6583": "anging",
  "6584": "Sophie",
  "6585": "Ġpraying",
  "6586": "Ġwritten",
  "6587": "Ġdiscovering",
  "6588": "Ġprovided",
  "6589": "ĠDara",
  "6590": "Ġrefle",
  "6591": "ĠLion",
  "6592": "Excuse",
  "6593": "Ġmushrooms",
  "6594": "ĠJeff",
  "6595": "ĠPaws",
  "6596": "Ġpaying",
  "6597": "Ġknees",
  "6598": "ences",
  "6599": "Ġhider",
  "6600": "Ġwandering",
  "6601": "ĠAsh",
  "6602": "Ġimages",
  "6603": "Charlie",
  "6604": "Ġstung",
  "6605": "ĠWink",
  "6606": "Ġmagnets",
  "6607": "Ġbarely",
  "6608": "Ġbehaving",
  "6609": "Ġtipto",
  "6610": "?\",",
  "6611": "Ġmarked",
  "6612": "brush",
  "6613": "rrr",
  "6614": "Ġrestored",
  "6615": "ĠDee",
  "6616": "Ġleading",
  "6617": "lled",
  "6618": "Ġchuck",
  "6619": "ados",
  "6620": "Ġnine",
  "6621": "Ġgreet",
  "6622": "Teddy",
  "6623": "Ġgears",
  "6624": "Ġbravery",
  "6625": "ĠSnuggles",
  "6626": "ky",
  "6627": "Ġcompetition",
  "6628": "eal",
  "6629": "Ġoutfit",
  "6630": "oline",
  "6631": "Ġwishing",
  "6632": "Ġproperly",
  "6633": "Ġventured",
  "6634": "tle",
  "6635": "aa",
  "6636": "Ġmuscle",
  "6637": "Ġdances",
  "6638": "Ġchat",
  "6639": "Ġsalty",
  "6640": "Ġpens",
  "6641": "amb",
  "6642": "ĠBetsy",
  "6643": "Ġranger",
  "6644": "ĠZiggy",
  "6645": "Ġdeserve",
  "6646": "Ġhowever",
  "6647": "sequ",
  "6648": "Ġmatters",
  "6649": "Ġdarkness",
  "6650": "Ġburst",
  "6651": "ĠFu",
  "6652": "Ġrainy",
  "6653": "Ġcobwebs",
  "6654": "Ġruining",
  "6655": "Ġchefs",
  "6656": "Ġconsequ",
  "6657": "Ġblocking",
  "6658": "Ġbak",
  "6659": "usted",
  "6660": "itely",
  "6661": "sty",
  "6662": "Ġscur",
  "6663": "Ġvines",
  "6664": "Ġfab",
  "6665": "abel",
  "6666": "Ġfabric",
  "6667": "Ġentire",
  "6668": "Ġbasement",
  "6669": "Ġperformed",
  "6670": "Ġleast",
  "6671": "ĠBuggy",
  "6672": "Sn",
  "6673": "Ġscratches",
  "6674": "Ġheavier",
  "6675": "ĠClaire",
  "6676": "Ġmints",
  "6677": "Ġtwirling",
  "6678": "Ġavocados",
  "6679": "However",
  "6680": "ĠLinda",
  "6681": "rink",
  "6682": "fl",
  "6683": "Ġscurried",
  "6684": "Ġlosing",
  "6685": "Ġsunflowers",
  "6686": "ĠJenna",
  "6687": "Ġrainco",
  "6688": "Ġswords",
  "6689": "Tweet",
  "6690": "Ġclick",
  "6691": "agic",
  "6692": "ĠLaser",
  "6693": "Ġsilent",
  "6694": "Ġjobs",
  "6695": "Ġnecklaces",
  "6696": "Ġflames",
  "6697": "ĠLuke",
  "6698": "Ġrelief",
  "6699": "ĠGrumpy",
  "6700": "Ġsnat",
  "6701": "Ġsewed",
  "6702": "Ġrotting",
  "6703": "len",
  "6704": "Listen",
  "6705": "Follow",
  "6706": "Ġtricky",
  "6707": "Jerry",
  "6708": "Ġlighter",
  "6709": "ophia",
  "6710": "Ġbows",
  "6711": "ĠSkip",
  "6712": "Ġexha",
  "6713": "Ġsolution",
  "6714": "Ġconsequences",
  "6715": "Alex",
  "6716": "ĠLena",
  "6717": "Ġtires",
  "6718": "Ġstain",
  "6719": "Beep",
  "6720": "Ġunpacked",
  "6721": "Ab",
  "6722": "Ġpartic",
  "6723": "rance",
  "6724": "Ġraces",
  "6725": "Ġpins",
  "6726": "Ġbumps",
  "6727": "Ġwraps",
  "6728": "aisies",
  "6729": "Ġwow",
  "6730": "Ġdecorating",
  "6731": "Ġbacked",
  "6732": "cher",
  "6733": "Ġdentist",
  "6734": "Ġpurr",
  "6735": "Ġneedles",
  "6736": "Ġcautiously",
  "6737": "Ġlifting",
  "6738": "izzie",
  "6739": "ĠPr",
  "6740": "Ġaccomplish",
  "6741": "Ġtriangles",
  "6742": "Ġdaisies",
  "6743": "ept",
  "6744": "Ġhesitated",
  "6745": "Ġannoy",
  "6746": "ĠThose",
  "6747": "Ġgrowls",
  "6748": "Ġcrackers",
  "6749": "oke",
  "6750": "Ġstomped",
  "6751": "Ġgrabbing",
  "6752": "Ġcott",
  "6753": "Ġfigured",
  "6754": "Ġbodies",
  "6755": "Ġmater",
  "6756": "Ġbuying",
  "6757": "ĠTree",
  "6758": "Ġmaterial",
  "6759": "ĠRolly",
  "6760": "ĠFido",
  "6761": "ĠAdam",
  "6762": "Ġswans",
  "6763": "Ġties",
  "6764": "Ġgri",
  "6765": "vers",
  "6766": "Ġgrows",
  "6767": "ĠĊĠ",
  "6768": "Ġsweets",
  "6769": "ĠGoodbye",
  "6770": "Ġowners",
  "6771": "Ġflavor",
  "6772": "Ġcheeks",
  "6773": "ĠCathy",
  "6774": "Big",
  "6775": "Ġsuffering",
  "6776": "ĠJessie",
  "6777": "ĠEl",
  "6778": "vroom",
  "6779": "Ġfact",
  "6780": "Ġgroups",
  "6781": "bly",
  "6782": "Ġforehead",
  "6783": "Ġlungs",
  "6784": "Harry",
  "6785": "Ġrepa",
  "6786": "Ġinterested",
  "6787": "Ġbakery",
  "6788": "ĠMilo",
  "6789": "Ġfreed",
  "6790": "Lilly",
  "6791": "itches",
  "6792": "ĠNothing",
  "6793": "Ġchuckled",
  "6794": "For",
  "6795": "Ġswept",
  "6796": "Ġconn",
  "6797": "?'",
  "6798": "Ġthud",
  "6799": "Ġexhausted",
  "6800": "Tw",
  "6801": "Ġtwinkling",
  "6802": "Ġtapped",
  "6803": "Ru",
  "6804": "Ġnect",
  "6805": "rosty",
  "6806": "Ġnectar",
  "6807": "elle",
  "6808": "Ġfeast",
  "6809": "Ġdarling",
  "6810": "indr",
  "6811": "ĠMad",
  "6812": "Ġworries",
  "6813": "Ġuns",
  "6814": "Ġtunnels",
  "6815": "Ġfuzzy",
  "6816": "Ġrepaired",
  "6817": "Ġreason",
  "6818": "ĠTrust",
  "6819": "ĠCopper",
  "6820": "ĠBall",
  "6821": "Ġactivities",
  "6822": "lets",
  "6823": "Ġpecked",
  "6824": "ĠHannah",
  "6825": "Ġentrance",
  "6826": "ĠTry",
  "6827": "Ġraindr",
  "6828": "Ġmeals",
  "6829": "ĠListen",
  "6830": "Ġparticular",
  "6831": "Ġcompletely",
  "6832": "Ġmailed",
  "6833": "ctions",
  "6834": "Ġnests",
  "6835": "Ġwaiter",
  "6836": "Ġcuddly",
  "6837": "Ġsense",
  "6838": "ĠNana",
  "6839": "Ġcolored",
  "6840": "arky",
  "6841": "Ġleap",
  "6842": "step",
  "6843": "band",
  "6844": "Ġplenty",
  "6845": "Ġpeeking",
  "6846": "Ġslammed",
  "6847": "ĠCara",
  "6848": "no",
  "6849": "Ġplayers",
  "6850": "Ġmonth",
  "6851": "Ġbudge",
  "6852": "ĠBirthday",
  "6853": "ĠQ",
  "6854": "Ġscra",
  "6855": "Ġforgets",
  "6856": "Ġden",
  "6857": "Ġhandful",
  "6858": "ĠOliver",
  "6859": "Ġmer",
  "6860": "ossible",
  "6861": "Ġgenie",
  "6862": "ĠChrist",
  "6863": "Ġstool",
  "6864": "iggie",
  "6865": "Ġtalks",
  "6866": "ĠPup",
  "6867": "ĠSuzie",
  "6868": "Ġpassports",
  "6869": "Ġfeeding",
  "6870": "Ġfilms",
  "6871": "Ġbaths",
  "6872": "Ġimpossible",
  "6873": "Ġdetermination",
  "6874": "May",
  "6875": "Ġprinting",
  "6876": "boat",
  "6877": "Ġdesigned",
  "6878": "Ġbuses",
  "6879": "Ġopp",
  "6880": "ueen",
  "6881": "lephant",
  "6882": "Ġsuitcase",
  "6883": "Ġbars",
  "6884": "Ġcounts",
  "6885": "Ġstolen",
  "6886": "Ġspreading",
  "6887": "Ġspikes",
  "6888": "ĠSnap",
  "6889": "Ġwiping",
  "6890": "Ġsteer",
  "6891": "Ġlamb",
  "6892": "ĠRain",
  "6893": "Ġhonked",
  "6894": "etty",
  "6895": "nies",
  "6896": "Whee",
  "6897": "Ġcowb",
  "6898": "Ġseparated",
  "6899": "blings",
  "6900": "Ġsiblings",
  "6901": "Ġhops",
  "6902": "Ġchop",
  "6903": "Ġsewing",
  "6904": "Ġfires",
  "6905": "ĠTwinkle",
  "6906": "Ġfever",
  "6907": "Ġtwinkle",
  "6908": "Ġty",
  "6909": "Ġcamping",
  "6910": "ĠMira",
  "6911": "Ġlower",
  "6912": "Ġchanging",
  "6913": "yes",
  "6914": "retch",
  "6915": "Ġbehavi",
  "6916": "ĠBloom",
  "6917": "mas",
  "6918": "Ġliqu",
  "6919": "Ġcelebration",
  "6920": "but",
  "6921": "Ġsquealed",
  "6922": "Ġdollhouse",
  "6923": "Sunny",
  "6924": "Ġbackward",
  "6925": "Ġage",
  "6926": "Ġsnatched",
  "6927": "Ġcash",
  "6928": "ho",
  "6929": "Ġtwice",
  "6930": "lee",
  "6931": "Ġsway",
  "6932": "itched",
  "6933": "Ġcelebrating",
  "6934": "ĠPeanut",
  "6935": "Ġshrinking",
  "6936": "Ġache",
  "6937": "weed",
  "6938": "Ġkings",
  "6939": "rious",
  "6940": "Ġshops",
  "6941": "Ġkittens",
  "6942": "cope",
  "6943": "Rose",
  "6944": "ĠJessica",
  "6945": "ĠJacob",
  "6946": "ĠGina",
  "6947": "aura",
  "6948": "Ġhus",
  "6949": "Ġtouches",
  "6950": "airy",
  "6951": "Ġpancakes",
  "6952": "Ġavoid",
  "6953": "Ġspat",
  "6954": "ĠFrosty",
  "6955": "rig",
  "6956": "hog",
  "6957": "ĠNina",
  "6958": "Ġpaths",
  "6959": "ives",
  "6960": "cky",
  "6961": "ĠHold",
  "6962": "Ġrotten",
  "6963": "Ġcalmed",
  "6964": "Sandy",
  "6965": "Ġseaweed",
  "6966": "Ġdropping",
  "6967": "ĠJon",
  "6968": "ĠMel",
  "6969": "iles",
  "6970": "Pipp",
  "6971": "Ġtwisting",
  "6972": "Ġstroked",
  "6973": "Ġuntied",
  "6974": "llen",
  "6975": "Ġplayhouse",
  "6976": "ne",
  "6977": "Millie",
  "6978": "Ġstudents",
  "6979": "Ġpuppies",
  "6980": "cl",
  "6981": "ĠSof",
  "6982": "hi",
  "6983": "Ġscrews",
  "6984": "Ġastron",
  "6985": "ĠRe",
  "6986": "Ġsomebody",
  "6987": "igning",
  "6988": "Ġliquid",
  "6989": "ammy",
  "6990": "Ġwakes",
  "6991": "Ġsquish",
  "6992": "ĠWoof",
  "6993": "Ġbracelets",
  "6994": "Ġastronaut",
  "6995": "immer",
  "6996": "aren",
  "6997": "Ġthrown",
  "6998": "Ġloops",
  "6999": "ĠOther",
  "7000": "Luckily",
  "7001": "Ġwrapping",
  "7002": "Ġplain",
  "7003": "Ġtramp",
  "7004": "Ġplanning",
  "7005": "Ġskunk",
  "7006": "Ġaimed",
  "7007": "Ġpennies",
  "7008": "Ġshoo",
  "7009": "Ġlifts",
  "7010": "Ġdancers",
  "7011": "Ġsparks",
  "7012": "Ġfirefly",
  "7013": "pen",
  "7014": "Dan",
  "7015": "Ġposter",
  "7016": "yan",
  "7017": "endy",
  "7018": "Ġcust",
  "7019": "ĠChristmas",
  "7020": "Ġrewarded",
  "7021": "Ġobjects",
  "7022": "Ġdirections",
  "7023": "using",
  "7024": "ingo",
  "7025": "Ġreflection",
  "7026": "Ġhusband",
  "7027": "âĢĶ",
  "7028": "Take",
  "7029": "river",
  "7030": "Ġclues",
  "7031": "uppy",
  "7032": "Ġleads",
  "7033": "Ġincreased",
  "7034": "Ġblocked",
  "7035": "Ġrising",
  "7036": "Ġdod",
  "7037": "Ġcousin",
  "7038": "ĠYesterday",
  "7039": "ĠWithout",
  "7040": "Ġforgetting",
  "7041": "rigued",
  "7042": "Ġcustom",
  "7043": "Kate",
  "7044": "ude",
  "7045": "Ġtrampoline",
  "7046": "Ġbeginning",
  "7047": "Ġstorekeeper",
  "7048": "Ġpouted",
  "7049": "Ġzebras",
  "7050": "Ġhedgehog",
  "7051": "Ġaff",
  "7052": "ĠâĢĺ",
  "7053": "Ġborrowed",
  "7054": "ĠRollie",
  "7055": "Ġsnowfl",
  "7056": "Ġcountryside",
  "7057": "Jump",
  "7058": "Ġmesmer",
  "7059": "ĠJay",
  "7060": "Ġvehicles",
  "7061": "Ġinstrum",
  "7062": "ĠMic",
  "7063": "ĠKayla",
  "7064": "ĠUp",
  "7065": "Ġfrowning",
  "7066": "ivity",
  "7067": "Pat",
  "7068": "Under",
  "7069": "Ġmarker",
  "7070": "yond",
  "7071": "Ġpresses",
  "7072": "Ġbeyond",
  "7073": "ĠQueen",
  "7074": "Ġdamage",
  "7075": "ĠOnly",
  "7076": "iece",
  "7077": "ivery",
  "7078": "Ġfart",
  "7079": "ĠTara",
  "7080": "ĠBiggie",
  "7081": "jo",
  "7082": "Ġhealth",
  "7083": "Ġwhispers",
  "7084": "Ġswimsuit",
  "7085": "Ġslips",
  "7086": "Ġnibb",
  "7087": "ĠJulia",
  "7088": "armer",
  "7089": "Ġwarmer",
  "7090": "Ġflapping",
  "7091": "Ġtiptoed",
  "7092": "Ġregretted",
  "7093": "itted",
  "7094": "Zip",
  "7095": "Ġlaying",
  "7096": "ĠRobo",
  "7097": "ades",
  "7098": "Ġyelp",
  "7099": "ĠFire",
  "7100": "Ġrains",
  "7101": "Ġglued",
  "7102": "Ġeverybody",
  "7103": "Ġcreations",
  "7104": "Ġhearing",
  "7105": "Ġswir",
  "7106": "Ġcolder",
  "7107": "iversity",
  "7108": "ael",
  "7109": "Ġshaped",
  "7110": "ĠElephant",
  "7111": "Ġstreets",
  "7112": "Ġfins",
  "7113": "Ġrusty",
  "7114": "Ġcushions",
  "7115": "Out",
  "7116": "Ġsan",
  "7117": "Ġfarthest",
  "7118": "Ġcreativity",
  "7119": "ĠMikey",
  "7120": "ans",
  "7121": "Ġsale",
  "7122": "Always",
  "7123": "Co",
  "7124": "Ġstrongest",
  "7125": "ibbit",
  "7126": "Ġfits",
  "7127": "ĠSparky",
  "7128": "Ġbells",
  "7129": "Ġdollars",
  "7130": "ĠLarry",
  "7131": "Ġearn",
  "7132": "iam",
  "7133": "angle",
  "7134": "Ġlending",
  "7135": "ĠMoon",
  "7136": "ĠChirp",
  "7137": "eese",
  "7138": "Ġcashier",
  "7139": "Milly",
  "7140": "Ġincluding",
  "7141": "Ġsniffs",
  "7142": "Ġsank",
  "7143": "Ġraincoat",
  "7144": "ĠRich",
  "7145": "Ġtrembled",
  "7146": "Ġstopping",
  "7147": "Ġsource",
  "7148": "iti",
  "7149": "imon",
  "7150": "ĠMissy",
  "7151": "Ġwobbly",
  "7152": "Ġindeed",
  "7153": "ters",
  "7154": "Ġguests",
  "7155": "Ġsingle",
  "7156": "Ġrecommended",
  "7157": "Ġwee",
  "7158": "Ġspells",
  "7159": "Ġaccomplishment",
  "7160": "Ġbelts",
  "7161": "Ġsurprising",
  "7162": "Ġends",
  "7163": "Ġhopeful",
  "7164": "Ġseasons",
  "7165": "ĠTake",
  "7166": "ĠSnowman",
  "7167": "ĠEls",
  "7168": "Bear",
  "7169": "Ġplans",
  "7170": "ichael",
  "7171": "Ġencourag",
  "7172": "Ġsupported",
  "7173": "stick",
  "7174": "illed",
  "7175": "Ġsuffered",
  "7176": "Ġartist",
  "7177": "Ġperformance",
  "7178": "eet",
  "7179": "Nina",
  "7180": "Ġslowed",
  "7181": "Ġgross",
  "7182": "Ġflavors",
  "7183": "iding",
  "7184": "ertain",
  "7185": "Ġspins",
  "7186": "cho",
  "7187": "Quack",
  "7188": "Ġlabels",
  "7189": "Ġraindrops",
  "7190": "Ġdelivery",
  "7191": "uing",
  "7192": "arac",
  "7193": "Ġraccoon",
  "7194": "Ġforgiving",
  "7195": "obody",
  "7196": "ĠWoo",
  "7197": "Ġpours",
  "7198": "the",
  "7199": "ility",
  "7200": "Ġvanilla",
  "7201": "Ġturtles",
  "7202": "Ġstands",
  "7203": "Bill",
  "7204": "uess",
  "7205": "Ġrecipe",
  "7206": "Ġbeam",
  "7207": "Ġtying",
  "7208": "ĠSw",
  "7209": "Ġgeese",
  "7210": "Ġwilling",
  "7211": "Ġrobber",
  "7212": "Ġdrawn",
  "7213": "Vroom",
  "7214": "Ġwept",
  "7215": "ĠBones",
  "7216": "Ġcharac",
  "7217": "Ġpops",
  "7218": "Ġcorners",
  "7219": "ĠSophia",
  "7220": "elia",
  "7221": "Ġqueens",
  "7222": "Ġsailboat",
  "7223": "Ġgrip",
  "7224": "Ġdie",
  "7225": "Ġdrivers",
  "7226": "itude",
  "7227": "Ġmoo",
  "7228": "Ġhallway",
  "7229": "Ġimagining",
  "7230": "Ġseconds",
  "7231": "ĠFuzzy",
  "7232": "Mine",
  "7233": "Ġpreparing",
  "7234": "Ġwidened",
  "7235": "Ġadult",
  "7236": "ĠSpirit",
  "7237": "Ġgrocer",
  "7238": "Ġcoop",
  "7239": "Ġtalented",
  "7240": "ĠPam",
  "7241": "ĠBeaky",
  "7242": "ĠIzzy",
  "7243": "ummies",
  "7244": "Ġsailors",
  "7245": "lling",
  "7246": "Ġsofter",
  "7247": "Ġaside",
  "7248": "Ġwatering",
  "7249": "Ġsending",
  "7250": "Ġknots",
  "7251": "Ġunsure",
  "7252": "Ġtipped",
  "7253": "Lulu",
  "7254": "Ġtreehouse",
  "7255": "Ġhoriz",
  "7256": "ĠLizzie",
  "7257": "Ġnotes",
  "7258": "Ġecho",
  "7259": "igers",
  "7260": "Ġachieved",
  "7261": "Ġhorizon",
  "7262": "Ġsqueak",
  "7263": "Ġdelivering",
  "7264": "Ġpleasure",
  "7265": "Ġhotter",
  "7266": "ĠStella",
  "7267": "Clara",
  "7268": "Ġpupils",
  "7269": "Ġburrow",
  "7270": "Ġangels",
  "7271": "Ġcuriously",
  "7272": "Ellie",
  "7273": "Ġyum",
  "7274": "Ġblinking",
  "7275": "ĠJune",
  "7276": "Ġtweet",
  "7277": "Ġsymbols",
  "7278": "Ġdet",
  "7279": "ĠStretch",
  "7280": "wk",
  "7281": "Ġpassen",
  "7282": "ĠRudy",
  "7283": "ĠCindy",
  "7284": "Ġtummies",
  "7285": "Ġtiss",
  "7286": "Ġpigeons",
  "7287": "Ġfigures",
  "7288": "umbling",
  "7289": "oey",
  "7290": "Ġbandages",
  "7291": "ĠRobert",
  "7292": "Ġcoup",
  "7293": "ĠDoctor",
  "7294": "Ġrobots",
  "7295": "alph",
  "7296": "Ġtossed",
  "7297": "Ġhour",
  "7298": "Ġbackwards",
  "7299": "Ġroars",
  "7300": "Baby",
  "7301": "Ġmerma",
  "7302": "uzz",
  "7303": "Ġrather",
  "7304": "atur",
  "7305": "Maria",
  "7306": "cited",
  "7307": "ĠPlay",
  "7308": "ĠCrab",
  "7309": "Moo",
  "7310": "ighting",
  "7311": "Dolly",
  "7312": "Ġgroceries",
  "7313": "Ġzipping",
  "7314": "Put",
  "7315": "Very",
  "7316": "Ġunw",
  "7317": "prin",
  "7318": "Ġamong",
  "7319": "Ġblown",
  "7320": "Ġicing",
  "7321": "!âĢĿ.",
  "7322": "Ġrumble",
  "7323": "Ġafterwards",
  "7324": "ipper",
  "7325": "Ġscrewd",
  "7326": "ushing",
  "7327": "Ġsped",
  "7328": "Ġprove",
  "7329": "Ġglee",
  "7330": "ĠTiti",
  "7331": "ĠTia",
  "7332": "Ġdip",
  "7333": "Ġovercome",
  "7334": "Ruby",
  "7335": "Quick",
  "7336": "Ġsurfboard",
  "7337": "Ġshovels",
  "7338": "Ġslices",
  "7339": "ĠToot",
  "7340": "Ġmerry",
  "7341": "Ġwobble",
  "7342": "Ġmate",
  "7343": "ĠTurt",
  "7344": "ĠAbbie",
  "7345": "Ġheading",
  "7346": "Ġdisturbing",
  "7347": "Ġswall",
  "7348": "Ġreversed",
  "7349": "Ġfirefighters",
  "7350": "Jul",
  "7351": "Ġswallowed",
  "7352": "Ġchip",
  "7353": "eds",
  "7354": "Ġscored",
  "7355": "Ġflipped",
  "7356": "ĠJump",
  "7357": "Ġsqueezing",
  "7358": "usty",
  "7359": "Frank",
  "7360": "aty",
  "7361": "Su",
  "7362": "Ġwaking",
  "7363": "Ġintrigued",
  "7364": "Sad",
  "7365": "Like",
  "7366": "Ġmaker",
  "7367": "ĠBarky",
  "7368": "awn",
  "7369": "Betty",
  "7370": "Ġpuff",
  "7371": "Ġhawk",
  "7372": "Ġencouraging",
  "7373": "Ġaud",
  "7374": "ĠEx",
  "7375": "osen",
  "7376": "onies",
  "7377": "Ġchosen",
  "7378": "ĠRon",
  "7379": "hew",
  "7380": "ĠFarmer",
  "7381": "ĠAng",
  "7382": "Ġcouple",
  "7383": "Ġdesigns",
  "7384": "Ġslipping",
  "7385": "Ġscrewdriver",
  "7386": "Ġsquishy",
  "7387": "ĠEmmy",
  "7388": "Ġgardener",
  "7389": "Ġcenter",
  "7390": "Ġrivers",
  "7391": "Ġrespond",
  "7392": "Ġmarkers",
  "7393": "iley",
  "7394": "Ġtigers",
  "7395": "Ġjars",
  "7396": "pecting",
  "7397": "Ġfrowns",
  "7398": "bird",
  "7399": "Ġfluttered",
  "7400": "ĠSadly",
  "7401": "ĠKit",
  "7402": "Ribbit",
  "7403": "Ġfirefighter",
  "7404": "ĠSl",
  "7405": "ĠRyan",
  "7406": "Ġsuits",
  "7407": "Ġsecure",
  "7408": "Ġsprinkled",
  "7409": "Ġcreamy",
  "7410": "ashes",
  "7411": "Ġsharks",
  "7412": "Ġignoring",
  "7413": "Ġbru",
  "7414": "Ġgiggles",
  "7415": "Ġtissue",
  "7416": "Ġtighter",
  "7417": "Ġfirmly",
  "7418": "ounce",
  "7419": "ĠLaura",
  "7420": "fly",
  "7421": "Ġshown",
  "7422": "Ġfamiliar",
  "7423": "Ġthorns",
  "7424": "Spike",
  "7425": "ĠWo",
  "7426": "Ġdrawers",
  "7427": "child",
  "7428": "ĠZee",
  "7429": "Ġexpress",
  "7430": "Car",
  "7431": "ments",
  "7432": "Ġdef",
  "7433": "Ġdaring",
  "7434": "Ġcrossing",
  "7435": "Ġaudience",
  "7436": "Ġperforming",
  "7437": "Ġcoloured",
  "7438": "Ġcloudy",
  "7439": "Ġcor",
  "7440": "Ġais",
  "7441": "ĠNick",
  "7442": "ae",
  "7443": "rat",
  "7444": "Ġpedaled",
  "7445": "Get",
  "7446": "Ġmixture",
  "7447": "Ġtil",
  "7448": "Ġgracefully",
  "7449": "ggy",
  "7450": "Ġhaircuts",
  "7451": "Ġyielded",
  "7452": "Ġponies",
  "7453": "Ġdisob",
  "7454": "Ġcrowns",
  "7455": "Ġbits",
  "7456": "Ġtodd",
  "7457": "ĠSleep",
  "7458": "Ġnervously",
  "7459": "Ġhangers",
  "7460": "bbled",
  "7461": "ĠPatch",
  "7462": "Zoomy",
  "7463": "Ġpays",
  "7464": "Ġ2",
  "7465": "Ġpeck",
  "7466": "Ġstroke",
  "7467": "Ġev",
  "7468": "fall",
  "7469": "Bang",
  "7470": "een",
  "7471": "Ġrespected",
  "7472": "Ġnapped",
  "7473": "aven",
  "7474": "Ġminded",
  "7475": "ddie",
  "7476": "Bessie",
  "7477": "ably",
  "7478": "Boys",
  "7479": "Ġtested",
  "7480": "ading",
  "7481": "parent",
  "7482": "ĠChris",
  "7483": "Kim",
  "7484": "ĠUniversity",
  "7485": "ĠNear",
  "7486": "Ġbeeh",
  "7487": "ĠTurtle",
  "7488": "Ġsurfing",
  "7489": "Ġneighbours",
  "7490": "arrow",
  "7491": "vered",
  "7492": "Ġshady",
  "7493": "iona",
  "7494": "arlings",
  "7495": "Ġmagician",
  "7496": "Ġenthusiasm",
  "7497": "Ġdarlings",
  "7498": "Ġwisely",
  "7499": "Ġstitches",
  "7500": "Ġsails",
  "7501": "kend",
  "7502": "Dear",
  "7503": "Ġweekend",
  "7504": "Ġthoughts",
  "7505": "Freddy",
  "7506": "ĠTweetie",
  "7507": "Ġreminds",
  "7508": "Ġtemper",
  "7509": "oring",
  "7510": "tha",
  "7511": "antha",
  "7512": "Ġsurroundings",
  "7513": "Ġspits",
  "7514": "Ġfleas",
  "7515": "Ġteams",
  "7516": "Ġlessons",
  "7517": "Ġfills",
  "7518": "Ġflip",
  "7519": "ĠAlong",
  "7520": "Ġpaintbrush",
  "7521": "Ġmelons",
  "7522": "Ġmermaid",
  "7523": "oni",
  "7524": "Katie",
  "7525": "Ġgrandchild",
  "7526": "Ġhoops",
  "7527": "Ġexplo",
  "7528": "Ġelbow",
  "7529": "Ġsports",
  "7530": "Guess",
  "7531": "Ġlies",
  "7532": "ĠFighting",
  "7533": "rac",
  "7534": "Ġpanicked",
  "7535": "Ġcleaner",
  "7536": "Ġamount",
  "7537": "cused",
  "7538": "Ġlongest",
  "7539": "Ġscooters",
  "7540": "Ġlent",
  "7541": "ita",
  "7542": "immering",
  "7543": "Ġsill",
  "7544": "Ġbeloved",
  "7545": "Pippin",
  "7546": "Ġbeehive",
  "7547": "Alright",
  "7548": "ongrat",
  "7549": "oga",
  "7550": "lle",
  "7551": "ongratul",
  "7552": "Ġoysters",
  "7553": "Ġgrandparent",
  "7554": "Ġforgiven",
  "7555": "Ġmagazines",
  "7556": "Ġarr",
  "7557": "ĠWise",
  "7558": "Ġelf",
  "7559": "Ġrepeating",
  "7560": "Ġdiscussed",
  "7561": "Ġsweetest",
  "7562": "ĠThanks",
  "7563": "Keep",
  "7564": "Ġwadd",
  "7565": "ĠMaya",
  "7566": "Ġreass",
  "7567": "Ġlace",
  "7568": "ĠGranny",
  "7569": "Ġnightmares",
  "7570": "Ġtubes",
  "7571": "ĠWilly",
  "7572": "Ġunderstands",
  "7573": "Ġspoonful",
  "7574": "Ġnood",
  "7575": "Ġbathing",
  "7576": "ĠZoey",
  "7577": "asty",
  "7578": "Am",
  "7579": "Ġsweep",
  "7580": "Ġmanners",
  "7581": "crow",
  "7582": "Uncle",
  "7583": "Ġwrink",
  "7584": "Ġsprang",
  "7585": "Ġnur",
  "7586": "Ġbully",
  "7587": "ĠHolly",
  "7588": "Ġguide",
  "7589": "ĠYet",
  "7590": "onna",
  "7591": "ancy",
  "7592": "Ġcrew",
  "7593": "romise",
  "7594": "Jazz",
  "7595": "Ġbreathed",
  "7596": "while",
  "7597": "steps",
  "7598": "ilda",
  "7599": "ently",
  "7600": "ĠBally",
  "7601": "Ġbulbs",
  "7602": "Ġneare",
  "7603": "Ġgrassy",
  "7604": "Ġwiggly",
  "7605": "Ġtesting",
  "7606": "Ġspies",
  "7607": "Ġcoug",
  "7608": "Ġsolving",
  "7609": "Ġsheets",
  "7610": "ĠRoo",
  "7611": "Ġfootsteps",
  "7612": "ntil",
  "7613": "Afterwards",
  "7614": "Ġspeeding",
  "7615": "Ġfocused",
  "7616": "ounced",
  "7617": "cept",
  "7618": "?!\"",
  "7619": "Ġmesmerized",
  "7620": "Ġcamel",
  "7621": "Ġbraver",
  "7622": "Ġhesitant",
  "7623": "ĠSparkle",
  "7624": "Ġlicking",
  "7625": "Ġrushing",
  "7626": "ĠWell",
  "7627": "Ġjoining",
  "7628": "ĠPuppy",
  "7629": "Ġpolar",
  "7630": "Ġgreeted",
  "7631": "ĠMartha",
  "7632": "espite",
  "7633": "--",
  "7634": "ĠBubb",
  "7635": "Which",
  "7636": "Kiki",
  "7637": "Ġworn",
  "7638": "Ġmaterials",
  "7639": "Ġchanges",
  "7640": "ĠNobody",
  "7641": "undred",
  "7642": "Ġstored",
  "7643": "Ġbicycles",
  "7644": "Ġmast",
  "7645": "Ġanger",
  "7646": "Leave",
  "7647": "Ġpeacefully",
  "7648": "Ġships",
  "7649": "Ġspice",
  "7650": "Ġterrified",
  "7651": "Ġnuzz",
  "7652": "Ġgonna",
  "7653": "ĠShow",
  "7654": "Ġpolitely",
  "7655": "Snow",
  "7656": "Ġspills",
  "7657": "Ġscarecrow",
  "7658": "Ġknives",
  "7659": "Ġevil",
  "7660": "ĠMixy",
  "7661": "ppies",
  "7662": "Ġburying",
  "7663": "ca",
  "7664": "Ġhealing",
  "7665": "Ġaren",
  "7666": "Ġdonkey",
  "7667": "Ġaeroplanes",
  "7668": "freeze",
  "7669": "Even",
  "7670": "Ġseals",
  "7671": "Ġscattering",
  "7672": "Ġmiles",
  "7673": "ĠChewy",
  "7674": "amboo",
  "7675": "Ġdump",
  "7676": "Ġworrying",
  "7677": "Bee",
  "7678": "zoom",
  "7679": "beep",
  "7680": "David",
  "7681": "ĠLenny",
  "7682": "Ġpuzzled",
  "7683": "Ġstacked",
  "7684": "ĠKip",
  "7685": "Penny",
  "7686": "ĠNice",
  "7687": "Ġloses",
  "7688": "dding",
  "7689": "Ġtravelled",
  "7690": "Ġbaskets",
  "7691": "ĠWin",
  "7692": "ĠOkay",
  "7693": "Ġgazing",
  "7694": "Ġblast",
  "7695": "ipes",
  "7696": "ĠTess",
  "7697": "Hurry",
  "7698": "Ġtemperature",
  "7699": "Ġund",
  "7700": "Ġtasting",
  "7701": "Ġdripping",
  "7702": "Ġclue",
  "7703": "Ġbelieving",
  "7704": "Ġpinching",
  "7705": "erm",
  "7706": "Ġsoaking",
  "7707": "Ġrats",
  "7708": "Ġ10",
  "7709": "isc",
  "7710": "Ġsandy",
  "7711": "rect",
  "7712": "ĠIsn",
  "7713": "ĠSimon",
  "7714": "rey",
  "7715": "anwhile",
  "7716": "ĠAbi",
  "7717": "Binky",
  "7718": "Ġpunishment",
  "7719": "Ġbanged",
  "7720": "Ġhumans",
  "7721": "Ġcrashing",
  "7722": "Ġforce",
  "7723": "ĠAna",
  "7724": "Ġhundred",
  "7725": "Ġgest",
  "7726": "ĠLia",
  "7727": "Ġswimmer",
  "7728": "ĠChess",
  "7729": "Ġsnowflakes",
  "7730": "Ġrelaxing",
  "7731": "Ġresisted",
  "7732": "Ġbeeped",
  "7733": "ĠFairy",
  "7734": "Ġquarreled",
  "7735": "ĠĊ",
  "7736": "form",
  "7737": "elie",
  "7738": "Ġramp",
  "7739": "ĠWendy",
  "7740": "Ġjoins",
  "7741": "abby",
  "7742": "Ġbackpacks",
  "7743": "ĠPh",
  "7744": "years",
  "7745": "Ġdressing",
  "7746": "Ġdelayed",
  "7747": "Ġtoddler",
  "7748": "ĠLuckily",
  "7749": "Ġflight",
  "7750": "Ġcovering",
  "7751": "ĠTe",
  "7752": "orter",
  "7753": "Two",
  "7754": "Open",
  "7755": "By",
  "7756": "Ġencouragement",
  "7757": "Ġbenches",
  "7758": "Ġtoward",
  "7759": "Ġscraped",
  "7760": "Ġpurpose",
  "7761": "Ġfocus",
  "7762": "ĠJudy",
  "7763": "Bow",
  "7764": "Ġcorrect",
  "7765": "'.\"",
  "7766": "Ġlipstick",
  "7767": "Ġbamboo",
  "7768": "Spe",
  "7769": "Ġtwinkled",
  "7770": "Ġpotion",
  "7771": "Ġpermitted",
  "7772": "Ġmonths",
  "7773": "ĠCow",
  "7774": "Ġlanguages",
  "7775": "Ġorders",
  "7776": "Ġfreedom",
  "7777": "Tony",
  "7778": "Ġrisks",
  "7779": "Ġpoppies",
  "7780": "Ġmaster",
  "7781": "shm",
  "7782": "Ġnoodles",
  "7783": "Ġfaded",
  "7784": "Ġwounds",
  "7785": "shmallow",
  "7786": "rier",
  "7787": "Kids",
  "7788": "isions",
  "7789": "ĠJojo",
  "7790": "Ġcreams",
  "7791": "Ġbirdhouse",
  "7792": "Ġcells",
  "7793": "Ġannoyed",
  "7794": "ĠHerb",
  "7795": "opes",
  "7796": "Ġsniffing",
  "7797": "Ġcheers",
  "7798": "Ġadults",
  "7799": "Birdy",
  "7800": "Ġunwra",
  "7801": "ecca",
  "7802": "Buzzy",
  "7803": "Ġpuck",
  "7804": "Ġopinions",
  "7805": "Ġfloats",
  "7806": "andas",
  "7807": "Instead",
  "7808": "Ġflown",
  "7809": "Ġsneezes",
  "7810": "Ġscen",
  "7811": "Ġhandsome",
  "7812": "Ġnodding",
  "7813": "ĠMint",
  "7814": "Ġsmelling",
  "7815": "Ġburnt",
  "7816": "Ġ5",
  "7817": "Ġdrifted",
  "7818": "ider",
  "7819": "bage",
  "7820": "Ġwithin",
  "7821": "Ġscient",
  "7822": "Ġheight",
  "7823": "Ġdamaged",
  "7824": "Ġbothering",
  "7825": "Ġtearing",
  "7826": "Ġslither",
  "7827": "Ġpleaded",
  "7828": "Ġinstruments",
  "7829": "Ġease",
  "7830": "ĠAli",
  "7831": "da",
  "7832": "Back",
  "7833": "Ġscientist",
  "7834": "ĠMarie",
  "7835": "Mira",
  "7836": "Goodnight",
  "7837": "Ġpound",
  "7838": "Ġseller",
  "7839": "Ġhanding",
  "7840": "Ġgerm",
  "7841": "ĠSay",
  "7842": "Ġwasting",
  "7843": "Ġfiles",
  "7844": "Ġresults",
  "7845": "Ġdreamt",
  "7846": "ĠMabel",
  "7847": "bell",
  "7848": "Ġexplains",
  "7849": "Ġdestroying",
  "7850": "Ġbrushing",
  "7851": "ousy",
  "7852": "Ġhiss",
  "7853": "Ġcharacters",
  "7854": "ĠRazor",
  "7855": "ĠCr",
  "7856": "Carl",
  "7857": "Ġcertain",
  "7858": "ĠSte",
  "7859": "Pandy",
  "7860": "Behind",
  "7861": "Ġsweaty",
  "7862": "ĠHug",
  "7863": "unched",
  "7864": "Ġbusiness",
  "7865": "ĠRobbie",
  "7866": "Ġtalents",
  "7867": "Ġonward",
  "7868": "Try",
  "7869": "Ġengines",
  "7870": "Ġbravest",
  "7871": "ition",
  "7872": "Ġsternly",
  "7873": "ĠPen",
  "7874": "ĠJanie",
  "7875": "prints",
  "7876": "Ġpostman",
  "7877": "Ġmosquitoes",
  "7878": "Ġminds",
  "7879": "under",
  "7880": "cake",
  "7881": "Ġtuck",
  "7882": "Ġscares",
  "7883": "urious",
  "7884": "Ġstomp",
  "7885": "Ġapologised",
  "7886": "uel",
  "7887": "Ġmanag",
  "7888": "Ġsnuck",
  "7889": "Ġbitten",
  "7890": "attered",
  "7891": "Ġtilted",
  "7892": "Ġswitched",
  "7893": "Ġreminding",
  "7894": "Ġdecisions",
  "7895": "Ġsingers",
  "7896": "Ġdesper",
  "7897": "Ġbehavior",
  "7898": "ĠPoor",
  "7899": "ashing",
  "7900": "ĠJudge",
  "7901": "bbers",
  "7902": "inny",
  "7903": "Ġsqueaked",
  "7904": "Ġpeeled",
  "7905": "ĠEverybody",
  "7906": "Ġyumm",
  "7907": "Ġpurrs",
  "7908": "ĠBra",
  "7909": "Ġtreated",
  "7910": "Ġsmashed",
  "7911": "Ġrustling",
  "7912": "Ġdisplayed",
  "7913": "ĠUntil",
  "7914": "Ġneatly",
  "7915": "Ġmatey",
  "7916": "Ġplanting",
  "7917": "ĠBess",
  "7918": "Ġmarshmallow",
  "7919": "Ġinsp",
  "7920": "Ġyelped",
  "7921": "Ġsy",
  "7922": "Ġgrandparents",
  "7923": "Ġcracks",
  "7924": "Ġbellies",
  "7925": "aver",
  "7926": "Ġshines",
  "7927": "Ġscamp",
  "7928": "ĠNavy",
  "7929": "Ġhoo",
  "7930": "Ġfailed",
  "7931": "Ġcoloring",
  "7932": "ĠYoga",
  "7933": "line",
  "7934": "Ġzooms",
  "7935": "ĠMake",
  "7936": "rup",
  "7937": "Ġnasty",
  "7938": "Ġbreathing",
  "7939": "Ġcombed",
  "7940": "Ġpandas",
  "7941": "Ġdespite",
  "7942": "Ġaddress",
  "7943": "ighing",
  "7944": "Ġwaterfall",
  "7945": "uffin",
  "7946": "omp",
  "7947": "cc",
  "7948": "ĠLoop",
  "7949": "ĠAngel",
  "7950": "Tilly",
  "7951": "Ġwider",
  "7952": "Ġrobbers",
  "7953": "Ġantic",
  "7954": "Play",
  "7955": "Abigail",
  "7956": "Ġsweaters",
  "7957": "Ġechoed",
  "7958": "Ġdoorway",
  "7959": "ĠTodd",
  "7960": "evin",
  "7961": "Ġedges",
  "7962": "Ġinj",
  "7963": "ĠShadow",
  "7964": "Aunt",
  "7965": "Ġgap",
  "7966": "Ġdisobey",
  "7967": "ĠBlinky",
  "7968": "wise",
  "7969": "Liz",
  "7970": "ĠMichael",
  "7971": "Ġtar",
  "7972": "ĠFlick",
  "7973": "oscope",
  "7974": "orking",
  "7975": "Wake",
  "7976": "Ġtaped",
  "7977": "Ġmagnif",
  "7978": "ulp",
  "7979": "father",
  "7980": "Ġscolds",
  "7981": "Ġflaps",
  "7982": "Ġaction",
  "7983": "Ġcrawls",
  "7984": "ĠMindy",
  "7985": "Ros",
  "7986": "Ġswap",
  "7987": "Ġgobbled",
  "7988": "Ġbacks",
  "7989": "ĠGary",
  "7990": "Ġwarri",
  "7991": "ĠFishy",
  "7992": "ĠEddie",
  "7993": "Slow",
  "7994": "Ġsteth",
  "7995": "Ġsever",
  "7996": "Ġshinier",
  "7997": "Ġprobably",
  "7998": "Ġnewspapers",
  "7999": "Ġseveral",
  "8000": "Ġocc",
  "8001": "Rock",
  "8002": "Lena",
  "8003": "Ġencount",
  "8004": "ĠMeg",
  "8005": "Ġserving",
  "8006": "Ġquieter",
  "8007": "Ġplucked",
  "8008": "Ġconnected",
  "8009": "tock",
  "8010": "ĠShare",
  "8011": "Ġouch",
  "8012": "igger",
  "8013": "Ted",
  "8014": "Adam",
  "8015": "Ġgesture",
  "8016": "Too",
  "8017": "Fl",
  "8018": "Ġstudent",
  "8019": "Ġplot",
  "8020": "Ġdoorbell",
  "8021": "Ġsquaw",
  "8022": "Ġcares",
  "8023": "fire",
  "8024": "Ġrescuing",
  "8025": "Ġgrandson",
  "8026": "ĠSe",
  "8027": "Ġspy",
  "8028": "Ġsimply",
  "8029": "Ġrows",
  "8030": "Ġgoo",
  "8031": "iel",
  "8032": "Ġwhistles",
  "8033": "mies",
  "8034": "vant",
  "8035": "Shrink",
  "8036": "Magic",
  "8037": "Ġsnaps",
  "8038": "Ġshorter",
  "8039": "Ġastronauts",
  "8040": "ssss",
  "8041": "Ġunpacking",
  "8042": "Ġcottage",
  "8043": "ĠTime",
  "8044": "Ġswo",
  "8045": "Ġaccidents",
  "8046": "ibi",
  "8047": "Ġswollen",
  "8048": "Ġmood",
  "8049": "ĠNut",
  "8050": "Steve",
  "8051": "abelle",
  "8052": "ĠZippy",
  "8053": "ĠMousy",
  "8054": "anie",
  "8055": "Zara",
  "8056": "Ġbothered",
  "8057": "Hannah",
  "8058": "Ġstethoscope",
  "8059": "found",
  "8060": "Ġtrusting",
  "8061": "Ġcausing",
  "8062": "Mat",
  "8063": "Mad",
  "8064": "Ġleapt",
  "8065": "Ġdresser",
  "8066": "aint",
  "8067": "Ġsou",
  "8068": "Ġproper",
  "8069": "Ġpills",
  "8070": "retty",
  "8071": "Ġthroughout",
  "8072": "Olive",
  "8073": "Ġrunner",
  "8074": "Ġprayers",
  "8075": "ĠDina",
  "8076": "Ġjoyful",
  "8077": "Thomas",
  "8078": "mates",
  "8079": "Ġlocks",
  "8080": "ĠPrince",
  "8081": "Jamie",
  "8082": "Ġgoats",
  "8083": "what",
  "8084": "Ġtarget",
  "8085": "rest",
  "8086": "ĠWait",
  "8087": "ĠKaren",
  "8088": "Ġdears",
  "8089": "ĠBang",
  "8090": "artled",
  "8091": "Red",
  "8092": "Ġwaddled",
  "8093": "Ġmunch",
  "8094": "Ġflips",
  "8095": "ĠCro",
  "8096": "Ġlowered",
  "8097": "Ġstepping",
  "8098": "Ġcons",
  "8099": "ĠJackie",
  "8100": "Ġteachers",
  "8101": "Ġcowboy",
  "8102": "ĠToys",
  "8103": "Ġinches",
  "8104": "Ġenvelopes",
  "8105": "ears",
  "8106": "Ġchar",
  "8107": "ĠVroom",
  "8108": "Ġexplorer",
  "8109": "Ġanticip",
  "8110": "Ġplayd",
  "8111": "ĠReady",
  "8112": "ĠRuff",
  "8113": "ĠRalph",
  "8114": "unity",
  "8115": "Nice",
  "8116": "Finn",
  "8117": "ĠBad",
  "8118": "ening",
  "8119": "Ġknocking",
  "8120": "Ġfloors",
  "8121": "Ġefforts",
  "8122": "ĠPl",
  "8123": "Ġuniforms",
  "8124": "lied",
  "8125": "ĠTri",
  "8126": "Ġaware",
  "8127": "Ġfootprints",
  "8128": "Someone",
  "8129": "Ġnearly",
  "8130": "ĠFiona",
  "8131": "llas",
  "8132": "Ġdisc",
  "8133": "ĠRia",
  "8134": "ivi",
  "8135": "Ġwhimp",
  "8136": "Ġtrot",
  "8137": "Ġsens",
  "8138": "Ġglitt",
  "8139": "Ġappreciation",
  "8140": "oosh",
  "8141": "Ġnecks",
  "8142": "Ġcollap",
  "8143": "Ġchecks",
  "8144": "Ġlapt",
  "8145": "Ġexcept",
  "8146": "Ġplug",
  "8147": "Ġcharge",
  "8148": "ĠJacky",
  "8149": "Ġfluttering",
  "8150": "Ġumbrellas",
  "8151": "Ġstamped",
  "8152": "acy",
  "8153": "Ġsandcastles",
  "8154": "ĠDavey",
  "8155": "Ġstatues",
  "8156": "ĠHoney",
  "8157": "omb",
  "8158": "iscuit",
  "8159": "ails",
  "8160": "Hoppy",
  "8161": "Ġshrank",
  "8162": "ĠAmelia",
  "8163": "rily",
  "8164": "Ġprick",
  "8165": "Ġfinishing",
  "8166": "Ġadds",
  "8167": "rons",
  "8168": "Ġstroll",
  "8169": "Ġhunters",
  "8170": "Ġdodged",
  "8171": "Ġchocolates",
  "8172": "Ġpassengers",
  "8173": "Ġgerms",
  "8174": "oger",
  "8175": "Ġwrigg",
  "8176": "Ġaprons",
  "8177": "Ġaisle",
  "8178": "Ġsets",
  "8179": ".'\"",
  "8180": "ĠGerry",
  "8181": "Ġweeds",
  "8182": "Ġnovels",
  "8183": "order",
  "8184": "Ġdemanding",
  "8185": "ĠTaking",
  "8186": "Ġscratching",
  "8187": "Ġmeows",
  "8188": "issa",
  "8189": "Dr",
  "8190": "Ġnurses",
  "8191": "Lucky",
  "8192": "Ġminding",
  "8193": "Ġdiscussing",
  "8194": "urrender",
  "8195": "Ġkilled",
  "8196": "Ġdriveway",
  "8197": "ĠCari",
  "8198": "Ġbecomes",
  "8199": "Ġtoolbox",
  "8200": "Ġlaptop",
  "8201": "Ġhaird",
  "8202": "ĠEliz",
  "8203": "Ġposit",
  "8204": "Ġattack",
  "8205": "ĠSadie",
  "8206": "ĠDespite",
  "8207": "Speedy",
  "8208": "ĠGl",
  "8209": "sol",
  "8210": "Ġscampered",
  "8211": "Ġbounces",
  "8212": "Ġsupplied",
  "8213": "Ġsprays",
  "8214": "Ġdeed",
  "8215": "Ġtempt",
  "8216": "Ġsuggestion",
  "8217": "Ġfriendships",
  "8218": "Ġburns",
  "8219": "Coco",
  "8220": "Ġslapping",
  "8221": "Ġclosing",
  "8222": "Arrr",
  "8223": "Ġinvites",
  "8224": "Ġbelongings",
  "8225": "Ġanticipation",
  "8226": "Ġspringing",
  "8227": "Ġform",
  "8228": "Ġerase",
  "8229": "Ġcotton",
  "8230": "ĠStan",
  "8231": "Ġtwists",
  "8232": "Ġrays",
  "8233": "Ġsnuggle",
  "8234": "Ġforgives",
  "8235": "Ġmodels",
  "8236": "Ġshall",
  "8237": "Ġmassages",
  "8238": "Ġhumming",
  "8239": "onnie",
  "8240": "Ġresponded",
  "8241": "Ġnewfound",
  "8242": "Ġghosts",
  "8243": "Ġexpecting",
  "8244": "ĠShelly",
  "8245": "Ġcheated",
  "8246": "Does",
  "8247": "ĠWooly",
  "8248": "Gigi",
  "8249": "otte",
  "8250": "Ġtraveling",
  "8251": "ĠNe",
  "8252": "Ġcond",
  "8253": "Ġbattle",
  "8254": "Ġalthough",
  "8255": "alloween",
  "8256": "Ġmommies",
  "8257": "Ġinvitations",
  "8258": "Ġcarries",
  "8259": "Ġaim",
  "8260": "Ġrefreshing",
  "8261": "Ġpresented",
  "8262": "Ġconc",
  "8263": "hel",
  "8264": "Ġtwenty",
  "8265": "Ġrowed",
  "8266": "ĠBumpy",
  "8267": "ots",
  "8268": "Ġsquir",
  "8269": "rie",
  "8270": "arlotte",
  "8271": "Ġfoxes",
  "8272": "Ġcooper",
  "8273": "Ġfinal",
  "8274": "Ġduckling",
  "8275": "Ġcafe",
  "8276": "ĠBibi",
  "8277": "Pip",
  "8278": "Ġmarshmallows",
  "8279": "Ġclicked",
  "8280": "ĠZipper",
  "8281": "oor",
  "8282": "Ġjets",
  "8283": "Ġdesigning",
  "8284": "Ġbeaver",
  "8285": "five",
  "8286": "ĠMuffin",
  "8287": "ĠHalloween",
  "8288": "Ġmugs",
  "8289": "ĠWhoever",
  "8290": "Ġdrown",
  "8291": "ĠAlthough",
  "8292": "Ġtricycle",
  "8293": "Ġpicnics",
  "8294": "Ġoppos",
  "8295": "Ġconvin",
  "8296": "ĠRuth",
  "8297": "ĠExcited",
  "8298": "iens",
  "8299": "ĠCle",
  "8300": "po",
  "8301": "Ġscoops",
  "8302": "Ġcongratul",
  "8303": "ĠPop",
  "8304": "ĠMaddie",
  "8305": "Sadly",
  "8306": "ĠâĢĶ",
  "8307": "Ġtravels",
  "8308": "Ġaliens",
  "8309": "Ġtests",
  "8310": "Ġquestioned",
  "8311": "ĠSpeed",
  "8312": "inted",
  "8313": "Ġstrips",
  "8314": "Ġcraft",
  "8315": "Near",
  "8316": "atty",
  "8317": "Mouse",
  "8318": "covered",
  "8319": "Ġdefe",
  "8320": "ĠFlutter",
  "8321": "ĠBubba",
  "8322": "iri",
  "8323": "Br",
  "8324": "Ġfights",
  "8325": "roken",
  "8326": "Ball",
  "8327": "Ġopposite",
  "8328": "ĠBiggy",
  "8329": "Hmm",
  "8330": "Find",
  "8331": "Elly",
  "8332": "Chloe",
  "8333": "ĠIm",
  "8334": "Ġrout",
  "8335": "Ġgrandfather",
  "8336": "Ġencountered",
  "8337": "Ġafford",
  "8338": "ĠNever",
  "8339": "Ġdecl",
  "8340": "inch",
  "8341": "Ġraising",
  "8342": "iment",
  "8343": "Ġupside",
  "8344": "ĠVivi",
  "8345": "Meanwhile",
  "8346": "Jess",
  "8347": "Ġflashed",
  "8348": "Ġcalmly",
  "8349": "ĠRita",
  "8350": "Ġyawning",
  "8351": "Ġsincere",
  "8352": "Ġrealizes",
  "8353": "aturday",
  "8354": "Trust",
  "8355": "Choo",
  "8356": "Ġcrystals",
  "8357": "Ġbuddy",
  "8358": "ĠSamantha",
  "8359": "Ġcupcakes",
  "8360": "Ġbuckled",
  "8361": "byes",
  "8362": "Both",
  "8363": "Ġwinners",
  "8364": "Ġdefin",
  "8365": "verse",
  "8366": "ris",
  "8367": "',",
  "8368": "Ġweapons",
  "8369": "Ġcaw",
  "8370": "shadow",
  "8371": "Josh",
  "8372": "Ġpackages",
  "8373": "Ġcheat",
  "8374": "ĠSaturday",
  "8375": "Ġsacks",
  "8376": "Ġmesses",
  "8377": "Ġgoodbyes",
  "8378": "Ġcoach",
  "8379": "Ġattem",
  "8380": "quet",
  "8381": "Ġconvers",
  "8382": "ĠTruck",
  "8383": "ĠFlo",
  "8384": "val",
  "8385": "Ġdrift",
  "8386": "Ġcaps",
  "8387": "ĠMina",
  "8388": "ĠEva",
  "8389": "emies",
  "8390": "Ġenemies",
  "8391": "asha",
  "8392": "Ġyummiest",
  "8393": "Ġscrub",
  "8394": "Ġswallow",
  "8395": "Ġreturning",
  "8396": "rian",
  "8397": "Ġadmiration",
  "8398": "ĠSofty",
  "8399": "ĠMegan",
  "8400": "Since",
  "8401": "Ġsprout",
  "8402": "ĠLouise",
  "8403": "Ġunable",
  "8404": "ĠPlaying",
  "8405": "ĠAnother",
  "8406": "ugging",
  "8407": "ooks",
  "8408": "Ġsadder",
  "8409": "Ġfreezing",
  "8410": "Ġbrightest",
  "8411": "Ġbless",
  "8412": "ĠYawn",
  "8413": "Ġrespon",
  "8414": "ĠMan",
  "8415": "reverse",
  "8416": "Ġresponse",
  "8417": "Ġcosy",
  "8418": "ĠOh",
  "8419": "Ġdiamonds",
  "8420": "Ġbride",
  "8421": "stalk",
  "8422": "Ġreapp",
  "8423": "Ġopport",
  "8424": "Ġhonking",
  "8425": "Ġgarbage",
  "8426": "Ġwhispering",
  "8427": "Ġstretches",
  "8428": "Ġprevented",
  "8429": "erk",
  "8430": "antastic",
  "8431": "Ġwhoever",
  "8432": "Ġodd",
  "8433": "Ġawful",
  "8434": "ĠGray",
  "8435": "alth",
  "8436": "Ġweighs",
  "8437": "Ġjourneys",
  "8438": "Ġawoke",
  "8439": "Brrr",
  "8440": "Ġtraps",
  "8441": "Ġspices",
  "8442": "Ġdragonfly",
  "8443": "off",
  "8444": "Ġborn",
  "8445": "Ġreassured",
  "8446": "Ġclip",
  "8447": "ivia",
  "8448": "Ġstall",
  "8449": "Ġbeanstalk",
  "8450": "Ġargum",
  "8451": "Ġexamining",
  "8452": "Ġdefinitely",
  "8453": "Ġbeetles",
  "8454": "Ġautomobiles",
  "8455": "ĠMaisy",
  "8456": "mine",
  "8457": "ici",
  "8458": "Hop",
  "8459": "Ġvisitors",
  "8460": "Ġstuffing",
  "8461": "Ġplaydate",
  "8462": "Ġwashes",
  "8463": "cie",
  "8464": "broken",
  "8465": "Ġwiser",
  "8466": "Ġcustomer",
  "8467": "uper",
  "8468": "emma",
  "8469": "Rachel",
  "8470": "Ġtravelling",
  "8471": "ĠSofia",
  "8472": "ĠJolly",
  "8473": "ĠFlop",
  "8474": "ouquet",
  "8475": "Ġhairdress",
  "8476": "Ġbouquet",
  "8477": "ĠNurse",
  "8478": "orse",
  "8479": "bble",
  "8480": ",'",
  "8481": "Ġtumbled",
  "8482": "Ġdecoration",
  "8483": "Ġcampfire",
  "8484": "ĠElle",
  "8485": "Ġhonesty",
  "8486": "Ġbud",
  "8487": "vy",
  "8488": "ebecca",
  "8489": "Only",
  "8490": "Ġbomb",
  "8491": "Ġwelcoming",
  "8492": "Ġoffering",
  "8493": "Ġwealth",
  "8494": "Ġtroubles",
  "8495": "Ġoccas",
  "8496": "Ġincreasing",
  "8497": "ĠOt",
  "8498": "ĠJax",
  "8499": "ĠHello",
  "8500": "Ġloudest",
  "8501": "Ġinspired",
  "8502": "Ġtype",
  "8503": "Ġparted",
  "8504": "Ġgroan",
  "8505": "ĠChick",
  "8506": "ĠNutty",
  "8507": "irac",
  "8508": "Ġwhales",
  "8509": "ĠThunder",
  "8510": "ĠRicky",
  "8511": "yl",
  "8512": "Ġdeclared",
  "8513": "Ġcorrectly",
  "8514": "yler",
  "8515": "ooky",
  "8516": "fus",
  "8517": "Ġbeaks",
  "8518": "ĠQuacky",
  "8519": "athan",
  "8520": "Ġcleared",
  "8521": "Ġcowboys",
  "8522": "Ġnuzzled",
  "8523": "ĠDotty",
  "8524": "Ġprizes",
  "8525": "Ġexch",
  "8526": "Finny",
  "8527": "Ġwarmly",
  "8528": "ĠMissile",
  "8529": "Ġrewards",
  "8530": "Ġobeyed",
  "8531": "Ġcustomers",
  "8532": "Should",
  "8533": "Ġsirens",
  "8534": "Ġcomforting",
  "8535": "ĠFel",
  "8536": "shaped",
  "8537": "Ġconnect",
  "8538": "ĠFlappy",
  "8539": "match",
  "8540": "Ġtowns",
  "8541": "ĠMagic",
  "8542": "ĠBingo",
  "8543": "elieve",
  "8544": "Ġrely",
  "8545": "ĠVicky",
  "8546": "Honey",
  "8547": "Ġtrigger",
  "8548": "Ġowns",
  "8549": "Ġinsisting",
  "8550": "Ġfantastic",
  "8551": "Ġbends",
  "8552": "ĠFe",
  "8553": "Ġspoiling",
  "8554": "Ġhairdresser",
  "8555": "Ġsurrendered",
  "8556": "Ġsupporting",
  "8557": "Ġshares",
  "8558": "Ġposes",
  "8559": "Ġpipes",
  "8560": "Ġcleans",
  "8561": "rench",
  "8562": "Sun",
  "8563": "Outside",
  "8564": "Julie",
  "8565": "Ġwrinkled",
  "8566": "ĠCook",
  "8567": "Ġchopped",
  "8568": "Ġrecorder",
  "8569": "Ġmoons",
  "8570": "Ġbeaming",
  "8571": "unes",
  "8572": "ellow",
  "8573": "Beth",
  "8574": "Ġthanking",
  "8575": "Ġsnowy",
  "8576": "ĠWolf",
  "8577": "Ġscurry",
  "8578": "Ġexperien",
  "8579": "Ġenjoyable",
  "8580": "Ġactive",
  "8581": "Ġcoral",
  "8582": "ĠPiggy",
  "8583": "Ġenviron",
  "8584": "Ġdollar",
  "8585": "ĠKevin",
  "8586": "worm",
  "8587": "elope",
  "8588": "Ġloc",
  "8589": "Je",
  "8590": "Ġstreamers",
  "8591": "ĠBub",
  "8592": "udged",
  "8593": "ĠPatty",
  "8594": "ĠMother",
  "8595": "ĠZack",
  "8596": "inger",
  "8597": "Suzy",
  "8598": "Ġexamp",
  "8599": "Ġshorts",
  "8600": "Ġshooed",
  "8601": "Ġenvironment",
  "8602": "Tree",
  "8603": "Ġill",
  "8604": "Ġscent",
  "8605": "Ġbruises",
  "8606": "uster",
  "8607": "Ġgrat",
  "8608": "ĠLuc",
  "8609": "Bo",
  "8610": "Ġhisses",
  "8611": "Ġsteering",
  "8612": "Ġself",
  "8613": "Ġplugged",
  "8614": "ĠElsa",
  "8615": "Ġwarrior",
  "8616": "Ġvisits",
  "8617": "Ġexercises",
  "8618": "screen",
  "8619": "irl",
  "8620": "aptain",
  "8621": "Ġdangers",
  "8622": "Ġcuddles",
  "8623": "ĠRel",
  "8624": "ĠMin",
  "8625": "ĠAr",
  "8626": "Ġunfortunately",
  "8627": "Ġsquished",
  "8628": "Ġsigning",
  "8629": "ĠLight",
  "8630": "bee",
  "8631": "Ray",
  "8632": "Ġpilots",
  "8633": "Ġdisappoint",
  "8634": "munk",
  "8635": "Ġgratitude",
  "8636": "Ġapplauding",
  "8637": "Ġproviding",
  "8638": "ĠMoppy",
  "8639": "alf",
  "8640": "Ġtickles",
  "8641": "Ġting",
  "8642": "ĠRub",
  "8643": "Grow",
  "8644": "Ġstorms",
  "8645": "Ġnights",
  "8646": "Ġjud",
  "8647": "Ġconvinced",
  "8648": "Ġbadger",
  "8649": "ĠElsie",
  "8650": "Ġyoun",
  "8651": "Ġresponsib",
  "8652": "Ġchoosing",
  "8653": "ĠKelly",
  "8654": "Joy",
  "8655": "Ġyoungest",
  "8656": "Ġnearest",
  "8657": "Ġbrains",
  "8658": "Ġactivity",
  "8659": "Abby",
  "8660": "Ġexploded",
  "8661": "Ġcoughed",
  "8662": "Ġarranged",
  "8663": "Claire",
  "8664": "Ġrewarding",
  "8665": "ĠTre",
  "8666": "ĠFly",
  "8667": "pr",
  "8668": "good",
  "8669": "erpiece",
  "8670": "Ġsunscreen",
  "8671": "Ġpeep",
  "8672": "Ġbond",
  "8673": "ĠFloppy",
  "8674": "asers",
  "8675": "Mon",
  "8676": "ĠTweety",
  "8677": "ĠSweet",
  "8678": "ĠKaty",
  "8679": "ĠJoan",
  "8680": "ĠSal",
  "8681": "ilities",
  "8682": "Ġannoying",
  "8683": "sn",
  "8684": "Ġsoapy",
  "8685": "meow",
  "8686": "Splash",
  "8687": "Ġrails",
  "8688": "Ġlaces",
  "8689": "Ġthreads",
  "8690": "Ġtapping",
  "8691": "Ġoffic",
  "8692": "Ġappreciated",
  "8693": "ĠPine",
  "8694": "ĠPhil",
  "8695": "boards",
  "8696": "Ġweighing",
  "8697": "Ġheartbroken",
  "8698": "Ġemerged",
  "8699": "Ġcongratulated",
  "8700": "ĠPick",
  "8701": "Danger",
  "8702": "Ġtin",
  "8703": "ĠSil",
  "8704": "Ġcrocodiles",
  "8705": "Ġclerk",
  "8706": "Ġscram",
  "8707": "Ġattempt",
  "8708": "ĠNancy",
  "8709": "water",
  "8710": "Ahoy",
  "8711": "Ġsnug",
  "8712": "Ġmessed",
  "8713": "Ġexample",
  "8714": "Ġdial",
  "8715": "ĠKay",
  "8716": "ĠAny",
  "8717": "Momma",
  "8718": "Ġhooks",
  "8719": "ĠJonny",
  "8720": "Ġtops",
  "8721": "Ġchipmunk",
  "8722": "Ġsoot",
  "8723": "Ġguarding",
  "8724": "Ġbathed",
  "8725": "Ġmanager",
  "8726": "ĠTippy",
  "8727": "ortunately",
  "8728": "ĠMicroscope",
  "8729": "Friends",
  "8730": "ĠDe",
  "8731": "etah",
  "8732": "Snowy",
  "8733": "Ġmasterpiece",
  "8734": "ĠBaa",
  "8735": "Ġerasers",
  "8736": "Ġtips",
  "8737": "Ġfinishes",
  "8738": "Ġfet",
  "8739": "Ġcommon",
  "8740": "ĠTomorrow",
  "8741": "mbers",
  "8742": "Ġtrotted",
  "8743": "Ġnibbled",
  "8744": "Ġmembers",
  "8745": "Ġdigs",
  "8746": "People",
  "8747": "Ġkinder",
  "8748": "Ġcheetah",
  "8749": "Ġparticularly",
  "8750": "Ġchews",
  "8751": "Ġblond",
  "8752": "ircle",
  "8753": "Ġrips",
  "8754": "Ġbeast",
  "8755": "Lizzy",
  "8756": "Ġargument",
  "8757": "ative",
  "8758": "Ġfaith",
  "8759": "ĠHelping",
  "8760": "Ġearned",
  "8761": "Anne",
  "8762": "Ġobserving",
  "8763": "Ġforgiveness",
  "8764": "ĠJoke",
  "8765": "ĠCici",
  "8766": "chievous",
  "8767": "Ġinstantly",
  "8768": "Ġfishes",
  "8769": "Ġexperienced",
  "8770": "Ġcurl",
  "8771": "Ġcheaper",
  "8772": "ĠJumpy",
  "8773": "Rosie",
  "8774": "Ġmischievous",
  "8775": "Ġgenerosity",
  "8776": "Ġcages",
  "8777": "ĠTwist",
  "8778": "Gr",
  "8779": "Baa",
  "8780": "Ġmeowing",
  "8781": "Ġfoam",
  "8782": "mered",
  "8783": "Cindy",
  "8784": "Ġstores",
  "8785": "Ġgrandd",
  "8786": "ĠAg",
  "8787": "etchup",
  "8788": "Ġmattered",
  "8789": "Ġteles",
  "8790": "Ġpasses",
  "8791": "Ġlimp",
  "8792": "Sque",
  "8793": "Ġsleeps",
  "8794": "iolet",
  "8795": "Ġbreaths",
  "8796": "ordinary",
  "8797": "ettle",
  "8798": "ending",
  "8799": "Ġtrans",
  "8800": "Ġrin",
  "8801": "Ġgasps",
  "8802": "ĠFreddie",
  "8803": "Got",
  "8804": "Ġrumbling",
  "8805": "Ġhatch",
  "8806": "ĠMomma",
  "8807": "over",
  "8808": "abra",
  "8809": "Ġgrassho",
  "8810": "Ġaccomplished",
  "8811": "ĠHopper",
  "8812": "acing",
  "8813": "Ġthump",
  "8814": "Ġtelescope",
  "8815": "Ġstrum",
  "8816": "Ġsmartest",
  "8817": "Ġmats",
  "8818": "Ġwhined",
  "8819": "Ġmoat",
  "8820": "Gina",
  "8821": "Ġscrambled",
  "8822": "Ġjugg",
  "8823": "Ġfarmers",
  "8824": "ĠIce",
  "8825": "Ġdrip",
  "8826": "Robbie",
  "8827": "Ġsyrup",
  "8828": "Ġgardens",
  "8829": "Ġcollapsed",
  "8830": "Ġangrily",
  "8831": "ĠMore",
  "8832": "ouraged",
  "8833": "idey",
  "8834": "Ġvegg",
  "8835": "Ġstyles",
  "8836": "Ġforests",
  "8837": "Ġexperiences",
  "8838": "Ġdiscoveries",
  "8839": "hole",
  "8840": "Ġtor",
  "8841": "Ġmedals",
  "8842": "Ġtypes",
  "8843": "Ġotters",
  "8844": "Ġmeaning",
  "8845": "Ġfaint",
  "8846": "Ġconqu",
  "8847": "ĠDoes",
  "8848": "pit",
  "8849": "adabra",
  "8850": "acock",
  "8851": "Ġsnapping",
  "8852": "Ġhardest",
  "8853": "Ġfif",
  "8854": "ering",
  "8855": "Ġmovements",
  "8856": "Ġexpression",
  "8857": "Ġsurv",
  "8858": "Ġchilly",
  "8859": "Ġbubbly",
  "8860": "Ġaffect",
  "8861": "Pinky",
  "8862": "Ġvests",
  "8863": "Ġunfair",
  "8864": "Ġcourt",
  "8865": "Whenever",
  "8866": "Ġtoothbrush",
  "8867": "Ġscores",
  "8868": "Ġextraordinary",
  "8869": "Never",
  "8870": "Ġattitude",
  "8871": "Ġvibr",
  "8872": "Ġhorri",
  "8873": "Ġbluebird",
  "8874": "ĠMonkey",
  "8875": "mel",
  "8876": "lls",
  "8877": "Mo",
  "8878": "Ġspears",
  "8879": "Ġketchup",
  "8880": "ĠBerry",
  "8881": "Mother",
  "8882": "Ġsooner",
  "8883": "Ġgrasshopper",
  "8884": "Ġbehaviour",
  "8885": "Ġpatches",
  "8886": "Ġhabit",
  "8887": "yd",
  "8888": "erts",
  "8889": "Karen",
  "8890": "Ġpokes",
  "8891": "Ġmomma",
  "8892": "Ġafar",
  "8893": "ĠAshley",
  "8894": "lo",
  "8895": "ieves",
  "8896": "Jacob",
  "8897": "Ġthicker",
  "8898": "Ġscri",
  "8899": "ĠFriend",
  "8900": "Jon",
  "8901": "Ġsqueezes",
  "8902": "Ġslithered",
  "8903": "Ġshrunk",
  "8904": "Ġclassmates",
  "8905": "ĠTerry",
  "8906": "ĠFle",
  "8907": "Ġicky",
  "8908": "Ġprickly",
  "8909": "Ġglittering",
  "8910": "Ġexpert",
  "8911": "Ġtopp",
  "8912": "Ġkneeling",
  "8913": "Ġannounced",
  "8914": "ĠSuper",
  "8915": "ĠRiri",
  "8916": "elling",
  "8917": "Ġpeacock",
  "8918": "Ġmarking",
  "8919": "ctric",
  "8920": "Ġcosts",
  "8921": "ĠCally",
  "8922": "ĠAchoo",
  "8923": "Ġzigzags",
  "8924": "Ġwatermel",
  "8925": "Ġthieves",
  "8926": "Ġskirts",
  "8927": "Ġjumper",
  "8928": "Ġhood",
  "8929": "Ġacts",
  "8930": "ĠZog",
  "8931": "ĠApp",
  "8932": "Ġwolves",
  "8933": "ĠSwim",
  "8934": "ĠCloud",
  "8935": "Papa",
  "8936": "Ġthumbs",
  "8937": "Ġsqueaky",
  "8938": "Ġconcer",
  "8939": "Ġcocoon",
  "8940": "Ġwoodcut",
  "8941": "Ġboards",
  "8942": "ĠEliza",
  "8943": "ĠBecky",
  "8944": "Ġservant",
  "8945": "idence",
  "8946": "affle",
  "8947": "Ġcheating",
  "8948": "ĠJason",
  "8949": "bu",
  "8950": "Ġtrading",
  "8951": "Ġraking",
  "8952": "cat",
  "8953": "Jessie",
  "8954": "Ġexplaining",
  "8955": "ĠEric",
  "8956": "rick",
  "8957": "Ġtidied",
  "8958": "Ġbiscuit",
  "8959": "Ġlunchtime",
  "8960": "Ġluckily",
  "8961": "ĠAc",
  "8962": "anced",
  "8963": "Frog",
  "8964": "ĠPuffy",
  "8965": "Ġspilling",
  "8966": "ĠDay",
  "8967": "Fire",
  "8968": "Ġtransform",
  "8969": "Ġdesserts",
  "8970": "ĠUse",
  "8971": "ĠMaddy",
  "8972": "ĠDaniel",
  "8973": "ĠAnimal",
  "8974": "âĢ¦",
  "8975": "ror",
  "8976": "ĠPig",
  "8977": "ĠMine",
  "8978": "ĠStill",
  "8979": "ĠGill",
  "8980": "rough",
  "8981": "amma",
  "8982": "Ġmessages",
  "8983": "Ġmirac",
  "8984": "ĠCaptain",
  "8985": "idy",
  "8986": "Ġwindowsill",
  "8987": "Ġchill",
  "8988": "Ġbeating",
  "8989": "ĠTammy",
  "8990": "ĠLung",
  "8991": "ĠGilly",
  "8992": "oot",
  "8993": "Ġseeking",
  "8994": "Ġactor",
  "8995": "ĠRainbow",
  "8996": "ĠLina",
  "8997": "ĠWilliam",
  "8998": "sess",
  "8999": "its",
  "9000": "ĠMath",
  "9001": "pril",
  "9002": "Any",
  "9003": "Ġforeshadow",
  "9004": "war",
  "9005": "acles",
  "9006": "Bluey",
  "9007": "Ġleans",
  "9008": "ĠStep",
  "9009": "ĠPinch",
  "9010": "ĠHi",
  "9011": "racadabra",
  "9012": "Freeze",
  "9013": "Bounce",
  "9014": "Ġwatermelon",
  "9015": "Ġhissing",
  "9016": "Ġflashing",
  "9017": "Ġdev",
  "9018": "Ġcloths",
  "9019": "ĠTiger",
  "9020": "ĠMonster",
  "9021": "ĠFrankie",
  "9022": "Ġwinding",
  "9023": "Ġpositive",
  "9024": "Ġfunn",
  "9025": "Ġdiscouraged",
  "9026": "ĠWil",
  "9027": "pop",
  "9028": "Ġwoodcutter",
  "9029": "Ġforts",
  "9030": "Ġdripped",
  "9031": "Ġcompete",
  "9032": "Ġteapot",
  "9033": "Ġpressing",
  "9034": "Ġdisagreeing",
  "9035": "icking",
  "9036": "Ġglimmering",
  "9037": "Ġveggies",
  "9038": "Ġtrusts",
  "9039": "Ġtidying",
  "9040": "Ġkangaroos",
  "9041": "ĠPeep",
  "9042": "Ġtempted",
  "9043": "Ġlanding",
  "9044": "ĠFlora",
  "9045": "Ġdock",
  "9046": "Ġshallow",
  "9047": "Ġoverw",
  "9048": "Ġformed",
  "9049": "lers",
  "9050": "Ġrack",
  "9051": "Ġfade",
  "9052": "ĠTooth",
  "9053": "flowers",
  "9054": "Ġworst",
  "9055": "Ġelectric",
  "9056": "Ġcops",
  "9057": "eling",
  "9058": "Nothing",
  "9059": "Ġapology",
  "9060": "iving",
  "9061": "creams",
  "9062": "ai",
  "9063": "Ġsleds",
  "9064": "ĠSilver",
  "9065": "ĠLife",
  "9066": "upid",
  "9067": "Ġcomets",
  "9068": "Ġass",
  "9069": "Owl",
  "9070": "Ġsav",
  "9071": "ĠShark",
  "9072": "ĠMag",
  "9073": "ĠJelly",
  "9074": "Bug",
  "9075": "Ġsituations",
  "9076": "Ġpapa",
  "9077": "Ġofficers",
  "9078": "Ġconversation",
  "9079": "Ġ4",
  "9080": "Rain",
  "9081": "ĠRoger",
  "9082": "ĠCharlotte",
  "9083": "storm",
  "9084": "aye",
  "9085": "Ġsuns",
  "9086": "Ġding",
  "9087": "âĢĿ,",
  "9088": "Ġzips",
  "9089": "Ġstructures",
  "9090": "Ġscurrying",
  "9091": "Ġpizzas",
  "9092": "Ġoverwhel",
  "9093": "Ġmiller",
  "9094": "ĠButter",
  "9095": "Ġgranddaughter",
  "9096": "Ġfoggy",
  "9097": "ĠOlivia",
  "9098": "ĠHurry",
  "9099": "ĠAmber",
  "9100": "Zoe",
  "9101": "ĠJaney",
  "9102": "Ġwebs",
  "9103": "Ġdeserved",
  "9104": "Rabbit",
  "9105": "Ġopportunity",
  "9106": "Ġcubs",
  "9107": "ĠYummy",
  "9108": "ĠSpidey",
  "9109": "ĠSasha",
  "9110": "ĠMixie",
  "9111": "ĠBuster",
  "9112": "Ġsnorted",
  "9113": "Ġrhino",
  "9114": "Ġdifferences",
  "9115": "ĠGold",
  "9116": "Ġquacking",
  "9117": "ĠTell",
  "9118": "ifully",
  "9119": "ended",
  "9120": "Fifi",
  "9121": "Ġheaven",
  "9122": "ĠBirds",
  "9123": "Ġunlo",
  "9124": "Ġlevers",
  "9125": "Ġinchworm",
  "9126": "Ġinter",
  "9127": "Ġapproach",
  "9128": "ĠTyler",
  "9129": "ssess",
  "9130": "Ġseagulls",
  "9131": "Ġpossess",
  "9132": "Ġcooperate",
  "9133": "ĠRufus",
  "9134": "ĠFelix",
  "9135": "ĠBoom",
  "9136": "welcome",
  "9137": "sers",
  "9138": "ragon",
  "9139": "of",
  "9140": "?âĢĿ.",
  "9141": "andra",
  "9142": "Ġpose",
  "9143": "Ġdisappointment",
  "9144": "ĠSmoke",
  "9145": "ocular",
  "9146": "Ġspeaks",
  "9147": "Ġsneaks",
  "9148": "snap",
  "9149": "Ġbinocular",
  "9150": "Ġartwork",
  "9151": "Ġsurfed",
  "9152": "Ġscowl",
  "9153": "Ġanswering",
  "9154": "ĠSnake",
  "9155": "Ġshortcut",
  "9156": "ĠGrand",
  "9157": "Ġsipped",
  "9158": "Ġrobin",
  "9159": "Ġdep",
  "9160": "Climb",
  "9161": "Ġarrest",
  "9162": "ĠInky",
  "9163": "ssy",
  "9164": "Ġunwrapped",
  "9165": "Ġribbit",
  "9166": "Ġreun",
  "9167": "Ġamused",
  "9168": "ĠAmanda",
  "9169": "ugar",
  "9170": "Ġrepeats",
  "9171": "Ġpepperoni",
  "9172": "Ġapplause",
  "9173": "Ġkeyhole",
  "9174": "Ġcheckout",
  "9175": "ĠMae",
  "9176": "ĠCars",
  "9177": "Lia",
  "9178": "Deal",
  "9179": "Ġvisitor",
  "9180": "Ġstriking",
  "9181": "Ġpuppets",
  "9182": "Ġpaddling",
  "9183": "Eat",
  "9184": "Ġunz",
  "9185": "Ġcroaked",
  "9186": "Ġattacked",
  "9187": "ĠCircle",
  "9188": "ĠBrian",
  "9189": "orsie",
  "9190": "Ġspooky",
  "9191": "ĠOtto",
  "9192": "ĠGus",
  "9193": "Each",
  "9194": "Ġgroaned",
  "9195": "Ġbeautifully",
  "9196": "ĠJean",
  "9197": "gar",
  "9198": "cidents",
  "9199": "Ġswimsuits",
  "9200": "Ġconsider",
  "9201": "Ġchecking",
  "9202": "uses",
  "9203": "ĠYellow",
  "9204": "jest",
  "9205": "Ġwaters",
  "9206": "Ġgroom",
  "9207": "ĠSqueak",
  "9208": "ĠSlinky",
  "9209": "yle",
  "9210": "Ġinvent",
  "9211": "Luke",
  "9212": "Ġnets",
  "9213": "Ġexams",
  "9214": "otion",
  "9215": "ets",
  "9216": "Ġdrying",
  "9217": "ĠRebecca",
  "9218": "udy",
  "9219": "artin",
  "9220": "agine",
  "9221": "Ġshrugs",
  "9222": "Ġlump",
  "9223": "ĠAuntie",
  "9224": "sie",
  "9225": "lest",
  "9226": "Ġsobbing",
  "9227": "Ġshyly",
  "9228": "Ġshoots",
  "9229": "Ġhonks",
  "9230": "Ġheels",
  "9231": "Ġcheerfully",
  "9232": "ĠSince",
  "9233": "ili",
  "9234": "hny",
  "9235": "esses",
  "9236": "Ġshh",
  "9237": "Ġchin",
  "9238": "anish",
  "9239": "Ġwhimpered",
  "9240": "Ġhealthier",
  "9241": "Ġhangs",
  "9242": "icious",
  "9243": "Milo",
  "9244": "ĠMus",
  "9245": "Ġcaterpillars",
  "9246": "izzes",
  "9247": "Slowly",
  "9248": "Ġsquinted",
  "9249": "Ġmagnifying",
  "9250": "Ġfries",
  "9251": "ĠRatty",
  "9252": "Ġfascinating",
  "9253": "Ġblamed",
  "9254": "ĠFind",
  "9255": "ulpture",
  "9256": "ching",
  "9257": "Ġsculpture",
  "9258": "Ġfrustration",
  "9259": "ĠTip",
  "9260": "ouched",
  "9261": "Ġshimmering",
  "9262": "ĠPenelope",
  "9263": "Ġposs",
  "9264": "ĠPeace",
  "9265": "edic",
  "9266": "Sharing",
  "9267": "Ġsuck",
  "9268": "Ġpleas",
  "9269": "Ġnumbered",
  "9270": "Ġnibble",
  "9271": "ĠWaffle",
  "9272": "othy",
  "9273": "ibbles",
  "9274": "ellie",
  "9275": "amil",
  "9276": "Ġflowing",
  "9277": "Ġbaa",
  "9278": "hings",
  "9279": "Pepper",
  "9280": "Ġraked",
  "9281": "Ġgrumbled",
  "9282": "ĠOff",
  "9283": "that",
  "9284": "Bubbles",
  "9285": "Ġbuilder",
  "9286": "racted",
  "9287": "eat",
  "9288": "Ġswaying",
  "9289": "Ġpetting",
  "9290": "Ġguards",
  "9291": "Ġfacing",
  "9292": "ĠWoolly",
  "9293": "Ġsprinkle",
  "9294": "Ġmysteries",
  "9295": "Ġdetails",
  "9296": "ĠHar",
  "9297": "sey",
  "9298": "Ġsnort",
  "9299": "Ġflock",
  "9300": "Ġenemy",
  "9301": "ĠBoat",
  "9302": "Ġtextures",
  "9303": "Ġtablet",
  "9304": "Ġgoodies",
  "9305": "ĠCurious",
  "9306": "ĠBarry",
  "9307": "Yesterday",
  "9308": "Ġwig",
  "9309": "Ġpopping",
  "9310": "Ġwildflowers",
  "9311": "Ġstacks",
  "9312": "Ġmarve",
  "9313": "Ġfans",
  "9314": "Ġcrops",
  "9315": "Ġcountries",
  "9316": "ĠJenn",
  "9317": "ĠGracie",
  "9318": "how",
  "9319": "Ġknobs",
  "9320": "ĠTessa",
  "9321": "ĠSeeing",
  "9322": "Ġlocal",
  "9323": "Ġbushy",
  "9324": "Ġstew",
  "9325": "Ġpeeped",
  "9326": "Ġhunting",
  "9327": "Ġdrowned",
  "9328": "Ġbowing",
  "9329": "Ġbinoculars",
  "9330": "Ġangrier",
  "9331": "ĠBubu",
  "9332": "Ġmaps",
  "9333": "ĠMatch",
  "9334": "Ġquizzes",
  "9335": "Ġniece",
  "9336": "Ġmoonlight",
  "9337": "ĠGlow",
  "9338": "Ġoutfits",
  "9339": "ĠJohnson",
  "9340": "ĠDeal",
  "9341": "OO",
  "9342": "Ġwhoosh",
  "9343": "Ġweaker",
  "9344": "Ġwrench",
  "9345": "Ġmindful",
  "9346": "Ġcrowded",
  "9347": "cycles",
  "9348": "Squ",
  "9349": "Ġendings",
  "9350": "ĠBeef",
  "9351": "oll",
  "9352": "Im",
  "9353": "Ġproperty",
  "9354": "Ġhesitation",
  "9355": "Ġflashes",
  "9356": "amiliar",
  "9357": "Ġunless",
  "9358": "Ġimaginations",
  "9359": "Ġfond",
  "9360": "Ġcarts",
  "9361": "Ġboil",
  "9362": "Ġability",
  "9363": "ĠOxy",
  "9364": "ĠAndrew",
  "9365": "getic",
  "9366": "Ġglared",
  "9367": "ĠRight",
  "9368": "ĠAccidents",
  "9369": "stand",
  "9370": "Ġunfamiliar",
  "9371": "Ġspaces",
  "9372": "Ġmicrow",
  "9373": "Ġknit",
  "9374": "Ġhaven",
  "9375": "Ġfolds",
  "9376": "ths",
  "9377": "saw",
  "9378": "Tuna",
  "9379": "Ġresponsibility",
  "9380": "Ġdirtier",
  "9381": "ĠPet",
  "9382": "bank",
  "9383": "Ġpouch",
  "9384": "Ġmicrowave",
  "9385": "Ġdesks",
  "9386": "ibly",
  "9387": "Bless",
  "9388": "Ġcracker",
  "9389": "rnie",
  "9390": "Ġswapped",
  "9391": "Ġmember",
  "9392": "Ġdate",
  "9393": "Ġaston",
  "9394": "ĠOxygen",
  "9395": "ĠRing",
  "9396": "ĠRavi",
  "9397": "lt",
  "9398": "free",
  "9399": "Want",
  "9400": "Cra",
  "9401": "Ġwhine",
  "9402": "Ġsoftened",
  "9403": "Ġrebu",
  "9404": "Ġdoorstep",
  "9405": "Ġdisappearing",
  "9406": "ĠPeggy",
  "9407": "ĠHelen",
  "9408": "ĠBun",
  "9409": "Ġquacks",
  "9410": "Ġnatur",
  "9411": "ĠChip",
  "9412": "scar",
  "9413": "Ġwriter",
  "9414": "Ġlistener",
  "9415": "ĠToo",
  "9416": "ĠFix",
  "9417": "Ġpriv",
  "9418": "Ġblushed",
  "9419": "ĠSpicy",
  "9420": "venir",
  "9421": "Ġpalms",
  "9422": "Ġnoticing",
  "9423": "upt",
  "9424": "repe",
  "9425": "poison",
  "9426": "Ġsouvenir",
  "9427": "ĠPast",
  "9428": "repeat",
  "9429": "entr",
  "9430": "Ġlaws",
  "9431": "Ġdisaster",
  "9432": "ĠTra",
  "9433": "ĠRes",
  "9434": "ĠGabby",
  "9435": "str",
  "9436": "reg",
  "9437": "endant",
  "9438": "Robby",
  "9439": "Ġphones",
  "9440": "ala",
  "9441": "Ava",
  "9442": "Ġconfidence",
  "9443": "ĠLi",
  "9444": "ĠCoal",
  "9445": "ĠCut",
  "9446": "ĠBert",
  "9447": "Ġtimid",
  "9448": "Ġstirs",
  "9449": "Ġoverwhelmed",
  "9450": "ingly",
  "9451": "Being",
  "9452": "Ġmayor",
  "9453": "Ġflick",
  "9454": "guess",
  "9455": "asmine",
  "9456": "Che",
  "9457": "Ġtugging",
  "9458": "ĠPretty",
  "9459": "ĠMole",
  "9460": "lor",
  "9461": "Ġuntangle",
  "9462": "Ġsatisfa",
  "9463": "Ġowls",
  "9464": "Ġmailing",
  "9465": "Ġinjured",
  "9466": "Whose",
  "9467": "Ġsatisfaction",
  "9468": "Ġconcentr",
  "9469": "ĠWhite",
  "9470": "ĠImmediately",
  "9471": "ĠBooks",
  "9472": "Fly",
  "9473": "ĠMarch",
  "9474": "ĠAnimals",
  "9475": "mers",
  "9476": "Sc",
  "9477": "Mittens",
  "9478": "Ġlim",
  "9479": "ĠEat",
  "9480": "this",
  "9481": "Mabel",
  "9482": "Ġprank",
  "9483": "ĠWonder",
  "9484": "ĠNora",
  "9485": "ĠBonnie",
  "9486": "Wiggly",
  "9487": "Ġhooves",
  "9488": "ĠTriangle",
  "9489": "ĠRun",
  "9490": "ĠPot",
  "9491": "ĠMelissa",
  "9492": "ĠKn",
  "9493": "well",
  "9494": "Jeff",
  "9495": "Ġfixer",
  "9496": "ĠStartled",
  "9497": "ĠSir",
  "9498": "ĠClean",
  "9499": "ĠClose",
  "9500": "icate",
  "9501": "Ġsnar",
  "9502": "Ġclut",
  "9503": "lish",
  "9504": "bling",
  "9505": "Excited",
  "9506": "Ġskies",
  "9507": "Ġinstrument",
  "9508": "ĠTrucky",
  "9509": "Ġcapt",
  "9510": "ĠMatilda",
  "9511": "ĠHorsie",
  "9512": "ĠFaye",
  "9513": "adually",
  "9514": "Ġdisagre",
  "9515": "iky",
  "9516": "Ġwriggled",
  "9517": "Ġstains",
  "9518": "Ġrinse",
  "9519": "Ġpecks",
  "9520": "Ġcreak",
  "9521": "ĠSleepy",
  "9522": "Susan",
  "9523": "Ġshave",
  "9524": "Ġbumping",
  "9525": "ĠSing",
  "9526": "ĠIcy",
  "9527": "ĠHeli",
  "9528": "ĠCrabby",
  "9529": "ulf",
  "9530": "Ġswirl",
  "9531": "Ġruff",
  "9532": "Ġbending",
  "9533": "cessary",
  "9534": "Playing",
  "9535": "Close",
  "9536": "Ġsandpit",
  "9537": "Ġexploration",
  "9538": "Ġchatted",
  "9539": "ĠScissors",
  "9540": "Make",
  "9541": "Ġrods",
  "9542": "Ġlever",
  "9543": "Ġfacts",
  "9544": "Sm",
  "9545": "Ġattaching",
  "9546": "ĠCandy",
  "9547": "Ġfooled",
  "9548": "Ġburger",
  "9549": "ĠBro",
  "9550": "Ġglows",
  "9551": "Ġconcerned",
  "9552": "Ġclearly",
  "9553": "Maya",
  "9554": "Ġsalon",
  "9555": "Ġreversing",
  "9556": "Ġlava",
  "9557": "Ġcompan",
  "9558": "Ġcertainly",
  "9559": "els",
  "9560": "Wally",
  "9561": "Ġsmelt",
  "9562": "Ġmotorcycles",
  "9563": "Ġfetched",
  "9564": "Ġcirc",
  "9565": "Ġtroll",
  "9566": "Ġtunes",
  "9567": "Ġsometime",
  "9568": "Ġprod",
  "9569": "Ġoldest",
  "9570": "Ġfireflies",
  "9571": "Ring",
  "9572": "Ġkissing",
  "9573": "Ġchallenges",
  "9574": "Ġblonde",
  "9575": "Kayla",
  "9576": "Ġwarmed",
  "9577": "ĠBobbie",
  "9578": "Ġunlocking",
  "9579": "Ġnatural",
  "9580": "Ġdifferently",
  "9581": "Ġbound",
  "9582": "ĠLots",
  "9583": "urple",
  "9584": "sa",
  "9585": "erg",
  "9586": "Tara",
  "9587": "Dino",
  "9588": "Abracadabra",
  "9589": "Ġrubb",
  "9590": "Ġriverbank",
  "9591": "Ġdetect",
  "9592": "Ġcutter",
  "9593": "Ġcupcake",
  "9594": "Ġconquered",
  "9595": "Ġhates",
  "9596": "Ġalley",
  "9597": "ĠFlap",
  "9598": "sorry",
  "9599": "Ġswirls",
  "9600": "Ġsends",
  "9601": "Ġrealise",
  "9602": "ĠOpen",
  "9603": "ĠFlopsy",
  "9604": "Julia",
  "9605": "Isn",
  "9606": "Ġwiggling",
  "9607": "Ġsensation",
  "9608": "Ġmunched",
  "9609": "Ġbanging",
  "9610": "ĠCammy",
  "9611": "Ġtoppings",
  "9612": "Ġhippos",
  "9613": "Ġfist",
  "9614": "Ġclips",
  "9615": "ĠReliable",
  "9616": "Doctor",
  "9617": "Ġswayed",
  "9618": "Ġstings",
  "9619": "Ġrobe",
  "9620": "Ġmiracle",
  "9621": "Ġhalves",
  "9622": "Ġbrakes",
  "9623": "ĠGreeny",
  "9624": "Hope",
  "9625": "Fish",
  "9626": "Ġsurvive",
  "9627": "Ġostriches",
  "9628": "ĠPink",
  "9629": "ĠClimb",
  "9630": "ula",
  "9631": "keepers",
  "9632": "bert",
  "9633": "Michael",
  "9634": "Ġtorto",
  "9635": "Ġotherwise",
  "9636": "Ġembra",
  "9637": "Ġcrushed",
  "9638": "Ġbubbling",
  "9639": "Ġtents",
  "9640": "ĠLooking",
  "9641": "ani",
  "9642": "Ġrepairing",
  "9643": "ĠOf",
  "9644": "Ġvinegar",
  "9645": "Ġstretchy",
  "9646": "Ġrubbish",
  "9647": "Ġlizards",
  "9648": "ĠWorking",
  "9649": "ĠFlicker",
  "9650": "Ġpassenger",
  "9651": "ĠEd",
  "9652": "aste",
  "9653": "Many",
  "9654": "Ġvibrant",
  "9655": "Ġtortoise",
  "9656": "Ġpounced",
  "9657": "ĠWhich",
  "9658": "Suzie",
  "9659": "Ġscene",
  "9660": "ĠRh",
  "9661": "ĠGrump",
  "9662": "gr",
  "9663": "Ġmooed",
  "9664": "Ġglided",
  "9665": "Ġdesperately",
  "9666": "Ġbas",
  "9667": "Ġsnip",
  "9668": "Ġpoop",
  "9669": "Ġmajest",
  "9670": "Ġintently",
  "9671": "Ġcopied",
  "9672": "Ġcalmer",
  "9673": "ĠSundays",
  "9674": "ĠLightning",
  "9675": "rap",
  "9676": "net",
  "9677": "Ġwoken",
  "9678": "Ġtwel",
  "9679": "Ġrags",
  "9680": "Ġjudges",
  "9681": "Ġjoyfully",
  "9682": "Ġjing",
  "9683": "Ġcoolest",
  "9684": "ĠPer",
  "9685": "smelling",
  "9686": "Ġlectures",
  "9687": "Ġglob",
  "9688": "ĠJody",
  "9689": "lyn",
  "9690": "isible",
  "9691": "Ġhips",
  "9692": "Ġcousins",
  "9693": "Ġastonished",
  "9694": "Ġcapes",
  "9695": "ĠOutside",
  "9696": "ĠLu",
  "9697": "uno",
  "9698": "Eww",
  "9699": "Ġsuccessfully",
  "9700": "Ġspeaker",
  "9701": "Ġreunited",
  "9702": "Ġinvisible",
  "9703": "Ġguesses",
  "9704": "Ġgooey",
  "9705": "Ġarrives",
  "9706": "why",
  "9707": "Ġtwelve",
  "9708": "Ġbats",
  "9709": "urity",
  "9710": "Mikey",
  "9711": "Ġgoodness",
  "9712": "Ġcomputers",
  "9713": "Ġchatting",
  "9714": "ĠCarla",
  "9715": "nded",
  "9716": "mie",
  "9717": "Ġstacking",
  "9718": "Ġsnowflake",
  "9719": "istory",
  "9720": "Ġreappeared",
  "9721": "Ġracer",
  "9722": "Ġpounds",
  "9723": "Ġparks",
  "9724": "Ġdesperate",
  "9725": "Ġcompanion",
  "9726": "Ġcommun",
  "9727": "bed",
  "9728": "Zigzag",
  "9729": "Ol",
  "9730": "Ġluckiest",
  "9731": "Ġlevel",
  "9732": "Ġdou",
  "9733": "Ġank",
  "9734": "Ġtale",
  "9735": "Ġstomachs",
  "9736": "Ġsells",
  "9737": "Ġgall",
  "9738": "Ġdumb",
  "9739": "Ġcrickets",
  "9740": "ĠSugar",
  "9741": "iggles",
  "9742": "Nick",
  "9743": "Ġwinds",
  "9744": "Ġsus",
  "9745": "Ġgates",
  "9746": "Ġdisobeyed",
  "9747": "Ġdisagreement",
  "9748": "ĠSteven",
  "9749": "hile",
  "9750": "More",
  "9751": "Ġpearls",
  "9752": "Ġhoses",
  "9753": "Ġcrisp",
  "9754": "Ġawhile",
  "9755": "ĠWhee",
  "9756": "ites",
  "9757": "Lou",
  "9758": "Ġsoda",
  "9759": "Ġpopsic",
  "9760": "Ġloyalty",
  "9761": "ĠOrange",
  "9762": "Linda",
  "9763": "Ġtongues",
  "9764": "ĠRosa",
  "9765": "usion",
  "9766": "rent",
  "9767": "Ġrider",
  "9768": "ĠCD",
  "9769": "Ooh",
  "9770": "ĠBlack",
  "9771": "pan",
  "9772": "Ġsurely",
  "9773": "Ġabo",
  "9774": "ĠLaw",
  "9775": "ĠAnnabelle",
  "9776": "des",
  "9777": "colored",
  "9778": "Ġoccasion",
  "9779": "Ġbund",
  "9780": "rum",
  "9781": "izza",
  "9782": "dog",
  "9783": "!âĢĻ",
  "9784": "Ġstun",
  "9785": "Ġguitars",
  "9786": "Ġchicks",
  "9787": "chief",
  "9788": "Ġseparating",
  "9789": "Ġseashe",
  "9790": "Ġrebuild",
  "9791": "Ġintelligence",
  "9792": "Ġalligators",
  "9793": "Ġaboard",
  "9794": "ĠRaven",
  "9795": "ĠIron",
  "9796": "ĠApril",
  "9797": "Found",
  "9798": "Ġcroak",
  "9799": "Ġcreep",
  "9800": "ĠWinky",
  "9801": "ĠViolet",
  "9802": "aids",
  "9803": "Something",
  "9804": "Catch",
  "9805": "Ġlearner",
  "9806": "Ġcaution",
  "9807": "Ġcuc",
  "9808": "ĠOld",
  "9809": "ĠCare",
  "9810": "solut",
  "9811": "Ġwhines",
  "9812": "Ġspiky",
  "9813": "Ġrevealing",
  "9814": "Ġrins",
  "9815": "ĠUni",
  "9816": "working",
  "9817": "Ġtickling",
  "9818": "Ġescap",
  "9819": "ĠSettle",
  "9820": "Ġunderwater",
  "9821": "Ġglobe",
  "9822": "Ġcrouched",
  "9823": "ĠRoar",
  "9824": "ĠCoby",
  "9825": "ĠBa",
  "9826": "udge",
  "9827": "everse",
  "9828": "!'.",
  "9829": "Ġprog",
  "9830": "Ġblooms",
  "9831": "Ġappearance",
  "9832": "Ġ''",
  "9833": "urricane",
  "9834": "stop",
  "9835": "seph",
  "9836": "ifer",
  "9837": "fived",
  "9838": "Jan",
  "9839": "Ġstrokes",
  "9840": "Ġleaking",
  "9841": "Ġhatched",
  "9842": "Ġguardian",
  "9843": "ĠSocky",
  "9844": "ealing",
  "9845": "arning",
  "9846": "Ġzookeepers",
  "9847": "Ġtant",
  "9848": "Ġroutine",
  "9849": "Ġpersistence",
  "9850": "Ġdoves",
  "9851": "Snap",
  "9852": "Sleep",
  "9853": "Chicky",
  "9854": "Ġtaps",
  "9855": "Ġsquashes",
  "9856": "Ġquilt",
  "9857": "Ġpainful",
  "9858": "Ġlighting",
  "9859": "Ġblame",
  "9860": "Ġadmit",
  "9861": "Toys",
  "9862": "Ahh",
  "9863": "Ġtempting",
  "9864": "Ġshattered",
  "9865": "Ġripp",
  "9866": "Ġmold",
  "9867": "Ġdeeply",
  "9868": "ĠPuff",
  "9869": "ggles",
  "9870": "Three",
  "9871": "Ralph",
  "9872": "Matt",
  "9873": "Ġthrone",
  "9874": "Ġsquirted",
  "9875": "Ġsecurity",
  "9876": "Ġpeeks",
  "9877": "Ġelectricity",
  "9878": "Ġcentre",
  "9879": "Ġburgers",
  "9880": "ĠSpin",
  "9881": "emon",
  "9882": "con",
  "9883": "Ġrealizing",
  "9884": "Ġcooks",
  "9885": "Ġallowing",
  "9886": "ĠLiam",
  "9887": "ushes",
  "9888": "orth",
  "9889": "oss",
  "9890": "cker",
  "9891": "Jessica",
  "9892": "Ġlar",
  "9893": "Ġexchange",
  "9894": "Ġchopping",
  "9895": "Share",
  "9896": "Sophia",
  "9897": "Ġsweetly",
  "9898": "ĠRace",
  "9899": "ĠQuickly",
  "9900": "ĠAlf",
  "9901": "vering",
  "9902": "Ġsweeter",
  "9903": "Ġrinsed",
  "9904": "Ġglittered",
  "9905": "isapp",
  "9906": "Zero",
  "9907": "Sw",
  "9908": "Ġmelts",
  "9909": "Ġmelody",
  "9910": "Ġgoggles",
  "9911": "Ġfurious",
  "9912": "Ġenergetic",
  "9913": "Ġdefeated",
  "9914": "Ġbuilders",
  "9915": "ĠInch",
  "9916": "asy",
  "9917": "Ġwaded",
  "9918": "Ġtantrum",
  "9919": "Ġsniffled",
  "9920": "Ġchooses",
  "9921": "ĠOtherwise",
  "9922": "ĠCats",
  "9923": "ĠComet",
  "9924": "Ġcontainer",
  "9925": "Ġcompeting",
  "9926": "ĠGiant",
  "9927": "eremy",
  "9928": "bang",
  "9929": "ĠSharp",
  "9930": "ĠMila",
  "9931": "arted",
  "9932": "Ġundone",
  "9933": "Ġseriously",
  "9934": "Ġprotection",
  "9935": "Ġlarger",
  "9936": "Ġlull",
  "9937": "Ġhudd",
  "9938": "Ġattempts",
  "9939": "ĠRara",
  "9940": "ĠPark",
  "9941": "ĠDuke",
  "9942": "Shoo",
  "9943": "Lizzie",
  "9944": "Ġtossing",
  "9945": "Ġhelicopters",
  "9946": "Ġcooed",
  "9947": "Ġcluck",
  "9948": "Ġbuckles",
  "9949": "ĠWhale",
  "9950": "ĠPinchy",
  "9951": "ĠCher",
  "9952": "Sweet",
  "9953": "ĠTears",
  "9954": "ĠSmo",
  "9955": "ĠOver",
  "9956": "solutely",
  "9957": "Still",
  "9958": "Squeaky",
  "9959": "Ġhummed",
  "9960": "Ġdedic",
  "9961": "Ġcourageous",
  "9962": "ĠMa",
  "9963": "ĠHor",
  "9964": "ĠDin",
  "9965": "Maddy",
  "9966": "Everything",
  "9967": "Curious",
  "9968": "Ġracers",
  "9969": "Ġpatients",
  "9970": "Ġmuster",
  "9971": "Ġgod",
  "9972": "Ġdeserves",
  "9973": "Ġaloud",
  "9974": "ĠThings",
  "9975": "aps",
  "9976": "Use",
  "9977": "ĠSquee",
  "9978": "ĠDragon",
  "9979": "Ġtours",
  "9980": "Ġmeets",
  "9981": "Ġmarvel",
  "9982": "ĠRusty",
  "9983": "ĠLiza",
  "9984": "ĠJet",
  "9985": "Froggy",
  "9986": "Ġwrapper",
  "9987": "ĠReddy",
  "9988": "ĠHops",
  "9989": "ĠCrusty",
  "9990": "Ġwhiskers",
  "9991": "Ġnicest",
  "9992": "Ġimproving",
  "9993": "Ġbooth",
  "9994": "ĠLand",
  "9995": "Surrender",
  "9996": "Rocky",
  "9997": "Ġmeadows",
  "9998": "Ġimaginary",
  "9999": "|endoftext|"
}
